the 39844457
of 23005863
, 22904020
. 21346222
and 17745849
to 14899769
in 11634191
a 7620030
for 5800183
@-@ 5187339
on 5018845
that 4880491
) 4000253
( 3965576
is 3684383
with 3331382
by 3155812
as 3072603
be 2818963
/ 2574561
it 2384653
at 2076564
was 2068950
are 2015951
&quot; 1945950
its 1852755
&apos;s 1847642
: 1780934
or 1752041
from 1735110
; 1731463
this 1677420
an 1591013
have 1541035
not 1509669
United 1504419
I 1501840
has 1340800
their 1323684
which 1276668
all 1265237
Nations 1258344
you 1226915
will 1160455
Committee 1062330
also 1056779
had 1046976
been 1025984
General 981296
he 972767
were 972751
international 953500
other 947930
States 925719
we 895716
should 868914
development 847532
would 818080
they 797857
his 774627
countries 770399
but 739641
rights 728209
report 727313
such 717862
- 716934
one 707411
Council 694402
more 683354
under 680691
can 677484
work 647503
women 643874
1 627974
human 624492
there 621774
including 610437
information 604233
support 584655
national 580775
resolution 577179
into 561782
State 557483
out 556062
? 550119
up 543058
new 534415
these 530318
made 528314
if 511013
Assembly 505730
no 502049
time 496074
2 494637
through 491368
implementation 490693
people 488668
some 488511
those 482695
system 480091
between 478582
well 478182
any 475454
session 473379
Government 472682
so 470495
activities 469907
Secretary 455847
who 451718
may 450358
against 444655
per 442974
A 439162
about 438128
Convention 437456
my 436739
two 433951
when 433701
country 432544
Commission 431005
3 430833
our 426522
law 425032
than 415164
your 413338
article 405662
could 401870
only 399764
do 394978
them 394746
use 394746
economic 394504
security 393869
meeting 393800
measures 391661
her 390535
first 383193
said 377709
shall 377706
children 377550
cooperation 376514
she 371949
number 370870
during 368577
$ 366621
International 365735
efforts 362251
programme 361396
organizations 360698
level 358569
&apos; 357606
over 356111
resources 354298
draft 349390
financial 348796
need 348038
year 346946
cent 345573
right 345387
Conference 344056
what 342261
Mr. 341971
non 340320
take 340239
years 339179
process 338727
must 337433
4 337189
regional 334660
social 333182
provide 331999
further 331358
most 330516
order 329708
many 327963
5 325593
public 322307
services 321512
&apos;t 318152
issues 316933
The 316926
ensure 315004
management 314659
Republic 312893
members 312652
Development 310794
assistance 309847
10 308907
within 308203
based 307385
Security 303191
party 302973
after 300831
me 300696
make 300501
b 299073
being 297647
world 297004
provided 294885
Rights 292906
paragraph 291782
health 291283
Group 291035
while 290567
developing 287897
like 286122
areas 285823
education 282414
6 280637
decision 278536
staff 277267
important 275431
China 275129
period 274137
Office 273327
programmes 272951
related 272470
Special 270614
relevant 269932
where 269239
agenda 268712
before 268610
both 267744
part 266555
see 263253
however 262568
particular 261048
action 260753
training 260637
political 259967
policy 259333
since 258732
held 258495
how 258444
following 258267
now 256754
review 250932
persons 250647
legal 249422
among 244872
protection 244109
three 242354
7 241548
adopted 241320
Human 239686
him 238455
high 238180
effective 237593
situation 237120
parties 236549
taken 235736
community 235656
President 234545
item 233115
capacity 232756
continue 231921
used 230899
very 230874
December 230687
each 229267
peace 229087
same 228687
global 228029
access 226054
regard 224281
way 222957
working 222432
without 222105
15 221749
role 221408
C 220392
special 219218
recommendations 219042
set 218849
8 217600
established 217242
12 216854
reports 216364
good 216102
progress 215068
data 213249
accordance 212130
life 210886
respect 210693
Organization 209733
present 208335
technical 207054
case 205599
nuclear 205295
2008 204604
2005 203368
because 202850
Member 202098
local 200515
30 200123
us 199676
11 199550
9 199392
view 199268
2006 197939
full 197480
long 196787
million 196401
Africa 196045
place 196036
Programme 196017
gender 195697
violence 195371
June 195324
end 195081
just 194671
cases 194233
budget 193703
necessary 193010
trade 192435
E 192260
basis 191124
un@@ 190681
d 190175
Board 189854
did 189828
20 189742
possible 189287
&#91; 188084
2010 187863
2007 187641
area 187278
2009 186609
institutions 186351
14 185747
groups 185633
building 184700
policies 184054
increase 183975
general 182971
appropriate 182884
control 182878
even 182849
needs 182482
then 181135
2004 181051
re@@ 179991
upon 179244
! 178850
specific 178211
meetings 177370
available 177025
13 176570
consideration 175099
day 175042
proposed 174867
&#93; 174825
second 174773
developed 174671
region 174152
group 173832
include 173492
given 173387
field 172925
government 172857
Parties 172040
water 171673
project 171584
July 171517
still 171370
African 171150
concerned 170351
current 170084
provisions 169804
issue 169364
World 169231
2011 169171
society 169103
South 169030
total 168725
18 168261
-- 167831
note 167339
National 166642
change 166114
term 166084
military 166036
16 165857
continued 165827
future 164751
various 162523
plan 162105
child 161772
know 161322
2003 161184
account 160720
framework 160383
address 160282
different 160214
noted 160018
sector 160004
promote 159949
much 159894
levels 159233
considered 159169
Social 158763
i 158201
required 158099
2000 157753
European 157546
sustainable 157170
particularly 156765
therefore 156311
importance 156120
last 155951
2002 155881
help 155733
technology 154958
Court 154474
delegation 154161
Economic 154025
major 153417
October 153174
conflict 152920
civil 152645
requirements 152420
own 152206
September 152149
Fund 152000
above 151755
s 151672
participation 151661
Department 151346
several 150689
able 150578
2012 150186
does 150142
S@@ 150035
addition 149969
operations 149919
family 149458
service 149392
II 149382
additional 148905
population 148863
results 148754
conditions 148738
projects 148640
poverty 148599
17 148400
November 147918
go 147865
another 147501
authorities 147390
means 147164
man 146450
humanitarian 146428
submitted 146116
small 145932
Secretariat 145868
2001 145848
private 145494
men 144914
business 144601
get 144511
19 144397
police 144193
e 142896
bodies 142870
impact 142811
21 142512
31 142191
according 142187
S 141717
May 141536
making 140920
New 140796
agencies 140670
result 140242
every 140089
market 139785
Law 139601
towards 139251
food 138972
approach 138760
March 138742
document 138654
Working 138336
attention 138276
whether 138045
25 137837
research 136940
weapons 136689
environment 135682
third 135633
systems 135262
personnel 135261
key 135081
question 134714
status 134528
better 134356
organization 134002
risk 133992
in@@ 133862
Union 133750
representatives 133617
application 132985
increased 132853
Mission 132362
growth 132124
care 132080
concern 131841
discrimination 131670
land 131658
member 131634
22 131536
age 131431
agreed 131342
Governments 131201
taking 131108
force 130902
person 130866
down 130682
Women 130486
received 130142
statement 129852
especially 129828
1999 129744
domestic 129724
establishment 129724
improve 129656
cost 129265
context 129127
costs 128547
rule 128471
give 128461
24 127921
resolutions 127548
2013 127512
January 127484
April 127448
study 127357
monitoring 126779
mandate 126670
might 126026
don 125814
provision 125763
requests 125597
called 125277
request 125168
rules 124973
fully 124794
next 124722
requested 124695
23 124691
concerning 124662
A@@ 124638
problems 124513
best 124508
reporting 124241
quality 124035
G@@ 123488
existing 123462
five 123302
Chinese 122802
consider 122718
representative 122422
adoption 122321
o 122099
recent 122055
comprehensive 122038
environmental 121818
main 121728
four 121695
legislation 121516
come 121339
great 121259
rate 120976
free 120962
coordination 120469
back 120399
production 120176
Action 120030
1998 119992
% 119902
terms 119838
contained 119808
responsibility 119738
put 119591
Protocol 119479
Rapporteur 119447
due 119178
large 119164
foreign 119066
regarding 118984
t 118946
common 118934
B@@ 118535
standards 118235
strengthen 118071
become 118011
fact 117848
justice 117801
subject 117774
table 117534
found 117078
often 117055
procedures 116570
funds 116556
expressed 116298
example 116182
energy 115970
off 115919
included 115706
Affairs 115660
criminal 115409
treatment 115371
governmental 115030
Executive 114999
already 114625
least 113922
relating 113807
implement 113739
response 113661
administrative 113568
less 113523
post 113400
mechanisms 113267
F@@ 113084
together 112904
challenges 112666
P@@ 112608
principles 112559
amount 112482
follow 112406
26 112379
T@@ 112193
days 111463
income 111300
agreement 111258
space 111075
Declaration 111030
practices 110953
form 110683
develop 110676
reported 110287
provides 110260
significant 110234
thus 110051
High 109996
think 109953
state 109792
27 109777
analysis 109527
America 109517
investment 109514
problem 109083
performance 109018
armed 108630
here 108401
took 108043
28 107829
too 107811
school 107777
yet 107677
strengthening 107552
D@@ 107496
providing 107490
Act 107393
UNDP 107096
Ministry 106693
addressed 106656
N@@ 106655
assessment 106497
contributions 106386
line 106170
decisions 105815
planning 105809
obligations 105711
past 105518
No. 105286
early 105048
lack 104907
power 104643
strategy 104311
entitled 104158
having 104134
practice 103766
today 103613
decided 103528
indigenous 103464
light 103451
date 103344
annex 103178
February 103068
paper 102660
employment 102541
cultural 102420
am 102284
August 102106
matter 102036
equipment 101977
Advisory 101880
meet 101448
actions 101442
regular 101428
notes 101070
section 101048
mission 100951
M@@ 100924
want 100824
position 100804
around 100758
effect 100734
consultations 100700
value 100595
interest 100564
reform 100525
always 100371
Palestinian 100154
establish 99943
k@@ 99672
office 99628
although 99608
needed 99413
documents 99401
others 99171
victims 99094
economy 99087
H@@ 98991
using 98925
er 98815
annual 98703
es 98560
East 98402
secretariat 98401
focus 98273
terrorism 98094
K@@ 98050
self 97937
prevention 97858
old 97855
inter 97803
al 97784
matters 97766
29 97636
open 97259
Arab 97075
disarmament 97047
certain 97034
knowledge 96870
L@@ 96861
commitment 96825
say 96747
objective 96641
equality 96517
initiatives 96489
little 96431
s@@ 96001
company 95943
point 95934
.@@ 95898
basic 95736
body 95482
C@@ 95466
Asia 95456
individual 95239
missions 95047
ing 94796
property 94702
forces 94684
P 94674
again 94518
peacekeeping 94487
statements 94396
few 94187
joint 94150
de 94017
let 93941
living 93891
funding 93568
experience 93527
clear 93360
never 93296
low 93283
author 93228
promotion 93155
young 93071
Israel 92843
dialogue 92811
laws 92683
E@@ 92674
Service 92674
list 92616
crime 92176
expected 92162
letter 92017
Centre 92006
please 91803
serious 91723
50 91721
responsible 91544
priority 91487
far 91472
led 91404
organized 91350
official 91168
plans 90900
prevent 90717
arms 90703
home 90682
III 90600
operational 89940
ate 89873
trafficking 89619
para 89611
greater 89603
until 89473
communication 89470
money 89424
To 88899
achieve 88698
months 88673
once 88608
strategic 88554
reduction 88519
natural 88286
workers 88129
potential 88063
peoples 87955
evaluation 87947
d@@ 87930
discussion 87908
promoting 87900
delegations 87797
supported 87707
course 87675
principle 87656
Iraq 87609
sexual 87607
procedure 87500
recommendation 87359
financing 87233
changes 87138
Representative 87093
partners 87056
higher 87053
involved 86921
F 86802
exchange 86568
* 86424
previous 86309
steps 86294
Central 86237
acts 86225
recommended 86034
nature 85951
affected 85884
crisis 85670
HIV 85640
carried 85443
cannot 85424
biennium 85343
find 85263
violations 85167
awareness 85158
y@@ 85080
1997 85055
purpose 85051
y 85026
Ms. 84971
strategies 84957
Director 84674
rural 84575
girls 84535
R@@ 84530
1996 84485
approved 84363
forms 84187
&apos;m 83997
officials 83883
ed 83840
W@@ 83789
treaty 83699
climate 83682
e@@ 83634
currently 83522
American 83432
six 83422
essential 83417
implemented 83395
facilities 83387
agreements 83234
overall 83217
issued 83099
products 83045
call 83017
mechanism 82946
limited 82913
enhance 82884
done 82753
forward 82610
60 82597
implementing 82301
Bank 81979
o@@ 81963
increasing 81888
experts 81636
why 81518
2014 81487
opportunities 81390
understanding 81307
operation 81296
objectives 81292
look 80916
going 80840
Article 80584
whole 80362
pursuant 80287
aimed 80211
committed 80149
offices 80115
communities 80044
adequate 79878
Division 79754
behalf 79689
informal 79680
&apos;@@ 79618
&apos;re 79581
air 79536
medical 79513
1994 79471
safety 79452
play 79415
prepared 79362
instruments 79009
40 78995
strong 78807
facilitate 78577
conduct 78556
benefits 78453
US 78301
proposals 78293
evidence 78257
hand 78009
dis@@ 77952
arrangements 77901
stated 77830
below 77727
media 77715
Chairman 77335
posts 77266
pay 77260
protect 77062
war 77057
t@@ 77043
ting 76938
Europe 76844
face 76733
English 76622
g@@ 76550
material 76451
hours 76415
opportunity 76322
independent 76227
presented 76205
design 76200
informed 76157
equal 76142
1995 76047
love 76015
B 76003
questions 75973
court 75920
Minister 75881
functions 75877
Commissioner 75695
proposal 75670
Covenant 75657
individuals 75627
ers 75365
ensuring 75359
processes 75342
capital 75200
AIDS 75064
goals 74978
resource 74973
guidelines 74860
administration 74811
assist 74738
Treaty 74677
remain 74547
conducted 74536
Panel 74492
labour 74424
bring 74346
Japan 74288
students 74236
reduce 74156
Permanent 74003
wish 73959
items 73873
effects 73865
Tribunal 73767
poor 73721
close 73697
real 73682
positive 73669
away 73642
exercise 73549
recommends 73473
transfer 73454
Democratic 73419
People 73388
team 73385
n@@ 73374
ways 73304
aspects 73213
methods 73191
provisional 72957
Millennium 72858
primary 72854
internal 72787
c 72775
authority 72718
remains 72646
method 72606
freedom 72599
direct 72513
York 72481
communications 72411
reference 72382
negotiations 72316
Russian 72255
integrated 72196
articles 72195
contribute 72180
rather 72173
undertaken 72093
death 72023
concerns 72010
i@@ 71988
Management 71968
ation 71919
f@@ 71898
&apos;ll 71654
lead 71608
wide 71506
manner 71440
O@@ 71416
ts 71356
p@@ 71324
structure 71238
act 70974
return 70848
active 70816
rates 70708
calls 70406
m 70352
Geneva 70316
contribution 70248
fundamental 70116
an@@ 70096
final 70052
Information 70023
language 69827
dated 69785
participants 69779
industry 69727
companies 69652
recognized 69644
things 69630
ability 69537
ated 69537
infrastructure 69533
a@@ 69516
regions 69496
allow 69409
compliance 69348
share 69230
Plan 69093
materials 69037
1993 69026
keep 69022
drug 69018
officers 68917
believe 68794
connection 68401
difficult 68187
de@@ 68171
former 68065
views 68033
asked 68000
throughout 67931
regulations 67886
Agency 67654
text 67447
model 67408
itself 67363
Israeli 67353
construction 67238
fifty 67091
preparation 67072
refugees 66931
kind 66879
p.m. 66781
Trade 66772
UN 66765
identified 66653
despite 66544
hope 66522
times 66500
D 66454
achieved 66452
Charter 66327
A. 66199
judicial 66118
fourth 66070
side 66053
conference 66036
range 66012
multilateral 65892
improving 65849
crimes 65764
UNICEF 65710
came 65638
name 65521
activity 65487
detention 65223
effectively 65195
enforcement 65174
Criminal 65164
introduced 65093
Federation 65066
says 65006
al@@ 64991
claims 64828
critical 64794
commitments 64712
leave 64712
vote 64697
job 64681
institutional 64676
benefit 64606
words 64545
goods 64538
live 64476
left 64387
across 64386
effort 64350
half 64252
schools 64237
outside 64170
Forum 64083
integration 64024
paragraphs 63996
room 63939
substantive 63857
similar 63843
families 63768
Global 63687
house 63654
referred 63577
source 63517
create 63499
outcome 63463
short 63263
Hong 63216
V@@ 63150
debt 63056
indicated 63020
interests 62989
Code 62986
Justice 62976
purposes 62830
l@@ 62809
Unit 62711
Pacific 62571
demand 62529
UNCTAD 62527
Sudan 62518
entities 62478
governance 62438
b@@ 62384
travel 62358
h@@ 62330
I@@ 62263
relations 62215
participate 62198
India 62155
themselves 62098
Kong 62043
assets 62001
circumstances 61969
got 61950
scale 61850
ongoing 61822
later 61763
require 61756
summary 61626
along 61604
traditional 61548
en@@ 61527
month 61511
G 61476
oil 61475
mind 61404
submit 61388
soon 61311
directly 61227
sessions 61215
elements 61206
apply 61193
J@@ 61019
improved 60921
week 60915
brought 60857
culture 60830
effectiveness 60830
territory 60666
100 60649
35 60634
signed 60587
ar@@ 60534
met 60508
Kingdom 60473
ating 60377
central 60348
standard 60347
contract 60338
Institute 60330
estimated 60292
supply 60225
price 60170
55 60146
factors 60125
k 60061
balance 60047
discussions 60038
whose 59913
show 59848
ch@@ 59846
enable 59804
57 59789
revised 59751
IV 59742
sources 59673
build 59570
scope 59553
centres 59498
maintenance 59477
includes 59301
Services 59280
civilian 59278
guidance 59237
mentioned 59121
network 59077
Agreement 59009
disabilities 59004
applied 58930
transport 58793
really 58745
parts 58610
n 58586
paid 58548
Review 58540
Summit 58511
points 58500
deal 58460
step 58369
Canada 58367
sectors 58360
Constitution 58346
core 58339
average 58337
head 58322
something 58290
seen 58274
prior 58241
w@@ 58224
sixty 58212
takes 58185
9@@ 57990
either 57976
physical 57932
expert 57841
Re@@ 57814
complete 57801
65 57727
efficiency 57620
m@@ 57587
welcomed 57581
distribution 57555
B. 57553
indicators 57467
Meeting 57422
stability 57420
situations 57403
Health 57395
fund 57243
city 57195
billion 57181
furthermore 57174
proceedings 57174
delivery 57133
aid 57127
markets 57093
technologies 57067
claim 57066
u@@ 57053
events 56955
32 56861
known 56784
hold 56708
legislative 56651
developments 56528
Cooperation 56472
8@@ 56445
urban 56430
continues 56365
58 56364
Party 56325
stakeholders 56315
59 56236
type 56196
combat 56077
Korea 56069
ever 56068
comments 55965
universal 55954
investigation 55945
initiative 55900
ground 55869
cause 55719
single 55679
34 55651
University 55641
62 55589
61 55518
on@@ 55454
studies 55446
citizens 55444
ates 55423
relationship 55402
peaceful 55336
thought 55236
collaboration 55226
twenty 55218
start 55175
64 55149
l 55098
elections 55015
leaders 54996
c@@ 54976
g 54863
target 54849
goal 54823
associated 54818
went 54799
Support 54772
almost 54762
priorities 54685
anti 54673
responsibilities 54625
2015 54595
33 54569
L.@@ 54546
torture 54518
encourage 54455
45 54438
u 54426
discussed 54409
UNEP 54407
practical 54396
achieving 54387
Public 54294
it@@ 54284
emergency 54278
intergovernmental 54277
carry 54253
fifth 54224
Protection 54110
abuse 54106
loss 54082
UNHCR 54021
Force 53997
36 53962
likely 53931
success 53880
relation 53861
longer 53844
re 53719
receive 53686
addressing 53668
growing 53657
lower 53644
53 53596
voluntary 53549
ted 53530
housing 53485
scientific 53420
alia 53338
identify 53338
completed 53314
border 53258
&apos;ve 53235
recently 53085
conclusion 53079
63 53008
extent 53003
54 52993
reached 52941
ethnic 52897
52 52859
di@@ 52839
personal 52839
states 52835
continuing 52799
though 52785
hard 52784
supporting 52772
48 52734
co 52678
designed 52626
Goals 52583
recalling 52566
debate 52559
stage 52448
beyond 52438
Report 52363
external 52346
7@@ 52291
positions 52238
vulnerable 52203
successful 52173
election 52040
prices 52032
56 51999
maintain 51957
religious 51953
compensation 51944
units 51869
transition 51839
makes 51793
chapter 51725
woman 51598
economies 51566
permanent 51546
invited 51491
advice 51464
net 51450
initial 51417
threat 51417
ad 51377
ations 51360
agency 51346
Regional 51306
welcomes 51251
establishing 51243
partnership 51233
France 51208
specialized 51130
enough 51124
37 51031
reasons 50981
opinion 50941
encouraged 50874
adopt 50858
39 50852
moreover 50836
z@@ 50820
function 50770
thing 50718
red 50660
66 50641
night 50640
OF 50633
art 50632
periodic 50515
Headquarters 50503
proliferation 50492
task 50438
Afghanistan 50424
visit 50413
determination 50384
Z@@ 50348
test 50328
expenditure 50214
reason 50092
Caribbean 50055
raised 49780
h 49710
Congo 49691
tell 49680
THE 49661
son 49652
female 49642
appreciation 49519
feel 49500
approval 49446
site 49441
creation 49399
solution 49399
educational 49395
Crime 49346
commercial 49343
compared 49308
en 49305
event 49225
... 49201
consensus 49181
recovery 49180
majority 49107
finally 49093
export 49089
clearly 49063
requires 49051
Foreign 49030
cover 49025
remained 48970
or@@ 48956
U@@ 48947
consultation 48910
mother 48910
youth 48823
big 48727
Y@@ 48709
professional 48632
French 48624
Political 48607
West 48601
seek 48600
detailed 48533
created 48527
follows 48517
obligation 48514
Beijing 48512
statistics 48497
serve 48489
violation 48413
Room 48407
sent 48340
co@@ 48339
road 48295
r@@ 48266
phase 48219
challenge 48176
bilateral 48169
Non 48156
Environment 48152
North 48122
es@@ 47986
con@@ 47933
read 47907
doing 47858
leadership 47789
concluded 47774
Chair 47757
v@@ 47749
51 47582
38 47570
heart 47549
2@@ 47532
49 47483
Administrative 47409
encourages 47392
skills 47333
move 47323
Implementation 47311
at@@ 47309
Iran 47252
run 47238
applicable 47220
terrorist 47161
over@@ 47128
disaster 47060
ant 47056
product 46949
er@@ 46948
courts 46934
nothing 46897
enterprises 46891
applications 46872
caused 46814
history 46787
Islamic 46777
67 46762
covered 46737
science 46735
Germany 46636
im@@ 46632
sufficient 46606
procurement 46509
sharing 46505
agricultural 46500
displaced 46423
trust 46418
Latin 46410
improvement 46398
Disarmament 46339
offer 46258
jurisdiction 46216
treaties 46208
suggested 46204
turn 46202
accountability 46159
achievement 46153
1992 46134
avoid 46119
ly 46059
parents 46045
audit 46037
lives 46022
original 45945
Civil 45939
Cuba 45907
generally 45900
temporary 45774
41 45755
focused 45745
beginning 45732
written 45685
3@@ 45669
UNFPA 45660
5@@ 45649
aim 45611
settlement 45593
Peace 45589
plenary 45488
p 45469
sea 45429
reflected 45419
duty 45406
actors 45400
regime 45393
47 45378
began 45323
told 45309
ti@@ 45298
insurance 45289
Education 45288
leading 45214
destruction 45179
mainly 45156
th@@ 45138
ad@@ 45137
operating 45117
confidence 45075
am@@ 45073
consistent 45068
credit 45008
6@@ 44997
Syrian 44982
reach 44980
try 44934
round 44861
noting 44837
cash 44817
heard 44775
weapon 44763
conclusions 44757
movement 44752
In 44734
illegal 44723
trial 44668
Section 44661
Australia 44654
submission 44633
partnerships 44624
Middle 44620
respective 44587
ine 44578
Administration 44550
payment 44547
Mexico 44450
record 44441
42 44425
bank 44358
C. 44348
j@@ 44343
tools 44334
cross 44289
sound 44283
st@@ 44253
king 44201
finance 44167
efficient 44076
ac@@ 44067
formal 44022
introduction 44022
sure 44017
judges 43958
Children 43948
added 43947
measure 43944
tax 43926
ago 43883
raising 43858
learning 43851
concept 43818
Optional 43800
monitor 43796
44 43716
68 43709
mass 43687
approaches 43586
presence 43573
series 43476
observations 43469
industrial 43413
content 43288
ic 43222
conferences 43162
class 43130
46 43129
resulting 43127
4@@ 43094
sixth 43073
criteria 43072
implications 43022
ro@@ 43001
entry 42991
seven 42982
committee 42962
senior 42948
negative 42915
urges 42890
contact 42889
Federal 42840
ar 42778
V 42730
types 42600
Vienna 42571
useful 42523
System 42495
closely 42492
independence 42483
appeal 42480
All 42377
43 42342
involving 42342
owing 42284
safe 42280
Discrimination 42241
God 42234
nor 42227
conflicts 42226
Joint 42223
host 42214
ended 42206
launched 42195
Asian 42157
is@@ 42150
Association 42113
damage 42109
decides 42048
actual 41998
understand 41978
planned 41943
sanctions 41896
Child 41894
broad 41891
reduced 41884
consequences 41861
welcome 41842
Internet 41790
Pakistan 41770
1990 41738
registration 41707
transparency 41705
In@@ 41651
instrument 41639
top 41565
near 41535
risks 41534
late 41469
fight 41462
component 41428
sex 41423
complex 41400
timely 41397
fire 41395
father 41361
coming 41347
electronic 41326
described 41324
shown 41321
minimum 41316
determined 41288
forest 41279
lot 41245
a.m. 41235
elected 41203
el@@ 41181
indeed 41176
sub 41144
competition 41018
advance 40995
difficulties 40989
true 40958
collection 40955
actively 40875
Brazil 40868
capacities 40797
looking 40791
stressed 40787
unit 40771
followed 40695
T 40690
base 40677
Sustainable 40665
concrete 40621
exploitation 40602
defined 40598
works 40596
Lebanon 40578
pressure 40553
alternative 40516
waste 40472
reflect 40387
published 40293
R 40279
Persons 40268
gave 40260
rise 40239
relief 40209
rest 40197
sub@@ 40075
word 40075
O 40047
opening 40019
raise 39963
banks 39955
causes 39950
subregional 39943
donors 39936
illicit 39924
enhancing 39870
dollars 39853
UNIDO 39755
governments 39647
Western 39645
increasingly 39642
survey 39615
enhanced 39579
ag@@ 39566
Countries 39531
Bureau 39530
1991 39480
determine 39402
recognition 39395
urgent 39395
le@@ 39387
absence 39342
placed 39305
democratic 39303
aircraft 39301
corruption 39259
accounts 39214
Authority 39203
10@@ 39075
Al 39022
ab@@ 38973
saw 38973
intended 38968
NGOs 38910
Somalia 38903
allowed 38867
possibility 38866
island 38863
medium 38836
keeping 38812
computer 38723
seventh 38681
prepare 38665
deployment 38631
departments 38617
membership 38601
reducing 38561
mutual 38560
failure 38530
immediately 38526
70 38410
ra@@ 38407
enterprise 38402
languages 38396
contributing 38390
lost 38355
press 38302
fields 38281
Chief 38279
fair 38269
accepted 38239
gas 38215
shared 38197
Governing 38190
ri@@ 38169
charge 38164
book 38118
organizational 38099
77 38079
modern 38043
mean 38036
extended 37981
Prevention 37966
Elimination 37890
deep 37868
instead 37818
shows 37784
immediate 37737
car 37692
definition 37682
ous 37677
attacks 37639
thank 37636
usually 37609
documentation 37590
idea 37562
prison 37555
forced 37495
respond 37491
ten 37487
sh@@ 37473
sometimes 37461
discuss 37460
emerging 37458
pre@@ 37448
marriage 37295
Police 37283
assessments 37246
migration 37205
Technology 37169
reviewed 37160
accordingly 37148
estimates 37145
workshops 37133
setting 37086
multi 37074
sense 37067
inter@@ 37055
approximately 37053
size 37010
si@@ 37002
civilians 36978
ask 36936
ha@@ 36926
Officer 36924
solutions 36924
consumption 36890
started 36890
represented 36885
involvement 36882
se@@ 36868
pre 36815
produced 36802
uses 36790
Operations 36742
expertise 36742
highest 36736
democracy 36625
Annex 36622
&apos;d 36611
strengthened 36607
x 36598
rehabilitation 36569
Territory 36547
em@@ 36515
mandates 36479
percent 36469
1@@ 36418
centre 36403
chemical 36395
Labour 36388
earlier 36331
1.@@ 36315
0@@ 36295
percentage 36292
accounting 36253
engaged 36225
be@@ 36196
counter 36172
Community 36158
friends 36145
Mr 36137
Nuclear 36095
recognizing 36037
80 36005
places 35993
options 35990
category 35970
as@@ 35933
mine 35919
workshop 35917
Coordination 35896
occupied 35870
representation 35853
stop 35852
values 35835
alone 35770
ready 35728
express 35716
recruitment 35694
per@@ 35678
participated 35672
became 35668
direction 35666
eight 35613
unless 35606
entire 35598
M 35576
ap@@ 35569
affairs 35555
guarantee 35554
Egypt 35550
undertake 35546
bl@@ 35471
69 35430
racial 35371
Guinea 35367
processing 35339
donor 35322
coordinated 35297
morning 35281
eighth 35269
separate 35251
ninth 35250
remaining 35201
specifically 35168
cut 35159
I. 35140
Strategy 35135
crucial 35128
urged 35043
Al@@ 35025
considering 35021
fall 34941
Rwanda 34896
expression 34890
easy 34840
emphasized 34833
forty 34832
affect 34815
organs 34762
speaking 34761
highly 34727
himself 34703
ex@@ 34659
behind 34645
learned 34624
records 34618
defence 34592
didn 34583
Vice 34581
Kuwait 34519
inclusion 34516
everyone 34497
ic@@ 34468
et 34359
refugee 34339
dealing 34320
targets 34281
De@@ 34267
holding 34224
occupation 34201
imposed 34199
figure 34197
resulted 34197
als 34149
ding 34148
users 34110
won 34091
produce 34090
listed 34056
ance 34047
networks 34015
subprogramme 34011
page 34006
ill 34003
Palestine 33998
assess 33970
&amp; 33920
Legal 33919
2.@@ 33910
agriculture 33891
wife 33886
origin 33840
influence 33801
findings 33780
op@@ 33724
observers 33684
board 33637
L 33619
emphasis 33619
ans 33614
enjoy 33601
headquarters 33593
quite 33592
eyes 33557
executive 33535
learn 33524
closed 33507
examination 33507
appointed 33502
Kosovo 33499
respectively 33492
worked 33459
registered 33437
conventions 33411
combating 33409
fuel 33409
details 33405
felt 33384
v. 33364
cooperate 33347
spirit 33322
regulation 33297
il@@ 33279
Policy 33276
Rules 33238
disease 33208
aware 33202
Add.1 33201
looked 33193
structures 33185
Second 33151
faced 33128
to@@ 33109
Other 33103
constitute 33084
daily 33058
limit 33056
participating 33044
statistical 33033
creating 33004
interested 33003
contracts 32980
weeks 32973
threats 32957
perspective 32897
collective 32885
components 32840
indicate 32780
OHCHR 32773
subsequent 32767
contributed 32744
girl 32721
f 32665
ratification 32665
requirement 32622
Indonesia 32621
responses 32606
degree 32578
tool 32574
grounds 32532
courses 32526
speak 32524
website 32522
pro@@ 32480
offences 32459
secondary 32396
reforms 32368
18@@ 32365
integrity 32361
om@@ 32323
background 32317
contains 32283
90 32280
floor 32274
ings 32266
EU 32238
appointment 32232
Turkey 32229
factor 32227
observed 32208
ds 32199
bad 32171
ist 32162
Islands 32132
giving 32126
authorized 32120
ment 32112
tasks 32107
trying 32093
offered 32077
Liberia 32070
eliminate 32049
VI 32042
recorded 32028
stock 31956
candidates 31953
comes 31917
trends 31916
campaign 31913
otherwise 31911
internationally 31836
funded 31834
actually 31810
mental 31798
software 31756
seems 31752
freedoms 31749
bo@@ 31723
whom 31700
Italy 31669
highlighted 31667
Ireland 31656
interpretation 31654
drugs 31638
Con@@ 31635
employees 31614
ons 31606
entered 31605
flow 31602
accept 31583
played 31509
significantly 31494
honour 31463
zone 31423
te 31416
institution 31385
ter 31340
AND 31299
investigations 31282
except 31247
competent 31221
visits 31217
declaration 31216
Territories 31213
gross 31195
rapid 31175
sought 31174
owned 31162
se 31152
engage 31136
nations 31112
department 31093
punishment 31069
existence 31053
lessons 31053
century 31049
Agenda 30992
th 30972
expenditures 30935
sites 30935
recognize 30933
outcomes 30930
condition 30912
Research 30898
ia 30864
ded 30850
Weapons 30846
widely 30801
First 30785
stay 30782
agree 30779
vehicles 30765
anything 30764
Sierra 30758
secure 30750
completion 30741
Ambassador 30739
Framework 30730
news 30710
substantial 30650
namely 30602
identification 30600
Experts 30586
cities 30581
diseases 30580
ks 30565
categories 30552
thematic 30546
alleged 30542
D. 30541
mail 30522
hear 30497
minorities 30491
Spain 30490
hands 30479
failed 30463
obtained 30448
Congress 30446
supports 30391
inform 30386
writing 30372
migrants 30364
experiences 30359
outstanding 30357
etc 30344
availability 30333
considers 30332
spoke 30325
Space 30272
Assistance 30242
allegations 30227
moment 30221
seeking 30196
proper 30179
marine 30173
Switzerland 30160
everything 30152
tic 30148
strength 30143
granted 30108
talk 30082
le 30078
complaints 30055
cycle 30052
yes 30034
obtain 30023
door 30021
facing 29971
largest 29965
strongly 29962
element 29942
_ 29919
release 29917
payments 29908
teaching 29907
stand 29900
teachers 29900
extend 29876
begin 29856
ul@@ 29797
Chamber 29784
front 29774
he@@ 29774
religion 29759
1,@@ 29749
traffic 29749
considerable 29735
r 29728
N 29707
Peacekeeping 29694
75 29671
der 29651
COP 29626
simple 29579
ah 29565
vital 29564
losses 29551
enter 29508
te@@ 29497
consent 29476
Zealand 29475
database 29445
forum 29424
200 29419
out@@ 29406
thirty 29397
ge@@ 29395
me@@ 29365
exist 29361
mis@@ 29340
inclusive 29332
tion 29317
IAEA 29309
Cultural 29306
nation 29299
ator 29296
decide 29283
jobs 29253
delay 29222
previously 29175
3.@@ 29166
standing 29164
presentation 29147
selected 29126
Leone 29115
ol@@ 29099
regulatory 29080
ec@@ 29076
emissions 29050
advisory 29019
opened 29018
someone 29009
Financial 28985
Netherlands 28984
minority 28982
nearly 28979
supplies 28942
preventing 28923
territorial 28897
killed 28891
attack 28859
functioning 28852
numbers 28849
electoral 28840
It 28832
Argentina 28819
territories 28812
Great 28790
linked 28773
Chairperson 28745
norms 28744
topic 28744
Haiti 28743
globalization 28730
theme 28724
Control 28715
Deputy 28692
maintained 28690
Gaza 28676
announced 28662
pe@@ 28637
Ministers 28604
00 28569
teams 28540
Parliament 28531
trend 28515
Norway 28490
firm 28483
Mar@@ 28470
res 28465
investments 28461
amounts 28455
speakers 28451
expansion 28446
instance 28435
sovereignty 28435
specified 28397
populations 28367
differences 28344
diplomatic 28336
ent 28306
amendments 28305
Bosnia 28290
British 28275
qu@@ 28249
ch 28229
inside 28229
unable 28211
est 28192
dissemination 28189
pointed 28187
concluding 28184
lo@@ 28182
built 28142
expenses 28132
la@@ 28115
Fifth 28110
carrying 28109
reproductive 28087
code 28050
victim 28046
decrease 27993
numerous 27993
ors 27982
showed 27951
search 27939
confirmed 27934
nationality 27895
tive 27865
advanced 27857
no@@ 27856
coverage 27852
engagement 27835
Habitat 27814
subsequently 27809
characteristics 27794
bearing 27792
judge 27779
located 27772
15@@ 27742
restrictions 27738
containing 27720
happy 27720
acting 27713
UN@@ 27691
getting 27657
draw 27597
rich 27583
ship 27582
latest 27541
ones 27525
Burundi 27523
theory 27520
realization 27519
subsidiary 27516
flows 27513
identity 27503
targeted 27502
duties 27500
formulation 27496
buy 27468
Cyprus 27459
sign 27453
Field 27445
heavy 27435
oversight 27392
13@@ 27386
examples 27371
add 27321
station 27318
advantage 27311
white 27278
convened 27259
ity 27254
location 27249
Year 27234
li@@ 27230
maintaining 27223
sales 27220
contents 27215
birth 27191
maximum 27187
sp@@ 27171
sustained 27152
friend 27134
fine 27114
Yugoslavia 27100
simply 27095
minutes 27094
older 27075
nevertheless 27070
allocation 27068
technological 27063
combined 27057
sentence 27041
ideas 27037
aims 27032
constitutional 27004
reintegration 26998
online 26987
protected 26959
unemployment 26954
surface 26904
Gender 26903
mortality 26891
ownership 26884
delivered 26880
comply 26872
cold 26861
disability 26854
ren@@ 26847
budgetary 26825
us@@ 26812
Darfur 26805
Assistant 26797
green 26795
heads 26795
guide 26793
nine 26781
stations 26758
complainant 26726
program 26712
reasonable 26702
generation 26689
lines 26684
equitable 26638
reconciliation 26637
quickly 26628
Lebanese 26624
sale 26612
encouraging 26605
answer 26593
Prosecutor 26588
2,@@ 26587
perhaps 26586
blood 26584
sensitive 26574
elimination 26554
fl@@ 26542
satisfaction 26541
troops 26535
race 26525
Prime 26524
worldwide 26520
recognizes 26500
choice 26482
enjoyment 26459
Technical 26446
Supreme 26442
wanted 26431
Day 26423
fulfil 26423
receiving 26407
updated 26398
reservations 26394
formed 26362
bed 26358
stress 26353
And 26340
disasters 26328
Herzegovina 26317
endorsed 26313
wishes 26313
sides 26295
ve@@ 26287
Decade 26268
Nigeria 26258
names 26234
governing 26220
offence 26217
transportation 26217
designated 26214
middle 26212
link 26207
tried 26206
appear 26200
achievements 26198
object 26190
assessed 26187
3,@@ 26171
expresses 26147
arising 26143
Third 26136
Ch@@ 26121
12@@ 26103
Britain 26096
&apos;Ivoire 26086
preliminary 26079
trading 26064
ve 26061
Regulations 26029
normal 26025
internally 26019
productive 25997
Food 25987
enabling 25982
attend 25975
Sea 25962
Colombia 25950
um 25947
version 25945
changing 25932
ness 25932
Population 25917
fixed 25885
initiated 25853
changed 25852
Ukraine 25850
character 25825
attended 25817
corporate 25817
proportion 25797
kept 25780
clean 25768
Monday 25759
ratified 25754
boy 25752
4,@@ 25743
returned 25734
latter 25726
paras 25724
principal 25705
ne@@ 25676
primarily 25666
thousands 25661
frameworks 25660
Training 25658
outer 25610
convention 25587
Northern 25586
protecting 25573
Ethiopia 25564
amended 25546
systematic 25530
estimate 25513
helped 25500
diversity 25499
verification 25489
stable 25457
An@@ 25443
commission 25440
investigate 25440
unique 25440
po@@ 25432
born 25404
seem 25399
UNODC 25392
option 25391
fish 25384
figures 25378
mainstreaming 25364
Sweden 25361
partner 25353
19@@ 25350
saying 25350
penalty 25345
amendment 25336
tions 25331
ally 25310
ILO 25308
asylum 25290
hour 25282
commissions 25273
par@@ 25270
favour 25267
Côte 25266
difference 25235
resolve 25234
believes 25231
des 25228
managers 25205
selection 25195
ta@@ 25189
su@@ 25164
contain 25157
eradication 25152
preparing 25151
17@@ 25136
accused 25134
exports 25121
mo@@ 25117
relatively 25108
publications 25076
16@@ 25067
Inter 24999
charges 24987
occurred 24985
bi@@ 24954
Friday 24948
pending 24933
gap 24927
publication 24911
turned 24884
send 24882
fear 24858
ses 24832
prosecution 24827
Trust 24826
forth 24802
join 24790
committees 24789
under@@ 24789
powers 24756
becoming 24751
incidents 24725
Spanish 24712
finding 24703
ICT 24695
thereby 24693
user 24688
drafting 24684
73 24679
pa@@ 24671
Humanitarian 24660
ies 24657
voice 24656
invites 24648
books 24639
FAO 24634
speed 24631
pursue 24629
entity 24628
w 24625
examine 24605
multiple 24583
sustainability 24582
chemicals 24569
Morocco 24567
300 24558
allocated 24555
14@@ 24552
spread 24548
jointly 24537
Internal 24533
z 24529
passed 24519
variety 24510
gives 24480
IN@@ 24469
structural 24467
empowerment 24466
impacts 24440
town 24438
hi@@ 24426
binding 24420
liability 24407
sts 24404
Fourth 24394
manage 24394
represent 24372
write 24366
ot@@ 24353
IC@@ 24338
hoped 24330
Ex@@ 24323
ir@@ 24306
K 24297
declared 24281
regularly 24276
pl@@ 24275
racism 24264
released 24263
Eastern 24257
transparent 24252
geographical 24245
Staff 24236
patients 24233
dispute 24223
neither 24211
increases 24207
improvements 24164
ten@@ 24162
observer 24157
facilitating 24139
ter@@ 24129
Thailand 24110
UNESCO 24089
H 24087
refer 24075
ling 24064
72 24046
controls 24044
arrest 24040
drawn 24032
innovative 24024
vision 24013
believed 24006
x@@ 23995
rose 23979
tourism 23975
ou@@ 23963
extensive 23955
game 23906
investors 23906
testing 23882
obstacles 23879
reservation 23824
adaptation 23781
thinking 23767
fell 23730
perform 23698
expand 23693
Initiative 23688
Kenya 23688
Questions 23676
savings 23639
inspection 23623
ph@@ 23622
leaving 23617
reconstruction 23606
severe 23600
radio 23599
socio 23571
ge 23554
letters 23550
yourself 23543
master 23542
coordinate 23534
examined 23532
Azerbaijan 23524
check 23523
intention 23522
mines 23514
beautiful 23509
boys 23497
scheduled 23484
attempt 23476
6.@@ 23470
conformity 23467
message 23467
legitimate 23457
pollution 23452
vehicle 23428
preparatory 23422
plant 23398
Indigenous 23396
U 23388
served 23374
pilot 23372
burden 23364
reviews 23358
sets 23340
ments 23339
Uganda 23335
Members 23327
extension 23300
notice 23297
suffering 23284
grant 23281
facts 23277
el 23265
Principles 23259
affecting 23252
attached 23252
remember 23222
El 23218
web 23175
Q@@ 23158
choose 23155
les 23144
fast 23141
Paris 23133
London 23127
identifying 23078
Myanmar 23073
transactions 23065
weight 23057
la 23046
car@@ 23042
male 23042
expanded 23038
disputes 23034
image 23034
demands 23029
CEDAW 23012
doesn 23012
prisoners 22987
husband 22983
Iraqi 22973
satellite 22972
links 22963
VII 22958
transit 22949
discriminatory 22946
currency 22938
map 22931
bringing 22925
ism 22902
ma@@ 22868
abroad 22865
Russia 22858
Resources 22856
employed 22851
Subcommittee 22824
thanks 22811
appears 22810
Terrorism 22796
substances 22793
vi@@ 22792
constructive 22777
interim 22772
equity 22771
black 22770
constraints 22763
Oh 22736
wall 22735
managed 22730
Under 22728
ves 22676
= 22671
ing@@ 22671
violated 22666
joined 22665
bear 22662
schedule 22644
capabilities 22634
Energy 22633
Philippines 22630
Chile 22624
teacher 22624
4.@@ 22615
preventive 22614
worth 22614
5,@@ 22611
ties 22606
launch 22602
meaning 22590
e.g. 22575
ative 22559
train 22557
customs 22552
City 22535
grave 22532
looks 22519
migrant 22500
Jerusalem 22499
ice 22498
ry 22487
Lord 22486
Car@@ 22475
welfare 22469
innovation 22466
covering 22446
probably 22441
reaching 22432
sanitation 22414
music 22390
Status 22386
soldiers 22386
os 22365
Georgia 22358
trained 22357
You 22343
monthly 22340
reading 22329
reality 22324
extreme 22320
explained 22314
spent 22307
remedies 22301
76 22274
treated 22273
His 22272
71 22271
ahead 22261
arrested 22258
Power 22254
eat 22240
extremely 22189
import 22189
running 22186
U.S. 22176
safeguards 22176
W 22175
valuable 22161
troop 22159
starting 22156
break 22155
reiterates 22152
largely 22146
reiterated 22139
truth 22139
advocacy 22126
Refugees 22118
consultative 22114
ical 22114
+ 22113
moving 22108
Algeria 22082
decade 22072
Project 22054
um@@ 22051
C.2 22047
guarantees 22041
asset 22029
recalled 22018
bit 21984
earth 21977
explore 21956
WTO 21940
represents 21937
ian 21931
Drugs 21929
volume 21902
experienced 21885
gold 21885
easily 21866
offers 21864
scheme 21847
adjustment 21846
ver@@ 21834
man@@ 21832
--@@ 21824
Timor 21824
distributed 21823
larger 21817
NPT 21816
president 21797
reply 21755
focal 21754
OIOS 21751
Y 21744
goes 21727
story 21712
limits 21689
composition 21684
Tuesday 21678
Family 21673
television 21670
roles 21667
reaffirming 21658
ters 21657
utilization 21653
file 21635
aged 21634
comment 21632
ages 21619
Austria 21615
wrong 21590
74 21561
IS@@ 21561
perpetrators 21547
staffing 21547
academic 21538
6,@@ 21537
assigned 21536
decades 21533
alization 21531
fiscal 21522
decline 21511
Network 21501
Forces 21498
south 21468
do@@ 21464
indicates 21458
machine 21458
for@@ 21447
update 21432
settlements 21429
sc@@ 21428
panel 21427
ton 21425
knew 21424
helping 21421
Forms 21409
permit 21409
phone 21409
Saudi 21400
dignity 21380
programming 21376
authors 21372
ur@@ 21356
fighting 21342
belief 21328
serving 21328
introduce 21317
Malaysia 21310
campaigns 21303
seriously 21297
.2 21273
95 21272
contrary 21269
Thursday 21265
mid 21258
John 21254
.1 21248
id 21247
acceptance 21226
methodology 21224
features 21193
district 21190
remote 21185
ed@@ 21180
St@@ 21176
seemed 21170
é@@ 21165
Scientific 21149
Partnership 21143
ble 21143
ster 21137
Bangladesh 21134
LDCs 21124
judiciary 21099
85 21098
village 21096
20@@ 21090
mobile 21082
storage 21082
dangerous 21079
quarter 21071
locations 21066
tu@@ 21052
suffered 21033
Jordan 21032
Foundation 21028
broader 21018
78 21015
ke 21014
ked 20995
talks 20982
Wednesday 20966
98 20959
trans@@ 20946
Monitoring 20941
overcome 20939
popular 20938
ful 20922
cutting 20913
officer 20909
techniques 20906
mining 20893
Coordinator 20876
stresses 20856
anyone 20850
humanity 20842
reaffirms 20824
seminars 20794
friendly 20793
chance 20791
Task 20787
mandated 20770
periods 20762
north 20756
He 20751
Budgetary 20746
double 20744
rising 20742
transmitted 20741
Mo@@ 20739
carbon 20738
suitable 20732
continuous 20724
X@@ 20722
performed 20722
sections 20715
track 20699
deeply 20672
supervision 20659
id@@ 20646
Nairobi 20644
Belarus 20633
box 20615
output 20611
oral 20595
demonstrated 20582
welcoming 20582
On 20574
warning 20562
E. 20557
reflects 20557
historical 20556
relative 20541
weather 20532
imprisonment 20507
bill 20496
greatly 20494
focusing 20492
association 20484
career 20448
engineering 20440
depth 20437
salary 20427
Ar@@ 20425
orders 20415
directed 20412
competitive 20400
biological 20394
bound 20393
impunity 20392
involve 20379
transferred 20370
En@@ 20363
coordinating 20363
consequently 20340
oriented 20340
buildings 20333
hot 20326
studied 20325
controlled 20311
assisting 20306
associations 20297
X 20290
gone 20275
Earth 20271
enemy 20271
ang 20268
hoc 20249
acquisition 20225
ps 20224
pass 20221
complaint 20216
none 20196
else 20191
gaps 20191
outlined 20182
soil 20149
ants 20139
deliver 20134
budgets 20132
yesterday 20114
CD 20106
papers 20104
Movement 20097
so@@ 20095
foundation 20094
pleased 20094
vulnerability 20090
ong 20089
ard 20087
Peoples 20084
lasting 20081
chief 20068
Statute 20067
Planning 20063
operate 20055
ver 20045
gu@@ 20043
resumed 20043
corresponding 20039
Safety 20034
inflation 20016
functional 19999
topics 19982
purchase 19979
died 19964
equally 19947
subjected 19943
tr@@ 19921
similarly 19918
com@@ 19904
balanced 19884
C.3 19883
arbitrary 19881
cl@@ 19875
7,@@ 19863
grow 19861
bu@@ 19859
sing 19843
dead 19837
farmers 19828
Mechanism 19825
UNOPS 19825
WHO 19806
southern 19804
ba@@ 19803
harm 19800
models 19797
ker 19794
visited 19782
Southern 19780
posed 19760
Co@@ 19759
recommend 19755
platform 19752
Croatia 19748
street 19725
鈥 19724
conventional 19707
hospital 19704
disabled 19702
replace 19702
Le@@ 19698
commodity 19693
ology 19689
Japanese 19680
Peru 19670
spending 19665
allows 19663
ite 19653
mobilization 19651
card 19649
speech 19643
briefing 19632
modalities 19626
certainly 19624
Finland 19621
detained 19598
widespread 19590
non@@ 19585
Expert 19582
army 19578
ce@@ 19569
coherence 19563
wind 19563
deliberations 19539
hearing 19536
Science 19533
witnesses 19530
appeals 19517
federal 19506
charged 19500
pattern 19499
dynamic 19498
loans 19470
500 19447
successfully 19439
ary 19437
ality 19436
societies 19434
fi@@ 19419
insufficient 19418
opposition 19412
legally 19397
student 19371
constitutes 19366
stocks 19362
regards 19361
household 19359
completely 19355
hit 19352
slow 19350
temperature 19349
9,@@ 19343
Eritrea 19341
conservation 19339
premises 19337
intellectual 19319
prohibited 19316
faith 19299
doubt 19297
preparations 19297
Professional 19275
96 19261
solidarity 19259
Universal 19248
invitation 19244
GDP 19233
via 19229
81 19223
evaluate 19222
industries 19220
relevance 19216
seminar 19208
deployed 19200
intervention 19195
execution 19179
prostitution 19174
dealt 19168
79 19153
digital 19153
ministerial 19148
gain 19145
maternal 19144
competence 19137
healthy 19133
calling 19115
ending 19109
Strategic 19108
i.e. 19100
save 19089
fishing 19087
ho@@ 19087
ise 19062
il 19056
path 19055
German 19052
8,@@ 19050
da 19048
we@@ 19048
segment 19034
Statistics 19018
Cambodia 18998
danger 18997
sponsors 18997
Sri 18985
substance 18978
reaffirmed 18961
sa@@ 18957
foster 18956
end@@ 18953
video 18952
400 18947
suggestions 18939
wished 18938
82 18937
Independent 18937
greatest 18927
resident 18922
Ad@@ 18921
anniversary 18909
promoted 18905
summer 18905
productivity 18890
homes 18889
win 18880
newly 18869
.5 18859
CN.4 18853
the@@ 18850
Preparatory 18847
disposal 18847
properly 18846
moved 18831
interventions 18823
convinced 18822
university 18813
du@@ 18810
vocational 18808
oc@@ 18800
ob@@ 18798
Torture 18785
input 18784
rapidly 18768
cor@@ 18763
5.@@ 18759
Angola 18758
airspace 18753
huge 18748
Singapore 18741
UNRWA 18740
-@@ 18739
voting 18737
99 18726
&gt; 18715
Poland 18703
NGO 18700
Nepal 18685
overview 18683
drawing 18670
pension 18667
picture 18642
Society 18641
playing 18626
businesses 18624
inventory 18620
reliable 18617
No 18613
firms 18606
Gu@@ 18603
83 18601
objects 18596
Ministerial 18594
formulated 18589
Shanghai 18582
organize 18576
gra@@ 18571
drive 18568
ka 18560
recalls 18557
nationals 18551
cluster 18541
explain 18536
Di@@ 18532
barriers 18532
Turkish 18528
covers 18526
micro@@ 18513
realize 18507
claimed 18503
Guatemala 18502
gi@@ 18500
conducting 18498
advancement 18496
ars 18485
copies 18482
Comprehensive 18480
becomes 18475
rape 18474
port 18468
Platform 18462
v 18448
qualified 18429
film 18427
laid 18422
0.@@ 18421
counsel 18413
j 18407
toward 18405
anti@@ 18372
acknowledged 18371
ators 18363
86 18361
sports 18351
84 18344
wider 18342
ish 18341
mark 18323
walk 18316
ati@@ 18315
married 18307
Financing 18301
formation 18282
appeared 18276
kinds 18275
customers 18259
accessible 18249
93 18234
telephone 18226
consumer 18224
embargo 18219
unilateral 18216
emphasizes 18214
patterns 18208
camps 18207
proved 18205
sion 18195
ence 18170
revenue 18159
expect 18152
plants 18151
Red 18146
Me@@ 18138
envisaged 18135
liberty 18133
moral 18126
bar@@ 18125
dedicated 18114
Finance 18113
ring 18112
Add.@@ 18106
ke@@ 18101
RE@@ 18094
allowing 18069
die 18068
relationships 18062
crises 18060
Excellency 18059
tomorrow 18056
Region 18049
stages 18047
inadequate 18042
Peacebuilding 18036
residents 18031
dollar 18023
Co 18005
Czech 18003
title 18002
doctor 18001
97 17997
stood 17993
sur@@ 17992
reserve 17991
withdrawal 17988
residence 17986
transnational 17981
incorporated 17973
Inter@@ 17970
length 17969
res@@ 17966
package 17936
ud@@ 17936
manufacturing 17919
94 17883
Se@@ 17883
If 17881
gains 17848
Hoc 17844
é 17840
92 17838
weak 17832
wait 17808
myself 17802
facility 17791
87 17788
ber@@ 17782
phenomenon 17777
can@@ 17774
lay 17774
integrate 17773
dy 17771
adopting 17764
zones 17762
frequently 17757
applying 17755
interaction 17754
go@@ 17745
households 17742
representing 17734
style 17727
Belgium 17724
degradation 17722
tor 17710
wh@@ 17707
undertaking 17696
contingent 17685
212 17674
fees 17671
adverse 17663
detail 17644
conclude 17633
species 17633
circulated 17626
eye 17621
mercury 17612
outreach 17612
Kyoto 17611
financed 17589
1989 17587
Ad 17584
sis 17569
Auditors 17564
significance 17554
ty 17540
format 17531
sun 17529
occur 17527
Ecuador 17521
wealth 17514
ess 17499
rejected 17496
sell 17495
movements 17492
explanation 17489
lose 17482
Ma@@ 17475
ca@@ 17461
understood 17456
millions 17445
Model 17436
programs 17404
Observer 17402
exception 17389
Developing 17379
considerations 17374
s.@@ 17358
flexible 17351
allowance 17349
tree 17344
composed 17338
duration 17333
Serbia 17329
88 17326
agents 17326
integral 17316
AN@@ 17312
carefully 17308
ized 17299
fill 17295
watch 17293
der@@ 17289
desire 17283
Lanka 17277
copy 17240
ving 17240
Greece 17236
suggest 17236
arts 17235
outputs 17228
whatever 17227
negotiation 17226
flexibility 17223
assisted 17219
profit 17219
feeling 17214
600 17208
demonstrate 17204
determining 17192
devoted 17168
projected 17167
Equality 17157
91 17150
Self 17133
dependent 17122
forums 17122
ale 17101
C.5 17097
cancer 17096
leader 17094
equivalent 17085
War 17083
guaranteed 17057
devices 17045
CRC 17043
adequately 17040
Olympic 17032
lies 17032
fe@@ 17031
Venezuela 17025
drew 17025
.3 17022
urge 17022
sleep 17020
ban 17015
tri@@ 17004
begun 16993
refers 16992
solid 16987
managing 16977
window 16973
As 16959
professionals 16958
skin 16958
Denmark 16950
Indian 16950
TV 16946
ak@@ 16921
heat 16912
Afghan 16909
acceptable 16906
spend 16898
deaths 16887
89 16881
Costa 16878
borders 16866
strict 16860
ordinary 16857
willing 16850
frame 16831
powerful 16828
psychological 16825
Change 16824
Climate 16821
flight 16816
iz@@ 16816
manager 16814
lawyers 16807
behaviour 16790
injury 16784
ratio 16782
Small 16781
organ 16777
remove 16776
sions 16775
ministries 16774
presidential 16770
cell 16765
Taiwan 16762
Island 16760
RA@@ 16743
forests 16743
drop 16739
maybe 16739
rec@@ 16738
tenth 16733
revision 16726
happened 16716
define 16713
translation 16711
dec@@ 16705
Oversight 16699
District 16697
ES 16676
Bo@@ 16671
Rome 16665
arbitration 16661
memory 16659
wants 16657
scientists 16652
tests 16649
ie 16647
accession 16640
Team 16633
hair 16629
mitigation 16610
@ 16609
mu@@ 16605
arrangement 16590
grateful 16584
ships 16581
HRC 16580
lists 16579
impossible 16557
adjustments 16552
.4 16533
House 16525
Palestinians 16510
expanding 16496
violent 16484
northern 16466
SBI 16452
capable 16452
submissions 16448
index 16445
ya 16441
wage 16431
properties 16422
ig@@ 16418
prohibition 16409
extradition 16383
ats 16382
missing 16380
piece 16380
command 16373
machinery 16360
producing 16356
wood 16356
Violence 16352
mostly 16345
Ro@@ 16340
CO@@ 16337
School 16334
excellent 16325
presents 16324
transfers 16324
CE@@ 16315
commended 16313
intelligence 16311
bus 16302
procedural 16298
remedy 16268
Li@@ 16248
marked 16248
gr@@ 16204
expressing 16203
Promotion 16200
Su@@ 16198
ir 16196
regardless 16194
Washington 16190
ged 16187
researchers 16146
ously 16137
ex 16130
sed 16130
talking 16130
C.1 16124
accurate 16122
transmission 16122
Military 16117
ins 16107
Part 16102
brother 16093
entering 16092
tra@@ 16083
requiring 16076
reserves 16073
Integrated 16072
cells 16069
Arabia 16061
finds 16059
One 16057
Agriculture 16053
lived 16049
hundred 16048
consultants 16043
incident 16039
secret 16020
Kazakhstan 16018
800 16007
proceed 16004
commit 15994
We 15991
consolidated 15986
correct 15983
pain 15978
ns 15973
separation 15971
UNCITRAL 15964
occasion 15960
sorry 15958
Roma 15953
responded 15953
ay 15946
lands 15932
aspect 15926
sectoral 15925
Operation 15924
gh@@ 15924
signature 15913
seeks 15901
1988 15888
generated 15887
notification 15884
tolerance 15880
den@@ 15879
electricity 15875
Bar@@ 15871
collected 15867
requesting 15864
custody 15851
isn 15828
subjects 15822
Tanzania 15820
peacebuilding 15820
driven 15816
ma 15816
river 15816
Business 15806
1,000 15797
ep@@ 15793
鈥@@ 15793
root 15791
ING 15785
store 15771
up@@ 15768
coastal 15767
quick 15764
Senegal 15763
banking 15751
shares 15745
closer 15733
journalists 15732
Standing 15727
provinces 15725
intolerance 15720
college 15713
aggression 15708
reportedly 15708
fit 15705
signing 15693
reviewing 15689
maritime 15688
color 15685
Mrs. 15676
Ghana 15673
generate 15672
denied 15670
Q 15668
arrived 15664
meanwhile 15656
combination 15655
tics 15649
detainees 15643
war@@ 15636
Increased 15625
shift 15614
Tunisia 15613
ana 15613
consolidation 15608
surveys 15604
belonging 15602
removal 15599
award 15597
medicine 15584
120 15576
Uruguay 15576
Rev.1 15572
col@@ 15570
Portugal 15569
brief 15569
handling 15550
TO 15543
eastern 15534
ization 15532
employers 15523
ung 15511
PA@@ 15500
sovereign 15487
Armenia 15478
mon@@ 15478
steel 15478
tor@@ 15470
dark 15466
distance 15459
schemes 15458
relate 15455
Defence 15450
www.un.org 15450
protocol 15436
stronger 15426
biggest 15408
houses 15403
applies 15392
.. 15390
ics 15388
stone 15385
meant 15377
ESCAP 15366
attempts 15356
hopes 15350
Procedure 15349
delays 15348
pen@@ 15347
Treatment 15338
cooperative 15331
exposure 15319
ore 15315
receipt 15304
SBSTA 15302
chain 15302
Doha 15297
hunger 15289
sky 15278
offering 15275
dog 15272
observation 15270
gradually 15259
feet 15251
waiting 15241
customer 15237
investigated 15235
,000 15234
filed 15228
men@@ 15226
tors 15221
hazardous 15220
evaluations 15204
Com@@ 15202
union 15201
ment@@ 15190
perfect 15190
realized 15174
Rica 15168
This 15168
biodiversity 15152
capability 15149
wa@@ 15149
animals 15144
marketing 15140
displacement 15114
What 15113
EC@@ 15102
Process 15102
valid 15099
responding 15091
municipal 15088
derived 15077
exists 15077
baby 15075
Mali 15073
exploration 15071
instances 15067
resolved 15064
trees 15064
division 15054
filled 15053
all@@ 15050
cre@@ 15046
accountable 15040
dream 15025
ON 15023
fresh 15023
universities 15006
square 15005
eligible 15002
solve 14998
tables 14994
divided 14992
bottom 14985
Open 14983
sive 14979
Web 14978
depends 14969
constant 14967
annually 14956
renewed 14955
extrabudgetary 14951
guided 14941
ci@@ 14937
Rio 14936
mothers 14931
thy 14927
CA@@ 14925
depend 14922
liabilities 14918
suggests 14914
min@@ 14913
proof 14911
brain 14910
grants 14910
WFP 14906
cur@@ 14902
balances 14899
exchanges 14898
anticipated 14892
repatriation 14891
demobilization 14881
Sa@@ 14880
blue 14875
For 14870
ari@@ 14866
destroyed 14858
headed 14850
vast 14848
Har@@ 14845
assessing 14840
customary 14836
www.@@ 14834
conjunction 14832
Par@@ 14822
smaller 14821
wing 14821
heading 14819
au@@ 14808
alternatives 14806
agent 14802
drinking 14795
invite 14793
biennial 14784
Use 14782
Un@@ 14781
ges 14767
regarded 14766
consists 14764
vacancy 14764
MDGs 14762
administering 14756
suffer 14755
replaced 14752
listen 14745
Committees 14740
laundering 14739
transitional 14737
transmitting 14728
commodities 14719
transaction 14712
forthcoming 14702
explosive 14701
operative 14700
For@@ 14698
constituted 14694
electric 14686
mention 14686
Occupied 14680
allegedly 14679
frequency 14675
sold 14674
struggle 14665
Conventions 14660
Budget 14659
daughter 14649
ra 14645
comparison 14644
harmful 14640
atmosphere 14634
enforced 14634
device 14631
monetary 14625
fisheries 14624
transmit 14621
prove 14617
thousand 14609
ME@@ 14607
dry 14605
judgement 14605
facilitated 14599
VIII 14598
GEF 14597
western 14597
animal 14595
Environmental 14592
gonna 14585
closing 14580
prospects 14580
branch 14578
incentives 14575
continent 14567
normally 14552
shape 14543
seized 14540
collect 14539
League 14538
Libyan 14536
plays 14534
restricted 14531
As@@ 14528
season 14527
harassment 14525
Reduction 14516
amounted 14511
neighbouring 14498
reflecting 14498
advances 14486
Armed 14485
tin@@ 14485
analytical 14479
connected 14477
Water 14474
wastes 14473
description 14470
parameters 14470
province 14467
28@@ 14447
sw@@ 14442
environmentally 14438
renewable 14428
spring 14427
contractual 14424
Introduction 14419
instructions 14415
linkages 14415
ms 14414
wear 14412
pertaining 14411
advantages 14408
lie 14399
expectations 14396
150 14394
gets 14392
motion 14392
falling 14378
underlying 14374
organizing 14371
Chad 14369
700 14367
assembly 14358
Center 14354
driving 14344
ang@@ 14337
summit 14336
witness 14336
963 14334
Romania 14327
accompanied 14325
Youth 14314
Obama 14311
sen@@ 14305
mar@@ 14283
consumers 14280
ina 14280
negotiating 14280
ned 14276
Intergovernmental 14267
terrorists 14263
ran 14258
Proliferation 14257
afternoon 14257
ordered 14254
incurred 14253
gen@@ 14252
grade 14252
nutrition 14249
genuine 14248
cu@@ 14246
ning 14243
pursued 14242
concepts 14241
warm 14232
necessity 14230
ging 14222
certificate 14213
merely 14208
1st 14203
contacts 14201
rent 14200
ST@@ 14195
Pro@@ 14189
accident 14180
camp 14148
coherent 14148
dimensions 14147
distinction 14143
evening 14135
Heads 14134
Sh@@ 14126
facilitation 14123
ping 14122
Adviser 14121
parallel 14117
Bolivia 14115
pace 14114
putting 14113
parliamentary 14106
providers 14106
ent@@ 14091
supplementary 14087
register 14086
ved 14086
limitations 14082
labor 14072
Salvador 14070
restructuring 14067
citizen 14063
ler 14063
era 14050
sit 14050
rain 14048
unfortunately 14044
famous 14040
Ba@@ 14025
Qatar 14022
hence 14018
notably 14009
whenever 14004
Bissau 13998
holders 13993
Racial 13992
2nd 13990
inputs 13990
removed 13986
refused 13984
discharge 13978
unity 13973
injured 13972
accelerate 13963
Assessment 13961
texts 13958
introducing 13952
SR.@@ 13950
Sub 13949
difficulty 13949
un 13948
alized 13945
match 13942
respected 13933
compulsory 13926
lawyer 13926
inequality 13924
opinions 13924
deemed 13921
IT 13916
ven@@ 13904
dimension 13890
subparagraph 13888
ba 13884
couple 13884
Sixth 13883
OECD 13872
Nam 13865
adults 13865
formulate 13860
IT@@ 13858
happen 13849
0 13847
east 13841
orientation 13841
multi@@ 13840
twice 13840
ball 13839
ou 13835
29@@ 13827
Mauritius 13824
Pe@@ 13816
objection 13804
helps 13799
rely 13793
issuance 13788
defenders 13778
bar 13768
closure 13765
gained 13761
ru@@ 13759
clothes 13756
ratify 13752
patient 13749
broken 13745
ancient 13743
Road 13737
ines 13737
coal 13735
S. 13734
uc@@ 13732
transformation 13731
bridge 13730
incorporate 13708
Communications 13707
ste@@ 13707
Cameroon 13684
involves 13684
sl@@ 13684
liaison 13682
tend 13682
ner 13680
excessive 13678
Constitutional 13674
IN 13665
observe 13665
overseas 13664
fo@@ 13660
Acting 13658
elderly 13657
900 13650
eventually 13648
unto 13647
accommodation 13646
apart 13644
director 13639
acquired 13636
mandatory 13636
AR@@ 13627
sort 13625
west 13625
Inspection 13610
securities 13607
makers 13597
replies 13597
ammunition 13596
glass 13594
votes 13592
Army 13590
mutually 13568
Employment 13559
harmonization 13556
turning 13556
shot 13550
truly 13548
attributable 13543
immigration 13536
sight 13534
Counter 13530
han@@ 13524
8.@@ 13523
macroeconomic 13515
relates 13508
bio@@ 13507
Trafficking 13500
signs 13496
load 13488
FCCC 13473
whereas 13472
IPSAS 13466
9.@@ 13464
He@@ 13460
Greek 13448
provincial 13444
speaker 13444
emphasize 13440
mode 13439
clinical 13436
fraud 13432
feature 13424
references 13420
happiness 13418
indicator 13416
resistance 13415
Hungary 13414
F. 13413
detection 13413
Americans 13412
br@@ 13410
ys 13409
continuation 13406
drink 13406
dates 13398
Building 13391
sum 13390
Th@@ 13378
av@@ 13378
interference 13366
Per@@ 13364
pregnancy 13360
San 13355
clients 13344
st 13342
Yemen 13338
beings 13335
knows 13331
ying 13322
meaningful 13320
ically 13319
Be@@ 13316
careful 13313
Man@@ 13311
gl@@ 13303
Guidelines 13302
killing 13301
AC@@ 13298
5,000 13296
measurement 13295
trouble 13295
loan 13293
cra@@ 13291
Transitional 13290
strictly 13282
remarks 13279
7.@@ 13265
prescribed 13262
center 13260
politics 13255
quantity 13253
Guide 13247
clearance 13247
extra 13247
Ordinance 13243
autonomous 13243
pose 13243
showing 13240
Mu@@ 13239
ched 13231
waters 13231
pregnant 13221
freely 13216
commerce 13214
FDI 13209
Nicaragua 13208
exclusion 13199
Ombudsman 13197
SA@@ 13193
ER@@ 13192
hundreds 13188
ay@@ 13187
desertification 13184
gs 13182
permitted 13178
literacy 13177
client 13174
Transport 13169
tel 13168
comprising 13160
attitude 13151
cultures 13151
ta 13149
Bill 13144
heritage 13144
Mongolia 13143
deprived 13134
No@@ 13130
hospitals 13127
replacement 13126
Chapter 13124
assume 13123
Ab@@ 13122
ls 13116
Corr.1 13114
arise 13112
mobilize 13108
Jamaica 13103
Mon@@ 13102
invasion 13100
super@@ 13100
http 13098
05 13090
reductions 13085
Cross 13084
handle 13078
forget 13075
That 13074
bro@@ 13073
mobility 13067
servicing 13056
thereof 13046
Investment 13037
afraid 13034
fail 13029
alize 13025
xenophobia 13017
Saint 13015
hotel 13015
persistent 13008
propose 13006
Viet 12990
Local 12988
depending 12987
seat 12965
declarations 12960
mouth 12929
Uzbekistan 12927
diverse 12926
dly 12921
Penal 12917
Head 12911
paying 12903
Ban 12896
NLB 12884
az@@ 12883
ped 12882
necessarily 12879
yuan 12879
logistics 12871
Session 12863
landlocked 12852
themes 12852
Disabilities 12842
briefings 12840
conducive 12837
ultimately 12836
villages 12826
manufacture 12819
David 12815
ites 12812
minute 12811
fied 12808
imports 12808
ture 12794
intensive 12793
tons 12793
her@@ 12782
atic 12770
disseminate 12760
sponsored 12760
Euro@@ 12757
Ac@@ 12755
sal@@ 12748
ly@@ 12746
minor 12740
secured 12739
roads 12735
Montreal 12731
Dr. 12730
prosperity 12725
elsewhere 12718
technique 12714
IMF 12707
Industrial 12691
sentenced 12691
occupying 12685
har@@ 12683
massive 12682
seats 12675
holds 12670
breach 12669
Province 12668
consistently 12667
interactive 12667
appropriation 12655
beneficiaries 12640
EN@@ 12634
che@@ 12627
Anti 12617
nice 12614
leaves 12599
citizenship 12582
An 12578
lastly 12577
decreased 12572
ize 12572
Korean 12569
Outer 12567
entirely 12566
27@@ 12557
causing 12555
La@@ 12542
abuses 12541
consequence 12537
signal 12533
portion 12532
Customs 12531
str@@ 12531
Street 12528
satisfied 12528
delegates 12518
appreciate 12515
airport 12512
aw@@ 12512
preserve 12510
attitudes 12509
count 12506
metal 12497
prisons 12486
ational 12477
mountain 12475
possession 12473
ak 12470
assumed 12468
ders 12467
clarification 12465
adult 12464
ourselves 12460
accomplishments 12458
09 12452
ocean 12452
genocide 12443
hosted 12442
af@@ 12441
ation@@ 12438
candidate 12436
Zambia 12430
mediation 12430
targeting 12430
kill 12429
1990s 12428
salaries 12420
orally 12410
air@@ 12407
stands 12402
ach@@ 12401
Protocols 12398
unions 12395
CH@@ 12393
organic 12389
When 12388
absolute 12388
Basel 12384
treat 12377
Pre@@ 12368
competitiveness 12366
eg@@ 12362
revealed 12358
contrast 12354
obvious 12352
Company 12351
suspected 12351
trials 12351
interesting 12337
describe 12332
grown 12318
ye@@ 12316
conviction 12314
IA@@ 12312
Drug 12311
et@@ 12311
work@@ 12307
focuses 12303
juvenile 12300
pu@@ 12293
channels 12285
chosen 12280
behavior 12278
pages 12277
Issues 12275
appointments 12275
ODA 12262
wages 12256
named 12255
soft 12249
repeated 12247
radiation 12244
EC 12238
mat@@ 12233
ban@@ 12231
ster@@ 12231
1986 12230
Burkina 12228
classes 12221
approve 12211
foot 12210
earthquake 12205
analyses 12203
sister 12203
eliminating 12198
UNIFIL 12190
generations 12189
addendum 12187
Faso 12185
prejudice 12181
105 12179
aries 12170
measured 12170
declined 12168
ga@@ 12165
employee 12164
ological 12164
besides 12162
River 12160
library 12154
bs 12151
stressing 12150
drought 12145
subsidies 12137
Ne@@ 12133
complement 12132
seeing 12125
.6 12122
intensify 12119
taxes 12117
sir 12108
sk@@ 12092
servants 12089
shop 12089
favourable 12080
logistical 12078
stopped 12073
Main 12061
Procurement 12059
tion@@ 12057
fulfilment 12054
fax 12052
convening 12050
impose 12049
survival 12049
enhancement 12044
ni@@ 12042
1. 12041
chair 12039
players 12037
PR@@ 12035
ths 12035
easier 12033
error 12028
credibility 12024
selling 12018
Hu@@ 12015
historic 12009
Leste 12002
AS@@ 11998
ches 11989
consult 11984
Relations 11979
herself 11971
elaboration 11970
proceeds 11960
DP 11957
Tajikistan 11955
sat 11955
firmly 11954
liberalization 11953
pi@@ 11952
addresses 11950
boat 11944
Corruption 11937
fa@@ 11934
faces 11934
fruit 11933
CP@@ 11932
ha 11931
recall 11929
shelter 11929
Developed 11922
UK 11917
decent 11917
Arms 11913
applicant 11902
Land 11900
ber 11896
Jo@@ 11895
00@@ 11894
retirement 11891
Area 11887
Qu@@ 11887
sphere 11887
threatened 11887
calculated 11883
comparative 11880
surveillance 11880
seekers 11877
and@@ 11871
alism 11867
repair 11867
leads 11860
sentences 11859
Decree 11852
Evaluation 11850
Bush 11847
penalties 11844
memorandum 11840
integrating 11833
combatants 11829
ES@@ 11827
winter 11827
enabled 11825
sole 11819
disaggregated 11808
Emergency 11804
contractors 11803
pool 11799
Appeals 11797
Closed 11797
prosecutors 11791
counselling 11789
cruel 11787
saving 11786
There 11783
reinforce 11783
tical 11783
catch 11780
stipulated 11772
clarify 11761
argument 11755
trip 11754
merits 11750
Standards 11749
Games 11748
IP@@ 11748
Migration 11746
gate 11732
chaired 11731
tly 11730
safeguard 11727
regimes 11725
indicating 11723
presidency 11723
obtaining 11722
ley 11718
exposed 11717
expulsion 11712
ery 11704
RC 11700
profile 11693
lu@@ 11690
See 11687
Bulgaria 11681
IC 11671
reaction 11666
Slovenia 11665
down@@ 11664
referring 11662
UNIFEM 11655
tangible 11655
systematically 11652
ministers 11641
emergencies 11638
moon 11635
vessels 11633
occasions 11631
ents 11628
Montenegro 11624
arm 11616
restore 11615
acy 11614
prompt 11612
accounted 11611
un.org 11610
ill@@ 11608
manual 11608
Least 11607
scene 11605
suggestion 11603
progressive 11601
offset 11592
vo@@ 11583
concerted 11581
Directorate 11575
plus 11570
dropped 11568
emphasizing 11567
Mozambique 11566
sized 11566
malaria 11562
disciplinary 11556
wrote 11556
tic@@ 11552
budgeting 11550
IS 11548
Am@@ 11547
Sahara 11541
AP@@ 11538
convicted 11537
row 11536
ade 11525
adolescents 11525
momentum 11524
disadvantaged 11523
disclosure 11522
Branch 11513
inquiry 11512
110 11505
Lo@@ 11500
block 11498
Lu@@ 11495
squ@@ 11490
exceed 11485
complexity 11483
Settlements 11481
exactly 11481
interview 11481
ye 11481
therein 11476
deadline 11470
undermine 11465
USD 11462
MONUC 11459
hand@@ 11459
Interim 11457
101 11456
couldn 11456
Zimbabwe 11455
aside 11454
star 11451
touch 11445
Facility 11443
Arabic 11442
likewise 11439
TION 11435
classification 11435
contemporary 11427
promise 11425
durable 11424
termination 11424
architecture 11422
ple@@ 11419
underlined 11419
TA@@ 11414
adding 11414
thereto 11414
initially 11413
twentieth 11411
Work 11409
delayed 11406
hu@@ 11406
sick 11406
Strip 11403
chap 11403
ff@@ 11403
imperative 11400
ws 11394
claimant 11393
cast 11392
doctors 11367
enormous 11362
strike 11362
entrusted 11360
Sal@@ 11355
PA 11354
spare 11354
estate 11350
acquire 11347
municipalities 11344
replied 11341
mainstream 11335
cards 11333
fired 11330
grass 11327
Audit 11325
brings 11325
Activities 11318
deposit 11317
movie 11316
employer 11315
owners 11312
fewer 11310
Alliance 11308
zero 11307
suddenly 11300
CO 11286
characterized 11285
complementary 11282
evolution 11280
tested 11277
potentially 11272
reiterate 11272
26@@ 11271
files 11269
vis 11268
worse 11266
1980 11265
Sha@@ 11263
slightly 11262
willingness 11255
Sector 11252
Australian 11250
promptly 11245
returns 11244
concentration 11235
administered 11231
inhuman 11231
corporations 11230
serves 11229
suppliers 11229
PO@@ 11227
certification 11226
calendar 11225
Organized 11224
hydro@@ 11220
Representatives 11216
monitored 11216
appoint 11214
cars 11214
caught 11210
ely 11209
ming 11209
102 11207
deals 11200
suspended 11199
coffee 11194
ports 11194
dinner 11187
methodologies 11185
Syria 11176
ran@@ 11174
recruited 11174
ze 11174
feasible 11173
wave 11169
NEPAD 11165
ger 11163
flowers 11148
Strengthening 11146
outline 11141
prevented 11134
heavily 11131
authorization 11130
facto 11130
back@@ 11126
mer@@ 11109
plane 11104
cease 11101
emerged 11094
messages 11094
worst 11093
30@@ 11089
MI@@ 11082
insecurity 11082
IX 11078
asking 11078
feedback 11077
H.E. 11075
Benin 11074
250 11071
Chemical 11070
den 11070
profits 11068
Combat 11067
granting 11066
sitting 11063
analyzed 11057
1987 11055
enshrined 11052
Library 11050
mixed 11050
Atomic 11048
presentations 11041
thereon 11036
infection 11035
layer 11033
admissibility 11032
noise 11028
occupational 11025
false 11023
partly 11020
consolidate 11018
tribunal 11018
answered 11014
possibly 11014
Or@@ 11012
contracting 11009
exceptional 11007
adjusted 10998
3rd 10992
sufficiently 10988
Survey 10987
sport 10987
yeah 10983
engaging 10978
bought 10975
Educational 10967
suspension 10967
greenhouse 10966
mm 10966
unlawful 10966
1967 10965
generating 10962
acute 10960
enjoyed 10954
Ocean 10946
computers 10946
SA 10945
protocols 10936
limitation 10935
Interior 10934
08 10929
11@@ 10926
thou 10922
tackle 10920
Official 10919
expensive 10919
highlight 10917
curriculum 10915
attract 10914
pretty 10913
MA@@ 10910
hor@@ 10907
degrading 10905
performing 10905
23@@ 10897
reimbursement 10897
analyse 10895
modified 10894
ky 10886
que 10884
ish@@ 10877
retain 10877
ID 10876
Rec@@ 10876
Right 10872
inhabitants 10867
milk 10866
maintains 10865
Libya 10863
Measures 10853
Test 10853
ear@@ 10853
substantially 10852
cou@@ 10851
mor@@ 10851
tensions 10851
Air 10849
confirm 10849
subregion 10842
ethics 10841
algorithm 10838
post@@ 10838
reaffirm 10837
Commonwealth 10834
credible 10832
suit 10824
engine 10821
Im@@ 10820
ne 10818
acid 10817
Ber@@ 10816
M. 10816
satisfactory 10814
Legislative 10811
discovered 10811
ends 10811
severely 10804
haven 10797
fee 10795
intends 10795
regrets 10794
emission 10793
eradicate 10790
smooth 10790
aviation 10788
attendance 10779
slowly 10778
des@@ 10776
spot 10775
deprivation 10774
A.@@ 10758
restoration 10758
ass@@ 10757
1.2 10755
Panama 10755
izing 10750
separately 10743
ev@@ 10742
pursuit 10741
dance 10740
&#124; 10739
experiment 10739
Their 10736
1985 10731
e.@@ 10731
SC 10730
submits 10729
iron 10727
fashion 10726
studying 10726
prevalence 10725
01 10711
parent 10711
measuring 10703
Consultative 10702
hy@@ 10699
stories 10699
ju@@ 10696
alizing 10695
destination 10693
tea 10690
roll 10689
ip@@ 10688
RIGHTS 10684
wi@@ 10684
viable 10682
oo@@ 10672
retained 10666
Professor 10665
images 10660
ASEAN 10659
display 10655
communicate 10654
auspices 10653
sample 10646
Slovakia 10645
initiate 10645
103 10640
000 10638
Canadian 10637
genetic 10636
atory 10635
# 10633
finished 10633
ess@@ 10629
participatory 10625
sect 10618
rock 10612
Biological 10607
discipline 10605
rice 10605
istic 10604
spite 10604
cap@@ 10603
murder 10600
producers 10598
sol@@ 10595
awarded 10591
Durban 10589
thorough 10583
exercises 10582
encountered 10573
appearance 10567
excess 10564
possibilities 10563
maternity 10558
Officers 10557
conversion 10553
Col@@ 10547
ot 10547
acted 10546
water@@ 10544
pursuing 10540
factory 10538
ians 10537
wishing 10536
Go@@ 10532
CN.9 10529
games 10529
pick 10525
existed 10523
gratitude 10520
111 10519
telecommunications 10514
regret 10513
ur 10500
Bu@@ 10498
prevailing 10496
districts 10495
immunity 10494
ecological 10491
Her@@ 10490
UNMIK 10489
ii 10485
Ta@@ 10483
viewed 10482
uniform 10479
handed 10476
beauty 10473
ching 10471
ished 10470
excluded 10469
fin@@ 10467
tension 10466
dic@@ 10463
Journal 10462
ruling 10461
pleasure 10455
ultimate 10453
establishes 10452
ut@@ 10452
eating 10449
visiting 10449
grew 10446
2,000 10439
screen 10437
advisers 10436
convene 10436
Tom 10433
beneficial 10431
mitigate 10430
questionnaire 10430
ecosystem 10426
ecosystems 10425
confident 10421
indirect 10419
opposed 10418
So@@ 10415
explicitly 10415
secondly 10414
ff 10413
branches 10411
Organizations 10410
affects 10410
Albania 10406
translated 10404
Prohibition 10399
benefited 10398
owner 10398
Saharan 10391
county 10390
va 10390
Cuban 10388
Pension 10384
falls 10383
repeatedly 10380
invest 10374
Scheme 10373
AC 10367
Mal@@ 10364
UNAMID 10359
injuries 10359
frequent 10347
ai@@ 10344
Sunday 10342
notwithstanding 10340
worker 10339
statute 10338
channel 10337
England 10334
steady 10331
1.1 10327
CON@@ 10327
urgently 10324
RO@@ 10322
College 10319
appreciated 10318
els 10317
formally 10316
pol@@ 10316
Poverty 10314
capita 10314
104 10309
gathering 10307
Electoral 10306
upper 10303
Tibet 10292
constantly 10288
El@@ 10287
MO@@ 10287
assurances 10286
DE@@ 10285
hel@@ 10279
launching 10279
prosecute 10273
ell@@ 10272
surplus 10267
soul 10266
Muslim 10257
colleagues 10251
bright 10248
consisting 10247
ret@@ 10245
creative 10241
exclusive 10238
My 10233
With 10230
SE@@ 10221
ens 10221
gar@@ 10221
Stockholm 10218
perspectives 10217
adapt 10216
compilation 10213
defining 10210
Country 10200
print 10199
workload 10199
106 10194
definitions 10194
preservation 10194
select 10194
duplication 10193
workplace 10193
enrolment 10192
108 10190
assignment 10189
incidence 10188
Post 10185
accessibility 10182
readiness 10181
Statistical 10172
ideal 10172
permits 10172
negotiated 10167
submitting 10167
preparedness 10166
whereby 10163
finalized 10161
gathered 10153
preceding 10150
feasibility 10148
tracking 10145
automatic 10141
crops 10139
Mor@@ 10138
enforce 10134
publicly 10134
resume 10129
dual 10124
ash 10123
afford 10118
observance 10118
Transnational 10117
Punishment 10116
garden 10116
Governmental 10109
partial 10108
poly@@ 10104
Senior 10103
Logistics 10096
cha@@ 10095
remuneration 10086
drafted 10084
certificates 10083
comprises 10079
constitution 10078
ranging 10077
ingly 10076
ities 10075
printing 10074
usual 10072
coordinator 10071
Draft 10069
1982 10068
ium 10067
guiding 10059
Iranian 10058
guilty 10055
brand 10050
distinct 10050
minimize 10049
surrounding 10047
07 10045
Aligned 10042
ov 10042
pan@@ 10040
Somali 10038
straight 10037
cul@@ 10035
sixtieth 10035
pro 10030
extraordinary 10026
summarized 10025
wine 10025
promotes 10024
familiar 10023
considerably 10012
miss 10011
Cor@@ 10009
dress 10008
accuracy 10007
wasn 10004
AT@@ 10002
disappearance 10000
urgency 9997
newspaper 9994
settled 9989
calculation 9986
ces 9986
sharp 9986
okay 9984
loved 9980
compromise 9977
rooms 9975
organisations 9969
Disaster 9967
faster 9962
liquid 9962
pieces 9958
visitors 9953
revenues 9949
Lithuania 9946
cited 9946
driver 9944
marginalized 9940
literature 9933
Jamahiriya 9932
IDB.@@ 9930
24@@ 9922
refrain 9919
Christmas 9914
assurance 9912
typically 9910
amend 9907
virus 9907
Bi@@ 9905
minister 9899
tan@@ 9899
wouldn 9899
apparent 9898
Administrator 9897
cas@@ 9896
guard 9896
Supplement 9894
guy 9892
Relief 9887
earnings 9887
enacted 9887
boss 9882
ric@@ 9882
Macedonia 9872
Moldova 9872
impartial 9867
ED 9866
subsistence 9866
130 9865
fate 9865
minors 9865
missile 9864
evident 9861
SecretaryGeneral 9859
raw 9856
Study 9855
push 9849
112 9847
busy 9846
Min@@ 9844
1373 9841
ast 9840
Emirates 9838
contributes 9838
Dialogue 9833
hurt 9830
utilized 9828
ensured 9827
Basic 9826
U. 9823
Malta 9822
Property 9822
ial 9822
Resolution 9820
25@@ 9819
fostering 9819
defense 9818
ECA 9817
budgeted 9817
King 9812
inf@@ 9812
installation 9812
consistency 9811
fly 9808
ai 9806
smuggling 9805
ile 9800
ure 9799
synergies 9787
mal@@ 9786
ce 9785
unprecedented 9783
rental 9781
munitions 9778
autonomy 9774
4th 9773
withdraw 9770
sti@@ 9768
diagnosis 9765
06 9764
cargo 9764
pressing 9762
.org 9761
ageing 9759
credentials 9752
del@@ 9752
Italian 9750
economically 9748
ash@@ 9747
foundations 9747
Namibia 9743
IF@@ 9742
redress 9739
originally 9734
off@@ 9733
rou@@ 9732
precise 9728
lots 9726
dr@@ 9722
107 9721
G. 9721
instability 9716
obliged 9716
continuity 9705
hostilities 9704
02 9702
bid 9701
Ko@@ 9700
Contracting 9699
returning 9698
advised 9685
accidents 9684
passing 9682
.The 9675
2.1 9675
flying 9675
sha@@ 9673
mi@@ 9671
ency 9668
fulfilling 9668
argued 9664
sted 9661
We@@ 9660
Dis@@ 9659
innocent 9657
advancing 9656
realistic 9656
exclusively 9654
ga 9650
abortion 9649
Advancement 9643
锛 9643
LA@@ 9641
feelings 9638
rendered 9635
Volunteers 9632
contractor 9632
policymakers 9626
ances 9624
referendum 9624
ishing 9623
separated 9620
Is 9613
miles 9613
115 9608
tures 9606
SO@@ 9601
affordable 9600
UNMIL 9597
Housing 9589
ease 9586
ECE 9584
03 9581
founded 9580
indispensable 9574
aging 9573
equipped 9573
ft 9573
ther@@ 9573
CAT 9565
Welfare 9562
declare 9560
listing 9544
electrical 9542
feed 9540
formulating 9539
uncertainty 9537
鈥檚 9533
extending 9532
arrival 9530
worry 9529
ceremony 9528
shipment 9526
indication 9523
pledges 9521
characteristic 9519
Order 9518
resort 9517
ol 9516
sustain 9516
instruction 9512
relatives 9512
helpful 9510
farm 9507
desk 9506
borne 9505
1.5 9504
Li 9502
To@@ 9495
dont 9493
solely 9487
codes 9483
deficit 9479
operated 9472
prohibit 9468
tered 9466
childhood 9465
wise 9464
Mediterranean 9457
describes 9457
epidemic 9457
unknown 9457
Hall 9456
ceasefire 9456
Dominican 9449
Industry 9444
experimental 9443
Monetary 9442
poorest 9438
meat 9434
ours 9432
fun 9427
rel@@ 9427
executed 9426
justified 9421
CA 9419
UNDCP 9417
HR 9413
IL@@ 9413
resolving 9413
audience 9409
firearms 9409
sn@@ 9407
designing 9406
endeavour 9405
Po@@ 9404
complicated 9403
Document 9402
pillars 9402
perceived 9400
demographic 9399
114 9398
validity 9397
fallen 9396
updating 9391
damaged 9389
chronic 9384
are@@ 9381
succeed 9379
dra@@ 9377
P.@@ 9373
damages 9366
permission 9366
hi 9359
116 9358
assure 9355
laboratory 9354
Yugoslav 9353
battle 9353
os@@ 9353
curricula 9345
profound 9342
UNOCI 9341
logical 9333
Kyrgyzstan 9330
Jesus 9329
qualifications 9329
edge 9321
CONF.@@ 9320
robust 9318
sons 9314
confidential 9312
advise 9311
ering 9311
essentially 9307
Former 9305
judgment 9302
solar 9300
Hague 9295
ace@@ 9293
lending 9288
reminded 9282
Atlantic 9281
stakeholder 9279
additionally 9272
Michael 9269
infant 9267
How 9266
walked 9265
ECOWAS 9263
recipient 9263
yield 9262
ine@@ 9261
automatically 9260
CC@@ 9259
Ha@@ 9259
allocate 9256
continuously 9252
Honduras 9245
Resource 9240
normative 9237
degrees 9236
broke 9230
mankind 9225
109 9224
Ben@@ 9223
ass 9223
Capital 9222
Nor@@ 9221
escape 9221
Swiss 9220
&lt; 9217
Ca@@ 9217
Kar@@ 9217
acknowledge 9215
tradition 9215
Na@@ 9212
tro@@ 9211
But 9209
towns 9207
oceans 9206
departure 9204
globally 9204
White 9203
upgrading 9202
yed 9200
boost 9198
adherence 9188
At 9187
Envoy 9187
Independence 9185
registry 9185
owed 9184
fies 9183
， 9181
Sub@@ 9179
sm@@ 9177
admission 9173
sta@@ 9172
hardly 9168
kes 9167
ined 9165
Analysis 9159
ao 9158
fault 9158
highlights 9157
regulate 9155
legitimacy 9150
advertising 9149
tes 9145
weekly 9142
Shi@@ 9141
ious 9141
PC 9140
unified 9138
Si@@ 9136
plastic 9133
roots 9132
oun@@ 9131
regulated 9129
fissile 9128
Latvia 9127
admitted 9124
specify 9121
choices 9119
kilometres 9117
Dec@@ 9116
everybody 9115
ant@@ 9114
residential 9114
113 9113
geographic 9110
interface 9110
statutory 9107
thoughts 9107
FOR 9104
rare 9099
ow@@ 9098
buyer 9096
Trial 9095
appraisal 9095
forming 9094
sec@@ 9089
phases 9088
Medical 9085
vary 9084
Annual 9083
bra@@ 9083
pledged 9082
duly 9081
List 9079
Pl@@ 9079
bird 9077
formula 9072
narrow 9072
J 9068
governed 9068
decolonization 9063
smile 9062
rescue 9060
lift 9059
AL@@ 9057
furniture 9055
clothing 9046
route 9045
condemned 9044
sending 9035
SR@@ 9034
elaborate 9032
5th 9031
Appeal 9031
Bahrain 9031
ple 9031
jo@@ 9030
nonetheless 9027
ID@@ 9025
examining 9025
inherent 9025
Taliban 9023
pers 9020
Ge@@ 9018
forestry 9013
skill 9012
networking 9008
proposes 9003
hole 9002
utmost 8997
hate 8996
OSCE 8992
sun@@ 8992
supposed 8992
offenders 8987
Bangkok 8984
till 8984
obviously 8983
aspirations 8982
horse 8981
fairly 8980
Paraguay 8979
Mer@@ 8978
Te@@ 8974
colour 8974
cal@@ 8973
UNCCD 8966
lowest 8966
collecting 8962
stri@@ 8961
2.5 8959
islands 8958
head@@ 8952
comparable 8943
unemployed 8942
securing 8941
fulfilled 8939
holiday 8936
mere 8927
privacy 8925
controlling 8919
friendship 8919
simulation 8919
2.2 8917
ozone 8917
harmony 8916
prefer 8916
efficiently 8912
environments 8912
defend 8908
ining 8908
runs 8908
walking 8906
em 8904
MS 8903
visible 8903
ST 8902
diversification 8902
100,000 8901
desirable 8897
directors 8896
zed 8896
ensures 8895
tal 8895
predictable 8894
illness 8890
acknowledging 8889
Institutions 8885
boundary 8885
finish 8885
Sch@@ 8884
kids 8879
birds 8877
XI 8876
George 8872
livelihoods 8872
gift 8867
cuts 8863
typical 8863
stereotypes 8862
watching 8862
commonly 8861
ama 8860
verify 8860
payable 8859
documented 8858
prime 8856
supportive 8855
interviews 8854
118 8852
Presidents 8850
tur@@ 8847
Academy 8846
Niger 8843
aff@@ 8841
bul@@ 8841
lock 8841
Ra@@ 8840
collaborative 8839
investigating 8839
placement 8839
baseline 8838
challenging 8837
ace 8835
deposits 8832
divorce 8826
proceeding 8823
processed 8822
Reform 8821
thirds 8818
cultivation 8811
COM@@ 8809
ko 8809
valuation 8809
redeployment 8808
Vi@@ 8806
fat 8805
Fe@@ 8803
Mary 8802
bonds 8801
Kuwaiti 8799
occurs 8796
assumption 8795
LE@@ 8792
hum@@ 8790
arguments 8788
Follow 8787
planet 8782
associate 8779
1978 8771
char@@ 8767
sign@@ 8763
databases 8761
therapy 8758
wild 8753
ER 8745
mineral 8745
meets 8742
JIU 8740
opposite 8740
cy@@ 8732
smoke 8732
reverse 8729
ani 8728
reinforcing 8728
classified 8727
executions 8725
Djibouti 8719
foreigners 8714
sa 8710
Estonia 8708
122 8705
Du@@ 8703
ised 8702
visual 8702
reflection 8694
IM@@ 8692
poses 8689
partially 8686
ue 8685
FA@@ 8683
Note 8682
Workers 8680
wonder 8679
proven 8673
ire 8669
operators 8667
buying 8666
annexes 8665
sheet 8663
Fiji 8661
kg 8661
por@@ 8661
UR@@ 8659
117 8653
tobacco 8645
shipping 8642
ethical 8641
delivering 8639
DC 8638
marks 8636
our@@ 8635
ain 8634
of@@ 8631
thanked 8624
debates 8623
GM 8621
totally 8621
settings 8620
UNO@@ 8619
stick 8613
traditions 8608
Free 8607
dear 8604
obstacle 8603
ong@@ 8602
Studies 8599
US@@ 8598
phrase 8595
struck 8594
licence 8588
ki 8585
tw@@ 8582
TD 8577
ement 8571
tonight 8570
val@@ 8569
Culture 8567
shortly 8567
concentrated 8566
slavery 8565
interpreted 8560
gun 8558
ie@@ 8553
sweet 8546
TH@@ 8545
Program 8541
player 8541
flag 8537
vacancies 8536
clause 8531
Peter 8530
protective 8530
attending 8520
Data 8518
awards 8514
corner 8514
smoking 8514
negotiate 8511
carrier 8510
micro 8509
Ho@@ 8504
inspections 8504
ory 8504
acknowledges 8503
onto 8503
Ru@@ 8502
applicants 8501
unlikely 8497
vice 8493
locally 8491
arrive 8489
ently 8489
gro@@ 8489
elect 8484
04 8481
church 8480
q@@ 8478
portfolio 8476
Luxembourg 8475
160 8472
Narcotic 8472
ion 8468
retention 8468
Ms 8467
ali@@ 8466
divisions 8465
attempted 8463
Base 8462
teach 8460
Togo 8459
Equal 8451
Records 8449
mer 8446
venture 8444
destroy 8442
modernization 8439
bag 8438
commends 8435
accorded 8433
motor 8432
pornography 8432
CN@@ 8430
ited 8427
IP 8425
attributed 8425
park 8425
equ@@ 8423
ading 8419
inequalities 8416
symbol 8415
skilled 8412
simultaneously 8410
thee 8410
recording 8409
outset 8406
Monterrey 8404
responsive 8400
10.@@ 8399
thesis 8397
Your 8389
Commerce 8387
inadmissible 8387
pupils 8386
Cypriot 8380
Goal 8379
fragile 8379
breaking 8374
silence 8372
click 8371
radi@@ 8369
beat 8367
telling 8366
IG@@ 8365
LORD 8364
hal@@ 8364
samples 8363
ESCWA 8358
10,000 8354
bases 8352
Life 8351
ser@@ 8349
Gulf 8347
undertook 8346
realities 8344
exercising 8343
toxic 8341
ought 8336
punished 8333
settle 8330
installed 8329
verbale 8329
bel@@ 8327
wherever 8326
fu@@ 8324
ners 8323
adjust 8322
elaborated 8322
Voluntary 8320
fiftieth 8319
expense 8317
Iceland 8315
analysed 8315
notion 8313
calm 8308
unacceptable 8302
1981 8300
chairman 8300
6th 8299
ane 8295
pat@@ 8294
zing 8289
don@@ 8288
im 8283
att@@ 8280
snow 8279
ular 8276
religions 8275
liable 8271
ily 8270
plate 8270
imported 8268
releases 8265
football 8263
119 8262
140 8262
Malawi 8258
storm 8257
Related 8256
SS 8255
column 8255
1.3 8254
clo@@ 8254
insolvency 8253
happens 8252
crop 8251
domain 8250
wisdom 8250
exercised 8246
seas 8246
voters 8246
Conflict 8244
IR@@ 8244
.9 8243
tired 8243
strive 8234
harmonized 8231
hatred 8230
quiet 8227
ron@@ 8227
summits 8227
1984 8222
creditors 8219
justify 8219
nominated 8218
officially 8216
fil@@ 8215
writer 8208
TS 8203
discussing 8203
deterioration 8202
nongovernmental 8201
Body 8200
evaluated 8200
mechanical 8200
spoken 8200
Golan 8199
125 8196
alcohol 8196
Registrar 8195
ink 8190
ising 8189
passage 8187
decentralization 8184
my@@ 8181
unlike 8181
reliance 8180
Mc@@ 8179
radioactive 8176
Lao 8175
NA@@ 8173
Desertification 8169
gan@@ 8165
evaluating 8164
descent 8163
UNITAR 8160
census 8157
coast 8156
Standard 8151
contingency 8151
metres 8143
Samoa 8141
Wang 8139
arranged 8139
ll 8139
medicines 8139
12.@@ 8135
dri@@ 8135
boards 8134
ach 8131
band 8130
streets 8129
announcement 8128
AC.@@ 8127
wake 8127
thin 8125
empty 8124
song 8123
everywhere 8113
reinforced 8113
appropriately 8110
taught 8110
seller 8101
Sam@@ 8096
Powers 8095
justification 8095
forever 8093
valued 8092
eleventh 8091
tribunals 8090
placing 8089
younger 8089
recurrent 8088
Royal 8087
passengers 8087
witnessed 8085
thereafter 8080
restaurant 8075
stabilization 8075
Additional 8072
Conduct 8070
lesson 8070
unpaid 8070
Congolese 8068
Corporation 8068
Sir 8068
fellow 8064
exceptions 8062
jurisprudence 8059
Paul 8055
mobilizing 8055
traditionally 8054
Organisation 8052
External 8050
crossing 8050
stra@@ 8050
killings 8049
shoes 8048
practitioners 8045
Accounting 8043
marry 8043
preferred 8042
arrange 8041
au 8041
tim@@ 8037
SMEs 8035
breakdown 8035
sincere 8035
Round 8034
allowances 8033
eness 8033
mistake 8031
11.@@ 8030
kindly 8029
\ 8023
tenure 8017
Soviet 8016
bles 8016
km 8013
somewhat 8013
guideline 8012
refuse 8010
nationally 8008
threshold 8006
C.@@ 8002
evolving 8000
proud 7999
assured 7997
explicit 7991
structured 7990
Haitian 7987
Turkmenistan 7986
refusal 7986
flat 7980
vis@@ 7980
manifestations 7978
possess 7974
amounting 7973
Forests 7970
managerial 7969
withdrawn 7968
Botswana 7967
answers 7966
Regulation 7965
allocations 7965
congratulate 7964
silver 7962
NO@@ 7960
NATO 7959
Uni@@ 7958
economics 7954
med 7953
Tokyo 7951
di 7950
module 7947
Tokelau 7946
kin@@ 7943
Conferences 7940
eng@@ 7939
Systems 7938
Brussels 7937
Wall 7935
usage 7934
CC 7929
introduces 7926
peer 7919
transboundary 7914
Saturday 7913
joy 7908
Park 7903
123 7897
CR@@ 7897
revolution 7895
vessel 7895
.I 7892
bling 7891
Madrid 7885
demonstration 7885
bit@@ 7884
creates 7883
stipulates 7883
Ap@@ 7881
pillar 7881
ists 7877
immigrants 7876
Christian 7874
spokesman 7874
optional 7873
Communication 7872
ably 7870
ans@@ 7869
journey 7869
Works 7868
humans 7867
mid@@ 7865
piracy 7863
punish 7863
reliability 7863
abolition 7862
nobody 7862
Barbados 7857
Ste@@ 7857
debris 7857
testimony 7857
club 7853
Common 7851
da@@ 7850
crowd 7847
virtue 7847
shortage 7842
1973 7839
Production 7839
participant 7838
form@@ 7834
commentary 7832
intensified 7832
wearing 7831
personality 7828
ratifying 7828
turns 7827
advocate 7826
leg@@ 7822
Decolonization 7819
Liechtenstein 7818
Moscow 7817
euro 7816
if@@ 7813
ulation 7811
theoretical 7810
losing 7809
quantitative 7809
sad 7807
0,@@ 7805
specialists 7805
salt 7804
121 7800
desired 7800
missiles 7799
flights 7798
distinguished 7796
She@@ 7794
benchmarks 7794
satisfy 7794
Consensus 7793
Z 7792
solving 7791
1949 7789
cool 7788
workforce 7787
surprise 7781
independently 7780
alive 7779
excluding 7778
pair 7778
parliament 7777
Diversity 7774
dem@@ 7773
fac@@ 7771
Aid 7768
maximize 7768
3,000 7764
bri@@ 7763
glad 7760
OAU 7759
underscored 7757
posted 7755
succession 7751
denial 7748
excuse 7747
fer@@ 7747
ham@@ 7747
Unity 7741
assi@@ 7741
blind 7740
tional 7736
Election 7734
hosting 7734
voted 7732
agrees 7731
hom@@ 7731
motivated 7731
Trans@@ 7729
malnutrition 7729
screening 7728
evil 7727
2020 7724
criticism 7724
timetable 7724
bis 7720
render 7717
promulgated 7711
pres@@ 7708
violate 7708
Distr 7705
H. 7705
imagine 7705
Prosecution 7698
impartiality 7696
lady 7693
sor@@ 7692
aren 7691
Add.2 7689
audits 7687
circulation 7686
Account 7679
Is@@ 7678
navigation 7676
Treasury 7675
intend 7664
appealed 7662
ell 7660
Pa@@ 7659
utility 7659
Further 7650
Commander 7649
J. 7648
soci@@ 7647
enables 7644
Final 7643
configuration 7642
earned 7639
oning 7639
ide 7638
resilience 7638
decisive 7636
wording 7635
They 7634
confirmation 7633
sugar 7633
Os 7632
peak 7631
receives 7630
Where 7629
avoiding 7628
begins 7628
supplied 7623
Madagascar 7622
.7 7620
Ensure 7619
Workshop 7619
capture 7619
pri@@ 7615
Cha@@ 7613
apparently 7613
consist 7607
acceded 7602
Level 7601
3.1 7600
PS 7599
bur@@ 7598
countering 7598
mix 7598
RD 7597
stars 7595
Cape 7593
Maritime 7593
tis 7591
INF 7590
births 7588
remind 7585
cope 7584
star@@ 7583
puts 7582
Ali 7577
Ed@@ 7577
gy 7575
accomplished 7574
oring 7572
2.3 7569
disparities 7565
guess 7564
fails 7562
wonderful 7562
pul@@ 7561
abl@@ 7559
emotional 7559
Prince 7555
holistic 7554
prosecuted 7554
180 7553
accommodate 7552
itation 7550
attractive 7547
accelerated 7546
orbit 7544
server 7544
í@@ 7544
ate@@ 7543
inner 7543
aforementioned 7542
patrol 7538
diet 7537
utilize 7535
dle 7534
ward 7534
Tribunals 7533
visa 7533
Ver@@ 7530
IA 7529
broadly 7528
decree 7528
shut 7527
imposition 7525
Decision 7524
Registry 7524
investing 7524
Bolivarian 7522
irrespective 7522
Bal@@ 7520
absolutely 7519
1979 7512
ads 7511
virtually 7511
fication 7510
tendency 7500
Number 7493
ame 7493
remarkable 7492
UNMIS 7491
conversation 7491
mel@@ 7490
SC@@ 7487
alien 7487
Green 7486
St. 7485
Mine 7484
Capacity 7483
sand 7481
synthesis 7476
belong 7472
incorporating 7472
ION 7470
counterparts 7470
honest 7469
resettlement 7463
Articles 7461
reputation 7458
novel 7457
.8 7454
ades 7454
gather 7452
jurisdictions 7450
hey 7448
communicated 7444
briefed 7443
optimal 7442
2016 7441
routine 7440
weekend 7440
identical 7439
prominent 7436
dust 7424
freeze 7424
courage 7422
gn@@ 7419
sponsoring 7419
ty@@ 7418
Matters 7415
bond 7415
politically 7414
politicians 7414
Personal 7410
survivors 7408
victory 7408
shopping 7407
comprise 7406
50@@ 7404
PRO@@ 7404
grain 7404
tribute 7404
concludes 7403
arbitral 7402
clarified 7398
lan@@ 7395
taste 7391
Woods 7390
yellow 7388
tears 7386
shortcomings 7384
threaten 7384
diplomacy 7380
strange 7378
inv@@ 7377
Can@@ 7376
pull 7375
drivers 7372
recession 7370
conscious 7368
Jean 7366
Colonial 7365
abstentions 7364
notify 7362
á@@ 7361
Maldives 7359
stating 7358
Register 7355
UNAIDS 7353
SCO 7351
attacked 7351
124 7348
upcoming 7348
angle 7343
Press 7337
ack 7334
155 7332
TE@@ 7332
Holy 7331
ography 7327
Judge 7325
handled 7325
intimidation 7325
promised 7324
153 7323
land@@ 7323
kers 7316
commencement 7314
characters 7313
om 7311
standardized 7310
angry 7308
detect 7307
attainment 7305
divide 7305
Suppression 7304
issuing 7304
default 7303
sia 7303
Jack 7302
Copenhagen 7301
entrepreneurs 7301
lin@@ 7301
Judicial 7299
vel@@ 7299
Application 7298
Chairs 7297
realizing 7293
dreams 7291
installations 7290
dismissed 7289
UNU 7287
disappeared 7286
machines 7286
compound 7284
MINUSTAH 7281
exact 7280
presenting 7276
resumption 7276
disseminated 7274
Puerto 7272
burning 7272
Parliamentary 7271
printed 7269
isolation 7267
sees 7266
fertility 7265
respondents 7265
Mi@@ 7262
unnecessary 7262
AD@@ 7261
1540 7258
Responsible 7257
bly 7254
guaranteeing 7253
volunteers 7253
50,000 7250
supplement 7249
directions 7247
tariff 7246
Do@@ 7245
spouse 7244
ECLAC 7242
attain 7240
Manual 7239
cry 7238
virtual 7238
fying 7234
vol@@ 7234
Johannesburg 7233
updates 7231
coordinates 7230
Steering 7229
substitute 7229
quantities 7228
rac@@ 7227
reg@@ 7225
bigger 7222
128 7221
experiments 7220
genital 7219
forecast 7218
ham 7216
recover 7215
GA 7214
females 7214
fore@@ 7214
prosecutor 7214
broadcast 7213
adds 7211
Olympics 7210
rotation 7210
tering 7207
ened 7204
failing 7204
commenced 7203
scenario 7202
Guyana 7201
enti@@ 7201
licensing 7201
Insurance 7200
exhausted 7199
institutes 7199
timing 7199
investigative 7195
rational 7195
receivable 7191
Mauritania 7190
incorporation 7190
expects 7188
ox@@ 7186
ambitious 7184
ket 7184
Immigration 7182
hon@@ 7176
ening 7175
adapted 7170
constructed 7170
pal@@ 7168
Practice 7167
ibid 7166
Arbitration 7165
emergence 7165
mes 7165
alternate 7163
138 7162
weaknesses 7162
spheres 7161
argues 7160
ential 7157
iled 7157
sudden 7153
io 7151
Bel@@ 7150
reserved 7150
earn 7145
briefly 7144
diamond 7143
feels 7141
ase 7140
casualties 7138
tru@@ 7138
CDM 7137
penal 7137
breast 7136
aring 7135
diamonds 7134
prolonged 7133
Ji@@ 7132
hearings 7131
sul@@ 7130
Governor 7128
The@@ 7128
ids 7128
tour 7126
suicide 7124
Personnel 7123
Zone 7118
terrible 7118
Marine 7117
fold 7117
ann@@ 7114
assumptions 7113
carries 7108
painting 7107
semi 7107
convey 7100
certified 7097
tank 7096
hardware 7093
hill 7092
marking 7091
miscellaneous 7091
abilities 7090
lacking 7083
hur@@ 7082
twelfth 7082
GS 7079
abide 7078
din@@ 7078
intent 7077
limiting 7075
wondered 7075
134 7072
infected 7072
convenient 7071
foods 7068
aligned 7065
holder 7064
rarely 7060
Ltd 7059
linking 7059
beliefs 7057
OR@@ 7053
ey 7052
coordinators 7048
3.2 7045
CERD 7045
smart 7045
ils 7044
regulating 7044
Page 7043
collapse 7042
Cairo 7040
draws 7040
militia 7040
cement 7039
fol@@ 7039
qualification 7039
anger 7038
UNFCCC 7037
AMISOM 7035
secretariats 7033
TO@@ 7029
profession 7027
birthday 7026
Baghdad 7022
Illicit 7022
rapporteurs 7022
ris@@ 7022
license 7021
ATION 7020
2017 7019
preambular 7015
fire@@ 7014
ole 7009
vers 7006
Bra@@ 7005
bal@@ 7005
deleted 7005
spectrum 7005
earmarked 6999
til@@ 6998
clarity 6994
sounds 6993
supplier 6993
analysts 6991
oms 6989
Gi@@ 6987
cleaning 6986
questioned 6984
uni@@ 6984
uphold 6983
parental 6979
exit 6978
Sudanese 6977
livelihood 6977
Ham@@ 6976
CT@@ 6975
smo@@ 6971
talent 6969
circled 6968
pictures 6968
q 6965
stream 6963
stuff 6963
cel@@ 6954
adversely 6950
stored 6950
examinations 6949
underlines 6947
At@@ 6944
neighbours 6944
newspapers 6943
universality 6943
proactive 6942
herewith 6940
ride 6939
landscape 6936
val 6936
y.@@ 6933
discretion 6931
incomes 6931
walls 6931
wed 6930
modest 6925
ray 6925
warned 6924
kin 6923
126 6920
Cal@@ 6919
entrepreneurship 6918
incompatible 6918
ballot 6917
isolated 6916
magnitude 6916
NE@@ 6915
explored 6915
worthy 6915
Do 6914
HK@@ 6912
assault 6912
es.@@ 6912
consulted 6911
static 6910
meal 6909
Addis 6908
Ser@@ 6907
lying 6907
wounded 6907
marriages 6906
counter@@ 6904
ef@@ 6904
van@@ 6904
colonial 6903
cing 6900
1983 6897
Degrading 6896
farming 6894
moves 6893
BO@@ 6887
native 6886
surely 6884
Coordinating 6882
clearing 6882
aiming 6881
claimants 6879
ills 6878
berg 6877
circuit 6874
Adoption 6871
chart 6869
Dar@@ 6867
Cabinet 6863
extrajudicial 6859
prospect 6859
Rule 6858
panels 6858
aliens 6857
developmental 6856
adhere 6855
neutral 6855
pertinent 6855
compatible 6854
collectively 6853
liquidation 6853
sessional 6852
saved 6850
upgrade 6850
essence 6849
Bretton 6847
Ababa 6845
mapping 6844
Two 6843
1,0@@ 6842
preference 6842
knowing 6841
corrections 6838
Inhuman 6837
listening 6837
Violations 6835
council 6835
noticed 6835
Bur@@ 6834
Trinidad 6834
guys 6832
stimulate 6829
cr@@ 6827
monitors 6820
wn 6820
spouses 6819
MA 6814
attaches 6813
shoulder 6813
revitalization 6811
Victims 6810
programmatic 6810
dynamics 6807
nationwide 6807
cat 6806
invested 6806
warrant 6805
sel@@ 6804
ther 6803
abandoned 6802
prohibits 6800
restrict 6800
Ni@@ 6797
twelve 6796
accreditation 6794
Table 6791
rough 6791
IV@@ 6790
reconnaissance 6789
wil@@ 6788
interdependence 6786
Da@@ 6784
bone 6784
dumping 6784
indirectly 6784
sin 6782
thirteenth 6781
AI 6779
cooperating 6779
precisely 6779
intersessional 6778
satellites 6776
varied 6776
Qaida 6775
returnees 6775
alist 6774
gradual 6774
prohibiting 6772
ino 6771
tonnes 6769
mutilation 6768
ticket 6768
pure 6767
corporal 6764
bills 6762
Care 6760
earliest 6760
van 6760
135 6759
ICRC 6758
confidentiality 6758
pur@@ 6752
Rwandan 6750
Je@@ 6749
Serious 6746
revisions 6746
Granting 6743
bn 6743
graduate 6743
railway 6742
dramatic 6741
XV 6737
na@@ 6737
sty 6735
currencies 6730
debtor 6730
dependence 6730
read@@ 6730
Tax 6729
loc@@ 6729
you@@ 6729
publish 6727
CCW 6726
je@@ 6726
pensions 6726
perception 6726
Reserve 6725
int 6725
conscience 6724
tically 6722
tender 6717
silent 6713
exceeding 6711
gravity 6710
lights 6707
ero@@ 6706
consultant 6705
ata 6704
declining 6702
ese 6702
CEB 6701
1.15 6699
secretary 6698
129 6697
appropriations 6695
wet 6692
disclosed 6691
threatening 6691
2.4 6687
California 6687
182 6685
bing 6683
Urban 6681
magazine 6680
expressly 6678
objections 6678
spiritual 6678
Agricultural 6677
Lakes 6677
comfortable 6677
incentive 6677
misconduct 6675
DA@@ 6674
stro@@ 6673
TRA@@ 6671
sy 6671
ashed 6668
ep 6668
sexually 6668
quota 6665
boundaries 6664
criterion 6664
creditor 6660
purchasing 6658
graphic 6657
checks 6656
ro 6655
Exchange 6652
OP@@ 6652
affirmed 6652
terror 6651
blocks 6646
deferred 6646
versions 6646
Hol@@ 6642
intensity 6640
steadily 6640
Time 6639
avoided 6638
lunch 6638
qualitative 6637
coun@@ 6636
revise 6636
electro@@ 6635
modules 6630
127 6629
Guam 6627
lawful 6627
doors 6626
HUMAN 6625
du 6625
intense 6621
IMO 6620
ari 6620
gre@@ 6618
40@@ 6617
Ku@@ 6614
comp@@ 6614
132 6613
San@@ 6611
arm@@ 6609
freight 6608
exploring 6607
concentrate 6606
urbanization 6606
alleviate 6604
iness 6603
enquiry 6602
dangers 6601
pressures 6595
bi 6594
ja 6589
sil@@ 6589
Port 6588
eng 6587
run@@ 6587
mountains 6585
NATIONS 6584
Tobago 6584
HK 6583
comfort 6581
disappearances 6581
feeding 6581
patent 6575
low@@ 6573
Attorney 6571
foot@@ 6569
ets 6567
liber@@ 6564
ae 6563
pr@@ 6563
waves 6563
correctly 6560
Martin 6559
133 6558
linguistic 6558
discusses 6557
eration 6557
expedite 6555
retail 6554
variance 6554
brothers 6553
endeavours 6553
stores 6550
Fu@@ 6547
systemic 6547
Senate 6546
flood 6546
likes 6546
promising 6546
tight 6546
recourse 6545
Cu@@ 6544
Cruel 6543
defines 6543
lab@@ 6543
respects 6541
thoroughly 6540
hazard 6539
57@@ 6537
fears 6537
LO@@ 6536
mistakes 6536
Against 6534
Tourism 6534
alo@@ 6534
Gabon 6533
2. 6532
sensing 6531
alleviation 6530
accord 6529
analysing 6525
Mil@@ 6523
operates 6521
gh 6520
surgery 6519
custom 6518
chairs 6516
landmines 6515
sto@@ 6514
OK 6513
reveal 6513
spo@@ 6513
throw 6512
filing 6511
inalienable 6511
unanimously 6510
irregular 6509
positively 6509
produces 6509
professor 6509
cup 6507
cessation 6506
Wal@@ 6497
za 6493
blow 6492
nineteenth 6491
shadow 6491
Domestic 6490
mate 6490
influenced 6489
sake 6488
socially 6488
succeeded 6487
Smith 6485
comm@@ 6485
ori@@ 6485
privileges 6484
restriction 6484
accredited 6483
projections 6483
Bhutan 6480
renewal 6480
popul@@ 6478
halt 6475
ada 6470
tough 6468
keeps 6467
pour 6466
supervisory 6465
proceeded 6461
1.4 6460
sponsor 6460
talked 6459
bo 6457
cen@@ 6457
yl@@ 6455
translate 6454
reasonably 6453
philosophy 6452
od@@ 6450
Commercial 6449
appendix 6446
Aviation 6445
inconsistent 6444
Home 6441
leg 6440
routes 6440
designate 6439
wedding 6439
CE 6435
taxation 6435
rid 6434
XII 6433
Liberation 6432
1970 6427
specialist 6427
joining 6425
Char@@ 6422
bread 6420
20,000 6419
meantime 6418
civilization 6417
hide 6417
circle 6416
errors 6416
expendable 6416
lease 6414
dogs 6413
notified 6413
accede 6412
racist 6409
starts 6408
reparation 6407
deny 6403
Natural 6401
duc@@ 6401
raises 6401
centred 6400
coat 6400
Engineering 6398
lic@@ 6397
sho@@ 6394
safeguarding 6393
Rural 6392
accumulation 6390
debts 6390
flower 6390
illiteracy 6390
filling 6388
modification 6388
ala 6387
anda 6387
exceeded 6387
respecting 6387
bulk 6385
ene 6385
temporarily 6384
mindful 6383
oma 6383
person@@ 6382
seed 6382
quarterly 6381
authorize 6380
speci@@ 6380
Statement 6375
patrols 6375
sem@@ 6375
tie 6374
exemption 6371
rap@@ 6371
density 6370
idi@@ 6369
shareholders 6364
33@@ 6363
thinks 6362
UNFICYP 6360
photo 6360
Liberian 6358
Ter@@ 6358
eliminated 6358
segments 6355
FO@@ 6354
rer 6352
defendant 6350
prerequisite 6350
Rotterdam 6347
commend 6346
chains 6345
incumbent 6345
tel@@ 6344
windows 6343
Sim@@ 6341
inventories 6340
subprogrammes 6339
AF@@ 6338
passenger 6336
surprised 6336
contributors 6332
Sec@@ 6331
suspect 6331
removing 6329
thermal 6329
transform 6328
introductory 6326
ination 6325
everyday 6324
eless 6323
endorses 6316
individually 6315
lets 6315
recosting 6315
naturally 6314
Mainland 6311
News 6311
argue 6309
4.1 6307
Chemicals 6306
Investigation 6306
deb@@ 6304
platforms 6304
141 6303
She 6303
logic 6303
SP@@ 6302
hell 6301
incitement 6301
indicative 6299
Ri@@ 6298
cotton 6298
hazards 6298
sh 6297
ain@@ 6296
Establishment 6295
Sexual 6295
Light 6294
recovered 6293
hostile 6292
internet 6292
cher 6290
ini@@ 6285
tied 6285
explosives 6284
Fi@@ 6280
oned 6280
alignment 6278
annexed 6278
enn@@ 6277
relocation 6275
Outcome 6274
lifting 6274
risen 6273
persistence 6272
Harry 6271
graphy 6270
matrix 6270
quar@@ 6269
readily 6269
explanations 6264
perpetrated 6264
completing 6263
hall 6258
inability 6258
continental 6257
loading 6257
fun@@ 6254
sensitivity 6254
Papua 6253
publishing 6253
169 6252
Summary 6252
ica 6252
ss 6251
ano 6250
attach 6248
AM@@ 6245
shock 6239
I.@@ 6237
demonstrates 6235
CMP 6234
compare 6231
Multilateral 6229
1975 6228
invoked 6226
ruled 6226
roster 6224
EA 6220
Response 6220
vo 6216
Presidency 6213
fifteenth 6211
neck 6211
ous@@ 6210
Istanbul 6209
hang 6209
tively 6209
tremendous 6209
endorsement 6207
jump 6207
book@@ 6206
kitchen 6205
Mat@@ 6203
bon@@ 6201
ED@@ 6198
rank 6198
barrier 6197
giant 6197
vertical 6196
Americas 6195
hidden 6195
Blue 6193
adolescent 6193
height 6193
ji@@ 6193
somebody 6192
Er@@ 6190
ols 6190
infections 6189
disseminating 6186
solved 6186
tongue 6186
1980s 6185
array 6183
fy 6183
Amendment 6181
shelters 6181
II@@ 6179
emb@@ 6179
TR@@ 6178
wars 6178
camera 6175
stake 6175
teeth 6173
entail 6172
AN 6171
periodically 6170
renew 6169
top@@ 6169
IONS 6168
spatial 6166
rocket 6165
consulting 6161
ax@@ 6159
Genocide 6155
bled 6155
1974 6154
lam@@ 6152
repeat 6151
warming 6149
policymaking 6148
131 6147
cheap 6147
Cs 6145
na 6144
not@@ 6143
ignored 6142
mb@@ 6142
Governance 6141
fur@@ 6141
ishes 6138
unusual 6138
commence 6136
contingents 6134
4.2 6133
K. 6132
Swedish 6132
cancellation 6131
uranium 6130
AT 6128
Goods 6128
Seminar 6128
websites 6126
CARICOM 6125
Mag@@ 6125
winning 6123
Long 6122
red@@ 6117
162 6115
Be 6115
marital 6114
Eradication 6112
Resident 6112
graduates 6112
illegally 6111
occurring 6111
margin 6109
Fo@@ 6106
highlighting 6104
suspects 6103
basically 6102
eligibility 6102
Bonn 6101
cy 6100
punishable 6100
142 6099
conceptual 6098
inheritance 6098
fro@@ 6097
induced 6097
Peaceful 6094
chapters 6094
ums 6094
hat 6093
instalment 6092
ony 6092
Danish 6091
3.3 6090
wrongful 6090
PL@@ 6089
145 6087
thro@@ 6087
COMMITTEE 6086
couples 6085
arrears 6084
hygiene 6083
0,000 6080
favorite 6080
alike 6076
ises 6075
gri@@ 6072
verified 6070
EP 6069
WP.@@ 6069
Tra@@ 6067
hard@@ 6067
136 6066
implies 6064
nomination 6064
yard 6064
Registration 6062
gases 6059
operator 6059
dad 6058
Construction 6057
aggregate 6057
audio 6057
impression 6056
tragic 6056
GC.@@ 6055
ITC 6054
4,000 6053
EM 6053
industrialized 6051
atten@@ 6050
Programmes 6049
generous 6048
heaven 6048
switch 6045
Letter 6043
visibility 6042
artificial 6036
precious 6036
37@@ 6035
ich 6035
stem 6030
Gibraltar 6029
chan@@ 6027
deploy 6027
fra@@ 6027
she@@ 6025
wer 6024
apportionment 6023
detected 6023
liver 6022
accelerating 6021
tiny 6021
May@@ 6020
Chi@@ 6017
nose 6016
phones 6015
36@@ 6011
Racism 6010
tation 6008
heating 6006
clock 6005
frozen 6002
imp@@ 6002
united 6002
9th 6001
personally 6001
38@@ 5998
honor 5998
ny 5997
blame 5996
confiscation 5995
consolidating 5994
day@@ 5993
Macao 5991
Robert 5989
socialist 5988
males 5986
Im 5984
ac 5984
ti 5984
Market 5979
harmonious 5979
watched 5979
email 5976
picked 5976
Liaison 5975
protein 5975
modify 5971
Take 5969
RES 5967
bin 5967
empower 5967
investor 5964
139 5963
comprised 5963
workplan 5961
accomplishment 5960
bor@@ 5960
à 5959
explains 5956
By 5955
packages 5953
wire 5952
fathers 5950
blo@@ 5949
Integration 5946
~ 5946
attracted 5944
symptoms 5944
devastating 5942
reproduced 5942
demonstrations 5940
rejection 5940
tone 5939
dro@@ 5938
onic 5938
pping 5938
SR 5937
harmonize 5937
bil@@ 5935
occurrence 5932
Line 5929
hardship 5929
Lesotho 5917
C.4 5915
violating 5914
58@@ 5909
deficiencies 5909
Islam 5908
tall 5908
Based 5904
corporation 5904
Chambers 5902
deeper 5896
verse 5896
neglect 5894
broadcasting 5892
precision 5892
differential 5891
luck 5891
ick@@ 5890
any@@ 5888
nominations 5886
coalition 5885
mortgage 5885
Committed 5884
Inspectors 5883
vacant 5883
anywhere 5882
lake 5882
moratorium 5882
actor 5878
committing 5878
sy@@ 5878
Good 5876
manufacturers 5876
锛@@ 5874
connect 5872
exclude 5872
purchased 5872
143 5871
Ju@@ 5871
Enterprise 5870
tness 5869
tropical 5869
postponed 5867
by@@ 5866
ord@@ 5865
phenomena 5865
councils 5864
contexts 5860
James 5859
alists 5858
discount 5858
Gra@@ 5856
accurately 5855
pulled 5855
servant 5855
varying 5855
educated 5854
accepting 5853
oph@@ 5853
passport 5853
preserving 5853
Grand 5850
Val@@ 5850
pic@@ 5850
alities 5849
MINURSO 5848
conver@@ 5848
nearby 5846
Ke@@ 5845
liquidity 5842
exhibition 5840
superior 5840
235 5833
rs 5833
lend 5831
archives 5829
tuberculosis 5829
7th 5827
AC.109 5826
atives 5825
Pol@@ 5824
ack@@ 5823
diversion 5821
dose 5821
metric 5819
Rem@@ 5818
powder 5815
&apos;i 5814
venue 5813
olo@@ 5812
ri 5811
clinics 5809
protest 5809
tended 5807
PRESIDENT 5806
laser 5806
locked 5806
ceiling 5805
Mac@@ 5804
cable 5803
^ 5800
assistant 5799
variable 5799
entrance 5793
challenged 5792
Conventional 5791
accomplish 5791
gaining 5790
Gambia 5789
methodological 5789
claiming 5787
yp@@ 5787
tackling 5785
EL@@ 5784
clu@@ 5784
Situation 5783
vendors 5783
Brazilian 5782
decentralized 5781
quarters 5779
Limited 5777
Mogadishu 5777
Gar@@ 5773
dominant 5772
recipients 5772
awaiting 5771
combine 5771
ind 5771
ist@@ 5770
habit 5769
chances 5768
credits 5766
signals 5763
Its 5762
Promoting 5762
UNCDF 5762
157 5758
maps 5758
bomb 5756
Democracy 5755
Participation 5755
Che@@ 5754
ards 5753
137 5752
8th 5752
inc@@ 5749
ick 5747
legs 5747
deliberate 5746
34@@ 5742
successor 5742
144 5741
restrictive 5740
Des@@ 5738
pledge 5738
1977 5737
Accounts 5734
forensic 5731
lar@@ 5730
166 5729
sen 5729
Contributions 5727
amending 5727
Coalition 5726
residual 5726
medi@@ 5725
Competition 5724
Plenary 5723
survive 5722
deputy 5721
differ 5719
CST 5717
analyze 5717
Media 5716
UNITA 5716
coupled 5714
pon@@ 5714
CD@@ 5712
definitely 5710
backed 5709
cycles 5707
overwhelming 5707
thick 5707
roughly 5706
tings 5705
harder 5704
schooling 5704
experiencing 5703
isation 5701
Ethics 5699
alongside 5699
imposing 5698
recycling 5698
dan@@ 5697
Lee 5695
parliamentarians 5695
countermeasures 5694
10,@@ 5690
Ag@@ 5688
hol@@ 5687
Bahamas 5686
Ger@@ 5685
Three 5685
acc@@ 5685
admit 5684
soldier 5684
hen@@ 5679
LA 5678
48@@ 5677
split 5677
construct 5676
deserve 5676
Centres 5675
rit@@ 5675
undertakings 5675
mom 5674
Solomon 5673
apartment 5673
sin@@ 5673
doubts 5672
kets 5672
1961 5671
imply 5670
fairness 5669
1971 5668
Cro@@ 5668
def@@ 5668
Recommendations 5666
livestock 5666
align 5665
stones 5664
CS@@ 5663
chose 5663
compiled 5661
expressions 5659
mood 5658
ranking 5653
sion@@ 5652
AU 5651
designation 5651
impetus 5650
institute 5647
ab 5645
ome 5645
horizontal 5644
worried 5643
ich@@ 5642
tragedy 5642
Portuguese 5641
ministry 5640
lifted 5638
phased 5638
strain 5638
aps 5637
bottle 5637
abolished 5635
IMIS 5634
ome@@ 5634
container 5631
drove 5631
fed 5631
trainers 5631
Opportunities 5629
Por@@ 5628
Sen@@ 5628
Mel@@ 5627
Zhang 5627
subtotal 5626
Ps 5625
Dispute 5624
fuels 5622
multilateralism 5621
provider 5620
Radio 5615
OP 5614
ea@@ 5612
magnetic 5612
arrests 5611
L. 5609
Mis@@ 5609
contaminated 5608
ja@@ 5607
tre@@ 5607
nursing 5604
shocks 5603
captured 5601
cro@@ 5600
portal 5598
tickets 5598
ICC 5597
demanded 5596
147 5595
ton@@ 5594
connections 5593
Access 5592
3.5 5591
guests 5591
overdue 5591
Provisional 5590
Tri@@ 5590
compete 5590
captain 5589
UNDAF 5588
pipe 5588
ger@@ 5587
uh 5586
Jewish 5585
Miss 5585
ca 5584
noon 5584
Pen@@ 5579
hot@@ 5579
Lin@@ 5578
audited 5578
151 5577
IO@@ 5577
rein@@ 5574
ress 5574
depleting 5573
films 5573
yer 5573
lucky 5572
sla@@ 5572
vegetables 5572
atively 5570
Ivorian 5568
Pi@@ 5566
condemns 5566
C.6 5565
Uses 5565
multinational 5563
seeds 5563
Destruction 5562
methyl 5562
optical 5562
156 5560
Master 5560
wash 5560
enactment 5559
employ 5558
dies 5557
Egyptian 5556
preferential 5556
ji 5554
reiterating 5553
stan@@ 5553
communicable 5551
undermined 5550
Tar@@ 5549
humankind 5549
Treaties 5548
Reconciliation 5547
log 5545
TC 5544
Families 5543
tourist 5542
burn 5541
39@@ 5538
gun@@ 5538
break@@ 5537
inception 5536
sou@@ 5536
vic@@ 5535
146 5534
Church 5532
undoubtedly 5527
Approach 5524
dominated 5524
promises 5524
shaped 5524
Freedom 5523
sixteenth 5523
Ban@@ 5522
overcoming 5522
commented 5521
wit@@ 5521
ancy 5520
ara 5520
ature 5520
Oman 5519
Hospital 5518
Ti@@ 5518
ss@@ 5518
economists 5517
conf@@ 5516
Any 5515
tail 5515
Joseph 5513
loo@@ 5513
Wan 5511
Pri@@ 5510
unclear 5510
voluntarily 5510
eggs 5508
sters 5507
CRIC 5506
underground 5504
Reports 5503
Umoja 5503
bun@@ 5502
finalize 5502
Tibetan 5501
tissue 5501
belongs 5500
criminals 5499
publicity 5499
PRST 5497
ard@@ 5494
cer@@ 5494
costly 5493
USA 5492
helicopters 5490
t.@@ 5490
ced 5488
streamlining 5488
rebel 5486
fal@@ 5485
Sha 5484
attempting 5484
there@@ 5484
mil@@ 5483
Pal@@ 5481
socioeconomic 5481
crude 5479
vacation 5479
crew 5478
pos@@ 5478
treating 5477
volatile 5477
Chen 5476
supporters 5474
truck 5473
peacekeepers 5472
Em@@ 5471
Hotel 5471
fix 5470
aggressive 5467
doc@@ 5467
tells 5466
erosion 5465
golden 5464
log@@ 5464
arose 5461
tide 5461
Sol@@ 5459
confined 5459
compounds 5458
rolling 5457
5.2 5456
ales 5456
seventeenth 5455
predic@@ 5454
itor 5451
demining 5450
delete 5448
lat@@ 5448
artistic 5446
rubber 5445
yn@@ 5445
Abu 5443
1976 5442
chairmanship 5442
Charles 5440
lim@@ 5437
wa 5437
Brown 5436
borrowing 5436
ences 5434
mentally 5433
Han@@ 5430
amp 5430
bits 5428
fla@@ 5428
sophisticated 5426
ali 5424
cloud 5423
med@@ 5422
Conservation 5420
deciding 5418
Offices 5417
suspend 5417
universally 5416
tens 5415
stayed 5413
dying 5412
favor 5412
merit 5411
OIC 5410
cooperatives 5410
reject 5410
eli@@ 5409
selective 5409
sheets 5408
compatibility 5407
petroleum 5406
zz@@ 5406
Electronic 5405
wheel 5404
contracted 5403
reception 5403
encouragement 5402
moderate 5402
formerly 5401
unfair 5401
celebrate 5400
guards 5400
doctrine 5398
collaborate 5397
outlook 5397
predecessor 5396
ranks 5393
depression 5391
corrected 5390
investigators 5390
iti@@ 5389
remittances 5388
ACC 5383
sharply 5381
1960 5380
251 5380
clusters 5380
diligence 5379
200@@ 5375
specially 5375
MENT 5374
Sun 5372
assignments 5372
restored 5372
Near 5371
Fa@@ 5370
appreciates 5369
47@@ 5368
extraction 5368
checked 5367
assuming 5366
oth 5366
bol@@ 5360
deposited 5360
AS 5358
empowered 5357
compl@@ 5356
tations 5356
EM@@ 5354
legacy 5353
prosecutions 5352
applicability 5351
ore@@ 5351
Dutch 5350
notable 5350
Phil@@ 5349
gent 5349
Embassy 5348
determines 5348
discovery 5347
Aspects 5344
Cap@@ 5344
approached 5344
centers 5343
Dr 5342
Quality 5340
beneficiary 5340
volunteer 5340
II.@@ 5339
invention 5339
entitlements 5338
breaches 5336
totalling 5334
advocated 5333
170 5332
Black 5332
DO@@ 5332
Private 5332
Muslims 5331
pot 5331
libraries 5330
pen 5330
agendas 5328
pricing 5328
microfinance 5327
commensurate 5326
CM@@ 5325
tries 5325
breath 5324
mainland 5324
CB 5321
facilitates 5321
pay@@ 5321
roof 5321
edition 5320
exemptions 5318
identifies 5317
cat@@ 5315
san@@ 5311
1.6 5310
firstly 5310
Practices 5308
Chairmen 5307
conform 5307
circum@@ 5306
pharmaceutical 5305
Defense 5304
WG@@ 5304
liked 5304
5.1 5303
helicopter 5303
Christ 5300
civic 5298
tends 5297
154 5296
iii 5296
Cam@@ 5294
communiqué 5294
oli@@ 5293
pressed 5292
ts@@ 5292
wheat 5292
eighteenth 5290
devote 5289
Tr@@ 5288
emp@@ 5282
Ka@@ 5280
Verde 5280
Monaco 5279
Transfer 5279
judgements 5279
UNV 5278
demanding 5276
correspondence 5275
mercenaries 5275
amongst 5274
68@@ 5273
civilizations 5273
weakness 5272
Design 5271
Minorities 5269
coll@@ 5267
coercive 5266
inspectors 5263
aftermath 5262
flu@@ 5262
campus 5260
immunities 5260
59@@ 5258
inten@@ 5258
autumn 5257
Tu@@ 5256
successive 5256
dered 5254
pandemic 5253
emerge 5252
dish 5250
rations 5250
inevitable 5249
leaf 5249
E.@@ 5248
SP 5248
CIS 5247
mol@@ 5246
è@@ 5246
affirmative 5244
158 5243
marginalization 5242
minds 5242
COP@@ 5240
establishments 5240
152 5238
converted 5237
gene 5237
consciousness 5236
gam@@ 5236
freezing 5235
negatively 5235
ulate 5235
ath 5233
norm 5232
1972 5231
Border 5230
Queen 5226
pe 5226
deportation 5225
guns 5225
Migrant 5223
67@@ 5222
Fer@@ 5222
copyright 5222
6,000 5220
Prevent 5219
expectancy 5219
dramatically 5215
founding 5214
innovations 5214
successes 5214
CB@@ 5212
4.5 5210
plenty 5210
SD@@ 5208
hyper@@ 5207
ide@@ 5207
ath@@ 5205
signatories 5205
tin 5202
complemented 5199
pride 5195
SADC 5194
compensate 5192
ier 5192
graph 5191
pil@@ 5189
ken 5188
Hel@@ 5187
distinguish 5186
dy@@ 5186
acti@@ 5185
combining 5185
interpretative 5184
Informal 5183
pays 5183
privatization 5183
tele@@ 5183
ignore 5180
regretted 5179
stat@@ 5178
COUNCIL 5176
fled 5175
score 5173
P. 5171
benchmark 5169
UNDOF 5167
beaten 5165
UNC@@ 5164
Rico 5163
holidays 5162
ow 5160
pushed 5158
settlers 5158
restraint 5157
protests 5156
suppose 5156
ele@@ 5154
paint 5153
retired 5153
fourteenth 5152
Enforced 5151
consecutive 5151
wo@@ 5150
Acts 5148
ption 5148
148 5147
clauses 5147
accessing 5146
travelling 5146
ith 5145
Enhanced 5143
syn@@ 5143
SU@@ 5142
Intelligence 5141
gen 5140
cooking 5139
metals 5138
scenarios 5138
benefiting 5134
composite 5134
licences 5134
FD@@ 5130
activists 5130
Ph@@ 5129
approves 5128
yours 5128
Periodic 5127
sequence 5127
Award 5126
evacuation 5125
tag@@ 5125
plain 5124
affirms 5123
competing 5123
bas@@ 5122
importantly 5122
hired 5121
missed 5121
stepped 5119
app@@ 5118
mature 5118
linear 5115
slight 5115
Groups 5111
Bay 5109
globe 5109
volatility 5108
AP 5106
journal 5104
reunification 5104
dioxide 5103
ication 5103
Mad@@ 5102
incomplete 5102
badly 5101
chicken 5100
designs 5100
accumulated 5098
evolved 5098
vel 5098
Microsoft 5097
acquiring 5097
infectious 5097
nowadays 5096
minimal 5095
vin@@ 5095
ade@@ 5094
stolen 5093
161 5090
chamber 5090
tube 5090
gifts 5089
ron 5088
Ram@@ 5086
Sar@@ 5086
touched 5086
Manager 5085
attained 5085
here@@ 5085
220 5084
Abyei 5084
Mohamed 5084
4.3 5081
Comm@@ 5081
referral 5081
choosing 5079
fiber 5079
landing 5077
plan@@ 5077
pounds 5077
Progress 5076
Au@@ 5075
copper 5075
generic 5075
que@@ 5074
interregional 5073
yl 5073
lifetime 5071
apple 5069
broaden 5069
explosion 5069
tual 5069
Henry 5066
happening 5066
seconds 5065
utilizing 5065
hear@@ 5062
ki@@ 5061
auditors 5060
tsunami 5059
exam 5055
Festival 5053
insert 5053
adviser 5052
streamline 5052
long@@ 5051
restitution 5049
shell 5049
DA 5048
graduation 5048
Br@@ 5047
unchanged 5047
classroom 5046
gear 5046
suspicious 5046
voices 5046
B.@@ 5045
iss@@ 5043
vendor 5043
149 5042
Virgin 5042
Clinton 5041
2.6 5040
forgotten 5040
MDG 5038
CTBT 5037
hearts 5037
UNAMA 5034
usefulness 5034
prisoner 5032
proposing 5031
sleeping 5031
Agreements 5030
Equatorial 5030
breakfast 5030
colleges 5030
eth@@ 5030
Caledonia 5029
Role 5029
advocates 5028
contamination 5027
impede 5026
shops 5025
wards 5023
Richard 5022
shells 5020
spl@@ 5020
sup@@ 5020
EX@@ 5019
physically 5019
Sil@@ 5018
inspired 5016
linkage 5015
hai 5013
cream 5012
hire 5011
steering 5010
Ur@@ 5009
openness 5009
parliaments 5009
tanks 5009
Georgian 5007
carriage 5005
inviting 5002
checking 5001
inappropriate 5001
presently 5001
fluid 5000
CP.@@ 4999
hoping 4999
} 4999
delegate 4998
bears 4996
parity 4994
Point 4993
192 4990
dent 4990
lacked 4990
reads 4989
Paper 4988
Mexican 4987
ear 4985
ides 4985
rob@@ 4985
string 4984
Ash@@ 4983
Sciences 4983
ko@@ 4982
remainder 4981
admissible 4978
cleared 4977
floods 4977
them@@ 4977
prevail 4976
ples 4975
ume 4975
offensive 4974
208 4972
Rom@@ 4972
Certain 4971
dimensional 4971
Presidential 4968
ind@@ 4968
ney 4968
GE@@ 4967
SS@@ 4967
scourge 4965
lion 4964
Thomas 4963
Airport 4961
12,@@ 4960
thirdly 4960
consisted 4959
ute 4959
adopts 4958
Af@@ 4957
ford 4956
Ren@@ 4955
entitlement 4952
Norwegian 4951
{ 4951
ered 4946
highway 4946
PV.@@ 4945
escalation 4944
mag@@ 4943
manufactured 4943
pretrial 4943
County 4942
eradicating 4942
paramount 4942
govern 4941
tho@@ 4939
irrigation 4937
ater 4935
failures 4935
foreseen 4935
displayed 4934
Serbian 4932
recruit 4931
spaces 4931
stu@@ 4930
Stabilization 4929
shelf 4929
201 4926
ast@@ 4926
confrontation 4925
Serb 4924
Prison 4923
quotas 4923
specifications 4923
executing 4922
interviewed 4920
terminal 4920
seventy 4919
mal 4918
wal@@ 4918
ben@@ 4917
democratization 4917
rating 4917
Google 4916
spar@@ 4916
Pu@@ 4914
departmental 4912
persecution 4912
Def@@ 4911
accrued 4911
cumulative 4911
pollutants 4911
strikes 4911
beside 4910
Bali 4907
correlation 4907
tech 4907
unencumbered 4907
inquiries 4905
theories 4905
Fun@@ 4900
ć 4897
Catholic 4896
MONUSCO 4896
sciences 4895
pump 4893
quest 4893
concentrations 4892
financially 4892
CP 4890
endorse 4890
op 4890
hiring 4889
pocket 4889
ups 4889
Belize 4888
ware 4887
fleet 4886
motivation 4886
rivers 4886
exporting 4885
brown 4884
habits 4884
cle 4881
dering 4881
Contract 4880
illustrated 4879
cam@@ 4878
BY 4877
Improved 4877
Provide 4877
shooting 4877
absent 4876
21st 4874
allegation 4874
buyers 4874
legality 4874
Sk@@ 4873
renovation 4871
educate 4870
disposition 4869
centuries 4868
226 4867
rooted 4867
tier 4867
tortured 4867
tured 4867
Civilian 4866
insul@@ 4864
terminated 4864
dou@@ 4863
expectation 4862
disclose 4861
dor@@ 4861
crossed 4859
injection 4858
si 4858
Him 4851
cleaner 4851
Pat@@ 4850
cure 4849
fans 4849
ascertain 4848
threw 4848
ceased 4847
Ma 4846
orderly 4844
Cy@@ 4842
aded 4842
connectivity 4842
uncertain 4841
spreading 4839
urging 4839
auditing 4837
mixture 4837
outbreak 4837
li 4836
dam@@ 4835
Friends 4834
ville 4834
SW@@ 4833
undermining 4833
159 4829
foremost 4829
unt 4829
CISG 4827
tourists 4827
bureau 4825
profiles 4825
shore 4824
stamp 4824
directives 4823
thers 4822
aling 4821
exc@@ 4821
fighters 4821
leverage 4821
somewhere 4820
49@@ 4819
Views 4819
reporters 4819
scholars 4819
Hon@@ 4818
convergence 4817
imbalances 4817
guest 4816
bidding 4815
expeditiously 4814
Risk 4812
Liu 4811
intermediate 4811
60@@ 4810
wel@@ 4810
correction 4809
noble 4808
sustaining 4808
AL 4806
convictions 4806
outlines 4806
han 4805
perfectly 4805
nets 4804
ref@@ 4804
one@@ 4803
10th 4802
trace 4802
cho@@ 4801
num@@ 4800
smell 4800
packaging 4799
165 4798
Reporting 4798
wor@@ 4798
So 4796
oversee 4796
develops 4795
sch@@ 4795
gar 4790
selecting 4790
numerical 4787
ethnicity 4785
exacerbated 4785
tailored 4785
ush@@ 4785
During 4784
aire 4783
shirt 4783
tar@@ 4782
211 4781
scre@@ 4779
sing@@ 4779
a.@@ 4777
Courts 4776
fabric 4775
producer 4775
surge 4775
forwarded 4774
remnants 4774
simplified 4772
Compensation 4770
Oc@@ 4770
doubled 4770
sand@@ 4770
Economy 4769
del 4767
gue 4767
som@@ 4767
1951 4765
defeat 4765
ately 4764
adjacent 4762
photos 4759
restoring 4758
213 4756
confusion 4756
scarce 4756
time@@ 4756
cri@@ 4754
210 4752
offshore 4752
&apos;affaires 4751
modifications 4751
pac@@ 4751
attracting 4750
but@@ 4750
seizure 4750
mul@@ 4748
Club 4746
impressive 4746
modes 4746
stockpiles 4745
AG@@ 4744
accompanying 4744
banned 4742
anyway 4741
swimming 4740
vulnerabilities 4740
seize 4739
alisation 4738
mobilized 4737
immune 4736
1969 4734
ESA 4734
Subsidiary 4734
ira 4734
meter 4734
Man 4733
praise 4733
XIII 4731
parking 4730
Vo@@ 4729
distribute 4729
factual 4729
Beirut 4727
ify 4727
extends 4726
measurable 4726
Executives 4725
Rehabilitation 4725
ams 4724
Rad@@ 4722
SH@@ 4722
Ageing 4721
Argentine 4720
alarm 4720
complied 4720
organisation 4720
tribal 4720
William 4719
eled 4718
stimulus 4718
cohesion 4715
strengths 4714
fruits 4713
requisite 4712
gged 4711
pped 4711
counted 4709
progressively 4707
cap 4705
entr@@ 4705
IDPs 4704
instituted 4701
Credentials 4699
183 4697
Operational 4696
Compact 4695
harvest 4695
desert 4694
dil@@ 4694
gging 4694
procuring 4694
spec@@ 4694
AWG 4693
purchases 4690
xed 4690
inevitably 4689
oxygen 4688
whis@@ 4688
button 4687
Five 4685
interrelated 4685
congratulations 4684
swee@@ 4684
confront 4683
deepen 4683
destructive 4682
filter 4681
Guiding 4679
condemn 4679
lips 4679
containers 4678
hampered 4677
mp@@ 4677
terminate 4677
trafficked 4677
win@@ 4677
ó@@ 4677
242 4676
residing 4676
singing 4676
Spe@@ 4674
laugh 4673
safer 4672
sle@@ 4670
meters 4668
FARDC 4666
Lan@@ 4666
alert 4665
ification 4665
qualities 4665
UNDG 4663
asts 4662
embodied 4661
instrumental 4661
keen 4661
Major 4658
informing 4658
plight 4658
tivity 4657
arises 4653
dressed 4653
Kowloon 4652
fortune 4652
super 4652
circular 4650
lo 4650
notifications 4650
fluctuations 4649
belt 4648
TA 4647
trigger 4647
167 4646
Fed 4644
loving 4644
road@@ 4644
voltage 4644
Ethiopian 4643
deforestation 4642
distant 4642
fruitful 4642
ski 4642
holes 4641
PER@@ 4640
persist 4640
FA 4639
Higher 4639
ears 4639
radical 4638
rounds 4638
segregation 4638
retro@@ 4637
aya 4636
hungry 4635
inserted 4633
enjoying 4630
prof@@ 4630
Far@@ 4629
dialogues 4629
enrolled 4629
Solidarity 4628
mirror 4628
organisms 4628
competencies 4627
reas@@ 4627
painful 4626
finalization 4624
3.4 4622
bin@@ 4620
euros 4620
arity 4619
enact 4617
participates 4617
searching 4617
che 4616
terminology 4616
Refugee 4615
ail@@ 4615
grand@@ 4615
atin@@ 4614
grades 4613
ei@@ 4612
theft 4612
Counsel 4609
Men 4609
ez 4609
optimization 4609
uck 4607
auto 4606
Export 4604
189 4601
Auditor 4600
employing 4600
ush 4600
CI 4599
pin@@ 4599
transformed 4599
UNOMIG 4598
interactions 4598
indications 4597
izes 4597
holy 4591
ater@@ 4590
shed 4589
executives 4588
volumes 4586
dig@@ 4585
timber 4584
discover 4583
scales 4583
supplemented 4581
curb 4580
rationale 4580
sustainment 4580
blockade 4579
UNMEE 4578
arch@@ 4577
mad 4577
tape 4577
Disability 4576
prioritize 4576
administrations 4575
elementary 4573
fossil 4573
cer 4572
misuse 4572
reward 4572
shortages 4572
Detention 4571
consultancy 4569
rum@@ 4569
black@@ 4568
overarching 4568
reduces 4568
Indonesian 4567
ET@@ 4566
farms 4566
Pan@@ 4564
entails 4564
sely 4564
Albanian 4562
Yu@@ 4562
umbrella 4561
AB@@ 4560
bags 4556
dre@@ 4556
Bro@@ 4555
shorter 4555
ven 4555
rail 4554
laboratories 4553
Pr@@ 4552
aly@@ 4552
interfere 4552
s. 4550
1,500 4548
parameter 4547
stateless 4547
complementarity 4546
play@@ 4545
policing 4545
ordnance 4544
pet 4544
270 4543
cancelled 4543
announce 4542
exchanged 4542
a.i. 4541
computing 4541
suc@@ 4541
0.7 4540
Language 4540
bet 4540
Wa@@ 4539
Young 4537
Roman 4536
Vol@@ 4536
beach 4535
Tim@@ 4534
veto 4534
confiscated 4533
ek 4533
planted 4531
varies 4530
year@@ 4529
protects 4528
asks 4527
cried 4527
SO 4526
After 4524
observes 4524
CPC 4523
Station 4522
gran@@ 4522
industrialization 4521
reforming 4521
variation 4521
buried 4520
suppression 4520
Bor@@ 4519
CS 4519
bold 4519
enjoys 4519
aming 4518
zhou 4518
purely 4517
Kivu 4516
prosperous 4516
&apos;clock 4515
deadlines 4515
intervene 4515
ays 4514
beer 4514
favoured 4514
naval 4514
pa 4514
175 4513
ition 4511
Multi@@ 4510
exporters 4510
packing 4510
laying 4509
intercultural 4508
ut 4507
164 4506
1.8 4504
tioning 4504
Comoros 4503
Lake 4503
interpreters 4503
panellists 4503
Morgan 4502
artillery 4502
gers 4501
receivables 4501
227 4500
IOM 4500
shouldn 4500
Bir@@ 4498
Republican 4497
readers 4497
ICSC 4496
Suriname 4496
Tom@@ 4496
maker 4495
commissioned 4494
exploit 4494
millennium 4491
speedy 4491
engineers 4490
tery 4490
173 4489
abstract 4489
aria 4489
concert 4489
staying 4489
1.7 4486
extensively 4486
2.7 4485
pled 4485
opens 4484
synergy 4484
CT 4481
CO2 4480
leisure 4480
loads 4480
vil@@ 4480
SAT 4478
cake 4476
xi 4475
net@@ 4474
IFAD 4473
opium 4473
163 4472
Promote 4471
Sports 4471
ign@@ 4471
law@@ 4471
militias 4471
Accord 4469
Kabul 4469
interior 4469
norm@@ 4469
proclaimed 4466
catalyst 4464
decreasing 4464
counties 4463
rem@@ 4463
rats 4461
visas 4461
babies 4460
nic@@ 4460
ump 4460
Coun@@ 4459
confronted 4458
signatory 4458
30,000 4455
clouds 4455
Rel@@ 4453
deteriorating 4453
vations 4452
Dra@@ 4450
worship 4449
War@@ 4448
Tur@@ 4447
voter 4447
entertainment 4446
lacks 4446
Whole 4445
afforded 4444
human@@ 4443
Index 4442
dedication 4442
gang 4442
wan@@ 4440
Lucia 4439
alarming 4439
factories 4438
allies 4437
chil@@ 4437
predictability 4437
consular 4436
har 4436
Organic 4434
Missions 4433
inging 4431
egg 4429
unsustainable 4429
delicate 4428
ens@@ 4428
farmer 4428
mur@@ 4428
tening 4428
NG@@ 4427
exported 4427
lodged 4427
pun@@ 4425
complainants 4424
kle 4424
darkness 4423
mentary 4423
repairs 4423
fri@@ 4422
Mother 4421
deserves 4421
fan 4421
celebration 4420
dness 4419
organised 4419
Form 4418
junior 4418
Res@@ 4417
toll 4417
Crimes 4416
stance 4416
ounding 4414
d.@@ 4411
liberation 4411
ply 4409
Cl@@ 4408
13,@@ 4407
Southeast 4406
5.3 4405
DNA 4404
athletes 4404
replacing 4404
inform@@ 4403
MD@@ 4402
ound 4402
Sul@@ 4401
248 4400
Fisheries 4400
S.@@ 4400
dev@@ 4400
valve 4400
Provisions 4399
let@@ 4399
describing 4398
deficiency 4397
narrative 4397
sco@@ 4397
Inspector 4396
GHG 4395
SD 4395
chemistry 4395
fusion 4395
stor@@ 4395
172 4393
donations 4393
cook 4391
pp@@ 4385
igh@@ 4384
g. 4382
rests 4382
variations 4382
deficits 4381
UNAMSIL 4380
protracted 4380
textbooks 4380
iring 4379
Communist 4378
mouse 4376
tent 4376
corrupt 4375
dozen 4373
sheep 4373
Recovery 4370
Traffic 4370
tariffs 4370
shipments 4368
Swaziland 4367
remembered 4367
tives 4365
absorbed 4364
nan@@ 4364
recruiting 4364
Money 4363
R. 4361
Don 4360
46@@ 4359
documentary 4358
L.1 4355
coach 4355
discriminate 4355
excellence 4355
ocr@@ 4355
vol 4355
sav@@ 4354
demonstrating 4353
kn@@ 4353
vested 4353
seizures 4352
spots 4352
Sales 4351
childcare 4351
validation 4351
efficacy 4349
auction 4348
signatures 4348
traders 4348
Jan@@ 4347
predict 4347
importing 4346
5.5 4345
Op@@ 4345
Cre@@ 4344
undue 4344
boom 4343
creativity 4343
inated 4342
affiliated 4341
cloth 4341
tertiary 4341
mad@@ 4340
unauthorized 4340
chest 4339
geared 4339
compile 4338
passes 4338
350 4337
centralized 4337
confirms 4336
caring 4335
240 4334
academia 4334
arization 4334
DS 4333
IR 4333
wings 4333
Campaign 4331
Applications 4329
random 4329
upheld 4329
patri@@ 4328
reaches 4328
unequal 4328
variables 4328
defer 4327
tec@@ 4327
56@@ 4326
Effective 4326
eventual 4326
geo@@ 4326
songs 4325
intelligent 4324
attaining 4323
Of 4321
loves 4321
69@@ 4320
Berlin 4320
RES@@ 4320
minerals 4318
HKSAR 4317
nervous 4317
bombs 4315
suspicion 4313
Performance 4312
Serbs 4312
Vincent 4312
supervise 4312
ze@@ 4312
15,@@ 4311
absorb 4311
sewage 4310
alter 4309
Increase 4308
Chargé 4307
CM 4306
Kimberley 4305
deepening 4305
seal 4305
22@@ 4304
Enforcement 4303
artists 4303
matching 4303
initiation 4301
even@@ 4300
230 4298
UNAMI 4298
cleansing 4298
credited 4298
Series 4295
bre@@ 4295
announcements 4294
resistant 4294
Have 4293
backlog 4293
wives 4293
boats 4291
Kim 4289
craft 4289
enemies 4289
shi@@ 4288
RI 4287
distress 4287
inmates 4287
luxury 4287
seriousness 4286
UL@@ 4284
controversial 4284
boxes 4283
cle@@ 4283
com 4283
contest 4283
ok@@ 4283
striking 4283
accepts 4282
acks 4282
hat@@ 4282
lers 4282
Supply 4281
Hy@@ 4280
abduction 4280
func@@ 4279
high@@ 4279
nutritional 4279
span 4279
grace 4278
168 4277
lea@@ 4277
sible 4277
Forest 4276
IPCC 4276
calculate 4276
adjournment 4274
José 4273
ert 4273
vaccine 4273
corn 4272
dismissal 4270
keys 4270
diagnostic 4268
ah@@ 4267
enthusiasm 4267
cooperated 4265
fingers 4265
harsh 4260
Sub.2 4259
Consul@@ 4258
absorption 4257
pop@@ 4256
acceding 4255
deliberately 4255
colors 4254
dependency 4254
rolled 4254
cher@@ 4253
thin@@ 4253
Us 4252
gener@@ 4252
ech@@ 4250
Verification 4249
imbalance 4246
undergoing 4246
Combating 4245
disproportionate 4244
nec@@ 4244
neuro@@ 4244
transferring 4244
14,@@ 4242
RA 4241
finger 4241
exciting 4240
likelihood 4240
1963 4239
standardization 4239
Case 4238
Impact 4238
hinder 4238
schedules 4238
bers 4236
scholarships 4234
enacting 4233
immunization 4233
lengthy 4233
actuarial 4232
prize 4232
burst 4231
magic 4231
offender 4231
assign 4230
Eritrean 4229
Vanuatu 4229
extremism 4229
intentions 4229
sincerely 4229
enrichment 4228
grid 4228
son@@ 4228
holdings 4227
mitigating 4227
70@@ 4226
Compliance 4226
unaccompanied 4225
pragmatic 4224
ry@@ 4224
empowering 4223
phy@@ 4223
tun@@ 4222
ions 4221
abolish 4220
4.4 4219
214 4218
circulate 4218
Arusha 4217
Hamas 4217
yearly 4217
chem@@ 4216
stuck 4216
Aboriginal 4215
indiscriminate 4215
t. 4214
daughters 4213
suited 4213
loose 4212
Bas@@ 4211
healthcare 4210
reactions 4210
anybody 4209
beam 4209
narcotic 4209
1325 4208
Contracts 4208
aci@@ 4208
kit 4208
vacuum 4204
inal 4203
190 4202
Bou@@ 4202
ita 4202
OD@@ 4200
alled 4200
boo@@ 4200
reveals 4200
rigorous 4199
sacrifice 4199
slave 4199
yan 4198
Ow@@ 4197
ser 4197
wan 4197
TH 4196
GC 4195
IDF 4195
insisted 4194
171 4193
Arctic 4191
zi 4191
conten@@ 4190
15.@@ 4189
Chicago 4189
Front 4189
cannabis 4189
sian 4188
Belgrade 4187
caution 4187
tum@@ 4186
Poly@@ 4185
fulfill 4185
loaded 4185
buffer 4184
communal 4182
ratios 4182
ago@@ 4180
verbatim 4179
fought 4178
exploited 4177
municipality 4177
Effects 4176
suggesting 4176
titles 4176
instant 4174
atomic 4173
esting 4173
www.un@@ 4172
Add.3 4171
scaling 4171
Principal 4169
differentiated 4168
Age 4167
Observatory 4167
La 4166
coexistence 4166
pir@@ 4165
relied 4165
stomach 4164
rup@@ 4163
vic 4163
viability 4162
tracing 4161
Nu@@ 4160
wore 4160
bus@@ 4159
equation 4159
stered 4159
diabetes 4157
approaching 4156
ap 4155
resist 4155
UNMIT 4154
disorder 4154
174 4153
AD 4153
Controller 4153
believing 4153
portra@@ 4151
slowdown 4151
comprehensively 4150
enforcing 4150
tain@@ 4149
Total 4148
conciliation 4145
execute 4145
IES 4143
Khartoum 4143
Nature 4143
ori 4143
pass@@ 4143
observing 4142
infrastructures 4141
universe 4141
depended 4140
181 4139
HR@@ 4139
ideological 4139
perpetrator 4139
mir@@ 4138
und@@ 4138
Mines 4136
Procedures 4136
OC 4135
Antigua 4133
frank 4133
alliance 4131
asserted 4130
commander 4130
inde@@ 4130
qualify 4130
hath 4129
STA@@ 4128
sc 4128
agu@@ 4127
rain@@ 4127
191 4126
hostage 4126
ffe@@ 4125
shan 4125
Ministries 4123
Shan@@ 4122
crash 4122
eye@@ 4122
situated 4122
tax@@ 4122
insured 4121
shoot 4121
6.1 4120
ato@@ 4120
Pres@@ 4119
BC 4117
altogether 4117
synthetic 4117
Twenty 4114
clashes 4113
particles 4113
spr@@ 4113
IB@@ 4112
amid 4112
Ven@@ 4111
perceptions 4111
differently 4110
ñ@@ 4110
18.@@ 4109
tt@@ 4109
ult 4109
ries 4107
ano@@ 4106
Minimum 4105
crazy 4105
curve 4105
preserved 4105
overlap 4104
photographs 4104
Marshall 4103
administer 4103
sensor 4102
QU@@ 4101
glasses 4101
icity 4100
Let 4099
maturity 4098
While 4097
ight 4097
leather 4096
trillion 4095
petition 4094
syndrome 4093
ERP 4092
bromide 4091
robbery 4091
11,@@ 4090
reorganization 4090
conditional 4089
encounter 4089
insist 4088
ration@@ 4088
burned 4087
tal@@ 4087
Ki@@ 4086
flagrant 4086
Stockpiling 4085
influences 4085
prompted 4085
zer 4085
14.@@ 4084
ITU 4082
PDF 4081
cop@@ 4081
logy 4081
recep@@ 4081
detrimental 4080
nation@@ 4078
tle 4078
reclassification 4077
scrutiny 4076
stroke 4076
Investigations 4074
fires 4073
vul@@ 4073
Town 4072
embedded 4072
185 4071
breaks 4071
concessions 4071
foregoing 4070
shortfall 4069
Income 4068
clubs 4068
kiss 4068
Meetings 4067
218 4066
antly 4066
install 4066
warehouse 4066
Cup 4065
manufacturer 4064
apped 4063
invalid 4063
Brindisi 4062
Yes 4062
atmospheric 4062
Museum 4061
substantiated 4061
summaries 4061
233 4060
geological 4060
Jane 4059
pushing 4059
HC@@ 4057
funny 4057
guides 4057
pec@@ 4057
tine 4056
washing 4056
rises 4055
knife 4054
rush 4054
ust 4054
New@@ 4053
Not 4053
pack 4053
jury 4050
KP 4049
continually 4049
conservative 4048
&apos;a 4046
17,@@ 4046
positioning 4046
Seychelles 4045
2.8 4044
6.2 4044
extremist 4044
OL 4043
meals 4043
overtime 4043
wound 4043
GENERAL 4042
embrace 4042
god 4042
unexpected 4042
Cas@@ 4041
widening 4040
D.C. 4039
jec@@ 4039
therapeutic 4039
UNMISS 4038
alle@@ 4038
nat@@ 4038
fran@@ 4037
HS 4036
propaganda 4036
movies 4035
Mas@@ 4034
preamble 4034
fier 4033
oneself 4033
Offr 4032
mg 4032
multidisciplinary 4032
pleasant 4032
ouse 4031
acqu@@ 4029
rows 4028
77@@ 4027
outs 4027
177 4026
tip 4026
constrained 4025
prop@@ 4025
184 4024
fever 4024
plac@@ 4024
charter 4023
Vietnam 4022
aerial 4022
arriving 4020
exceeds 4020
Judges 4018
uneven 4018
Trustees 4017
safely 4017
sting 4017
thor@@ 4017
thrust 4017
unliquidated 4017
Plan@@ 4016
bes 4016
permanently 4015
Ahmed 4014
Gen@@ 4013
borrow 4013
elec@@ 4012
premium 4011
preferences 4009
understands 4009
enters 4008
monopoly 4008
tem@@ 4008
Hor@@ 4007
lovely 4007
187 4006
fifteen 4006
interpret 4006
tower 4006
upward 4006
finances 4005
remedial 4005
Ye@@ 4004
theatre 4004
consuming 4003
186 4002
Croatian 4002
Directors 4002
Net@@ 4002
tentative 4002
Landlocked 4001
dental 4000
free@@ 4000
passive 4000
secrets 4000
afterwards 3999
dating 3999
burdens 3998
frames 3998
hereinafter 3998
vit@@ 3998
sensitization 3997
thr@@ 3996
nom@@ 3995
airports 3994
analyzing 3994
tac@@ 3994
202 3993
prevents 3993
sibility 3993
temperatures 3993
CF@@ 3992
regulators 3992
tus 3992
206 3991
UNPROFOR 3991
litigation 3991
adi 3990
refined 3990
cru@@ 3989
lighting 3989
Empowerment 3988
spa@@ 3988
Why 3987
ü@@ 3987
dirty 3986
radar 3986
bridges 3985
basin 3984
distribu@@ 3982
ner@@ 3982
Ak@@ 3981
Communities 3981
redeployed 3981
retaining 3981
abducted 3980
Den@@ 3979
Fre@@ 3979
conducts 3979
favorable 3979
footing 3979
onal 3979
arsenals 3978
kid 3978
armaments 3977
nationalities 3977
jumped 3976
multisectoral 3976
AM 3975
abandon 3975
jet 3975
speaks 3975
cataly@@ 3974
editor 3974
rebuilding 3973
D.@@ 3972
lac@@ 3972
ounded 3972
technically 3972
defects 3971
depend@@ 3971
measurements 3971
rocks 3971
banning 3970
deputies 3970
loud 3970
Valley 3969
XIV 3969
countryside 3969
homo@@ 3969
sanitary 3969
lor@@ 3968
pan 3968
Daniel 3967
accessed 3967
hasn 3967
lit@@ 3967
mot@@ 3967
ón 3967
Develop 3966
commanders 3966
pointing 3966
pt 3966
sexes 3966
hun@@ 3965
FMCT 3964
V. 3964
passion 3964
ado 3963
brush 3963
Annan 3962
diffusion 3961
unconditional 3961
io@@ 3960
lin 3960
anxiety 3959
artist 3959
illa 3957
hello 3956
vibration 3955
CN 3954
amnesty 3954
orphans 3954
righ@@ 3954
Subcommission 3953
Inc 3951
compliant 3951
illustrate 3951
MC 3950
convenience 3950
Times 3949
dge 3948
expiration 3948
new@@ 3948
optimize 3948
lectures 3947
liqu@@ 3946
ker@@ 3942
triangular 3942
Rob@@ 3941
regrettable 3941
sym@@ 3941
basketball 3940
EP@@ 3938
bel 3937
ona 3937
Oceans 3936
undergo 3935
Dem@@ 3934
assists 3934
confronting 3932
engineer 3932
nu@@ 3932
strongest 3932
178 3931
gram 3931
listened 3931
rated 3931
205 3930
500,000 3930
calculating 3930
ensuing 3930
pipeline 3930
Ozone 3929
predicted 3929
Sin@@ 3928
sooner 3928
260 3927
writers 3927
Future 3926
ases 3926
Question 3925
complications 3925
hop@@ 3925
vent 3923
From 3922
Tuvalu 3922
instructed 3922
disadvantage 3921
legislature 3921
merger 3921
privately 3921
aching 3920
compact 3920
genic 3920
ices 3920
traffickers 3920
Ori@@ 3918
surprising 3918
MI 3917
capit@@ 3917
wireless 3916
disadvantages 3915
disappointed 3915
Jones 3914
complain 3914
bell 3913
nurses 3913
school@@ 3912
3. 3911
16,@@ 3908
ologically 3908
hood 3906
3.6 3905
underlining 3905
generators 3904
honey 3903
struggling 3901
Jim 3899
rebuild 3897
Falkland 3895
atics 3895
rebels 3895
stupid 3895
sword 3895
Plurinational 3894
UPR 3894
225 3893
C.12 3893
certainty 3892
crack 3892
prone 3892
restaurants 3892
ventures 3892
Yang 3891
ICAO 3890
rea@@ 3889
reluctant 3889
Who 3887
liberal 3887
minded 3886
len@@ 3885
moments 3885
shake 3885
bacteria 3883
intim@@ 3883
shifting 3883
cli@@ 3882
taxi 3881
emanating 3880
condemnation 3879
nal 3879
cattle 3878
eager 3878
firing 3878
sympathy 3876
grows 3875
wildlife 3875
circumstance 3874
insofar 3874
expelled 3873
travelled 3873
199 3872
Tal@@ 3872
UNLB 3871
bias 3871
dancing 3871
literary 3871
Citizens 3870
teenth 3870
mentation 3869
oper@@ 3868
extra@@ 3867
muscle 3867
battery 3866
Almaty 3865
edi@@ 3865
lif@@ 3865
winner 3865
fulness 3863
prospective 3863
surrender 3863
20th 3862
excited 3861
billions 3859
INSTRAW 3858
AR 3856
relax 3856
Intellectual 3854
ble@@ 3853
hin@@ 3853
memories 3853
sampling 3853
aggravated 3851
arian 3851
clearer 3851
Can 3850
deadly 3850
zo@@ 3850
Wil@@ 3849
bitter 3849
Del@@ 3848
ey@@ 3848
poorly 3848
Hal@@ 3847
appearing 3847
zes 3847
Organizational 3846
tism 3846
unfortunate 3845
builds 3844
Love 3843
part@@ 3843
IL 3842
Kinshasa 3842
Substances 3842
Tai 3842
contributor 3842
historically 3842
explaining 3841
interact 3840
vigorous 3840
embarked 3839
presumption 3839
Narcotics 3838
chron@@ 3838
eller 3838
grand 3838
209 3837
manuals 3837
CL@@ 3835
automation 3835
incoming 3835
13.@@ 3834
nas@@ 3834
occasionally 3834
thrown 3834
Barbuda 3833
Land@@ 3833
crystal 3833
defendants 3833
dic 3833
ideals 3833
steam 3833
tom@@ 3833
LDC 3831
Overseas 3830
home@@ 3830
194 3829
tear 3829
Delhi 3828
dare 3828
disorders 3828
encompass 3828
err@@ 3828
erti@@ 3828
irreversible 3828
243 3827
port@@ 3827
casting 3826
stin@@ 3826
hub 3825
underline 3825
2.30 3824
ghts 3824
bom@@ 3823
journalist 3822
Mur@@ 3821
Brunei 3819
simultaneous 3819
Recommendation 3818
WMO 3818
extraterritorial 3818
opposing 3818
yah 3817
subsidy 3816
itable 3814
Maintenance 3813
diplomats 3813
198 3812
disk 3812
interdependent 3810
forecasts 3809
reproduction 3809
JS@@ 3806
disturbing 3806
kits 3806
litem 3806
uncle 3806
midterm 3805
occupy 3805
RM@@ 3804
encies 3804
enriched 3804
audiences 3803
void 3803
ordin@@ 3802
176 3801
LRA 3801
add@@ 3801
multidimensional 3800
6.5 3799
waited 3799
disciplines 3798
MISC@@ 3797
Moroccan 3796
approving 3796
Austrian 3794
illed 3794
lecture 3793
5.4 3792
dat@@ 3791
uous 3791
neglected 3790
ineffective 3789
Contact 3788
Crisis 3788
carriers 3787
checkpoints 3787
GIS 3786
ude 3786
Polish 3785
abused 3785
tune 3785
222 3784
Understanding 3784
clinic 3783
counting 3782
hotels 3782
sexuality 3782
swing 3782
Economics 3781
ICCD 3780
ren 3780
bran@@ 3779
francs 3779
cornerstone 3777
fre@@ 3777
intentional 3777
flame 3776
physics 3775
trips 3775
ere 3774
imminent 3774
sim@@ 3774
tam@@ 3773
16.@@ 3772
praised 3772
Partnerships 3771
bulletin 3770
Are 3768
utilities 3768
bike 3767
criticized 3767
devise 3767
incremental 3767
inflows 3765
complained 3764
house@@ 3763
itting 3763
207 3761
Appointment 3761
Armenian 3761
EN 3761
Equipment 3761
4.6 3760
amp@@ 3760
hunting 3760
portable 3760
rage 3757
criminalization 3756
203 3755
drinks 3754
ota 3754
quoted 3753
irs 3752
estimation 3751
transported 3751
7,000 3750
meteorological 3750
confinement 3749
deserved 3748
verifiable 3748
Best 3747
Rev@@ 3747
regul@@ 3747
tasked 3747
vigorously 3747
altered 3744
cour@@ 3744
gy@@ 3744
imagination 3744
188 3743
200,000 3743
agg@@ 3742
Ay@@ 3741
aut 3740
cant 3740
payroll 3740
Fl@@ 3739
beneath 3739
balancing 3738
milestone 3738
rous 3738
Bar 3736
Oil 3736
Well 3735
Please 3734
1970s 3733
Accra 3733
CRP.@@ 3733
Learning 3733
wholly 3733
ICCPR 3732
RU@@ 3732
ille 3732
milit@@ 3732
ologists 3731
precedent 3731
extract 3730
tains 3729
BA 3728
anim@@ 3728
facilitator 3728
threatens 3728
shar@@ 3727
statutes 3727
attainable 3726
commits 3726
rid@@ 3726
Ben 3725
pit@@ 3725
Inquiry 3724
chip 3724
iro 3724
precarious 3724
practically 3723
strip 3722
conception 3721
constituting 3721
forecasting 3721
FC 3720
Fundamental 3718
aqu@@ 3717
bars 3717
immense 3717
probability 3716
Elizabeth 3715
Kofi 3715
Johnson 3714
OAS 3714
commun@@ 3714
Bri@@ 3713
tile 3713
elling 3712
premature 3712
Abuse 3711
lung 3711
ambi@@ 3710
quo 3710
barely 3709
Carrie 3708
constituent 3708
ule 3707
ICEF 3706
initiating 3706
outsourcing 3706
disproportionately 3705
bert 3704
itated 3704
Father 3701
Joe 3701
221 3700
RT 3700
bankruptcy 3700
oppose 3699
classical 3698
53@@ 3697
with@@ 3696
Sou@@ 3695
Watch 3695
exp@@ 3695
optimum 3695
withdrew 3695
turnover 3694
cocaine 3693
band@@ 3692
bat@@ 3692
Areas 3691
Cri@@ 3691
immigrant 3691
versus 3690
Mike 3689
hung 3689
wanna 3689
diversified 3688
peacefully 3688
ix 3687
mice 3687
recommending 3687
real@@ 3685
ses@@ 3685
summarizes 3685
questionnaires 3684
Jud@@ 3683
destiny 3683
diminished 3683
eighty 3683
offs 3683
PP@@ 3682
chocolate 3682
hydraulic 3682
1948 3681
DPRK 3680
Dynasty 3679
forcing 3679
wastewater 3679
awa@@ 3678
Trusteeship 3677
adequacy 3677
vir@@ 3677
impediments 3676
198@@ 3675
congresses 3675
Sun@@ 3674
akh@@ 3673
exhaustion 3673
lessly 3673
.com 3672
Mrs 3672
chi@@ 3672
Arts 3671
asleep 3670
calculations 3670
intra 3670
hanging 3669
meth@@ 3669
NU@@ 3668
delegated 3667
streamlined 3667
albeit 3666
apo@@ 3664
exert 3664
flew 3664
Sand@@ 3663
urs 3663
silk 3661
228 3660
Abkhazia 3660
Disabled 3660
lover 3660
optimistic 3660
refuge 3660
heroin 3658
relying 3658
Judiciary 3655
Publ@@ 3655
timeliness 3655
Dan@@ 3653
hurry 3652
SAR 3651
abundant 3651
talents 3651
whatsoever 3651
induction 3650
LE 3649
appropriated 3649
accompl@@ 3648
alls 3648
cancel 3648
classic 3647
dam 3647
241 3646
ura 3646
ODS 3645
basket 3645
ech 3645
undertakes 3645
Sichuan 3644
hou@@ 3644
dozens 3643
permitting 3643
connecting 3642
sum@@ 3642
Bre@@ 3641
Eng@@ 3641
attributes 3641
circles 3641
py 3641
barrel 3640
conce@@ 3640
toxicity 3640
apartheid 3639
striving 3639
GO@@ 3637
diesel 3637
nurse 3636
N. 3635
fullest 3635
alliances 3634
factions 3634
80@@ 3633
slum 3633
trusted 3633
impeding 3630
sof@@ 3630
damaging 3629
ility 3628
patience 3628
initi@@ 3627
fore 3626
196 3625
Growth 3625
invoke 3625
manip@@ 3625
CEO 3624
kick 3624
convert 3622
enter@@ 3622
eurozone 3622
Israelis 3621
fic@@ 3621
mini@@ 3621
Arabs 3620
Crescent 3620
conveyed 3620
observ@@ 3620
wealthy 3620
sea@@ 3619
237 3618
Ottawa 3618
infants 3618
mud 3617
Mohammed 3616
classifications 3616
bath 3615
postal 3615
19.@@ 3614
Ob@@ 3614
amazing 3614
occupations 3614
cabinet 3613
collaborating 3613
hospitality 3613
shaping 3613
Hu 3612
guilt 3612
implied 3612
tennis 3612
defending 3611
kidnapping 3611
reservoir 3611
prevalent 3610
totalled 3610
festival 3609
hil@@ 3609
overcrowding 3609
violates 3609
critics 3606
counts 3605
drag 3605
formats 3604
memor@@ 3604
cin@@ 3603
inger 3603
pesticides 3603
aches 3602
reminder 3602
cooling 3601
ops 3601
199@@ 3600
MT@@ 3600
bribery 3600
originating 3600
Item 3599
activated 3599
ail 3599
motions 3598
Documentation 3597
ella 3597
upset 3597
193 3596
Colombian 3596
Sta@@ 3596
worn 3596
Atlas 3595
Daily 3595
tracks 3595
breeding 3594
rightly 3594
Phase 3593
academics 3593
exhaust 3593
biotechnology 3592
centr@@ 3592
velocity 3592
Autonomous 3591
dawn 3591
stamps 3591
Malvinas 3590
Sy@@ 3590
disruption 3590
tioned 3590
flo@@ 3589
temple 3589
Grenada 3588
download 3588
downward 3588
hem@@ 3588
35@@ 3586
conceived 3586
eling 3586
homework 3586
mounted 3586
path@@ 3586
logging 3585
2.45 3584
warfare 3583
š@@ 3583
Certificate 3582
gently 3582
tooth 3582
2,500 3581
lamp 3581
colleague 3580
ote 3580
bility 3579
depic@@ 3578
macro 3578
surgical 3578
disputed 3575
groupings 3575
relies 3575
Mun@@ 3574
apparatus 3574
worrying 3574
Satellite 3573
inflicted 3573
lonely 3573
valley 3573
204 3572
1966 3571
affirming 3571
nit@@ 3571
pra@@ 3571
compelled 3570
surveyed 3570
diver@@ 3569
18,@@ 3567
seldom 3567
bon 3566
angel 3565
ing.@@ 3565
Euro 3564
hereby 3564
analyzes 3563
coercion 3563
destroying 3563
tant 3563
bore 3562
179 3561
arena 3561
indictment 3561
narcotics 3561
compounded 3560
genes 3559
imprisoned 3559
groundwater 3558
museum 3558
harmonizing 3557
ok 3557
ö@@ 3556
Oper@@ 3555
typ@@ 3555
PR 3554
comparing 3554
ires 3554
somehow 3554
Liber@@ 3553
My@@ 3552
pop 3552
specifies 3550
hoo@@ 3548
clim@@ 3547
esti@@ 3547
mathematics 3547
problematic 3547
queries 3545
WIPO 3544
une 3544
affirm 3542
gal@@ 3542
ea 3541
polar 3541
Supplementary 3540
hedge 3539
brac@@ 3538
react 3538
ni 3537
ho 3536
tips 3536
Opening 3535
ini 3535
pile 3534
reversed 3533
trucks 3533
Bosnian 3532
cheaper 3532
Jul@@ 3531
adapting 3531
sisters 3530
constraint 3529
rez 3529
Entity 3528
Hi@@ 3528
bed@@ 3528
deter 3527
fortieth 3527
practicable 3527
affair 3525
annotations 3525
aquifer 3525
folk 3525
Continue 3524
opted 3524
ship@@ 3524
tless 3524
unresolved 3522
Ly@@ 3521
Timorese 3521
disposed 3521
lesser 3521
19,@@ 3518
compelling 3518
constructing 3518
hero 3518
266 3517
Sur@@ 3517
Thai 3517
codification 3517
tract 3517
wea@@ 3517
abortions 3516
dissolution 3516
tar 3516
was@@ 3516
awa 3515
precursors 3515
NP@@ 3514
blocked 3514
drilling 3514
licensed 3514
€ 3513
lifestyle 3512
rub@@ 3512
215 3511
Labor 3511
explo@@ 3511
hectares 3511
regrettably 3511
Providing 3510
Shu@@ 3510
emotions 3510
reconsider 3510
advocating 3509
dar@@ 3509
jure 3509
sten@@ 3508
Commissions 3507
esses 3507
restricting 3506
triggered 3506
Palau 3505
ul 3505
whereabouts 3505
keeper 3504
shifts 3504
6.3 3503
Abidjan 3503
hid 3501
mile 3501
W. 3500
handbook 3499
sickness 3499
chairpersons 3498
charity 3498
glory 3497
rious 3497
OR 3495
walks 3495
269 3493
refres@@ 3493
treasure 3493
uncertainties 3491
Soci@@ 3489
brave 3489
supplementing 3489
8,000 3488
flowing 3488
fr@@ 3488
Sahel 3487
invaluable 3487
anymore 3486
20,@@ 3484
heightened 3484
biting 3483
childbirth 3483
exhaustive 3483
216 3482
Lands 3482
elaborating 3481
sk 3481
elled 3480
fec@@ 3480
intervals 3480
slide 3480
Malaria 3479
Tehran 3479
developers 3479
settling 3479
trauma 3479
declares 3478
ques 3478
217 3477
contested 3477
ola 3477
Mus@@ 3476
molecular 3476
Dag 3475
yo@@ 3475
determin@@ 3474
rendering 3474
1.9 3473
GU@@ 3473
fits 3473
implements 3473
lip 3473
exi@@ 3472
freshwater 3472
enquiries 3471
.... 3470
adjusting 3470
asting 3469
Ukrainian 3468
fragmentation 3468
mers 3468
upholding 3467
Cir@@ 3465
UNITED 3465
posting 3465
195 3464
expeditious 3464
wind@@ 3464
Grenadines 3463
mathematical 3463
Ci@@ 3462
demarcation 3462
expiry 3461
reminds 3461
Dec.@@ 3458
Maria 3458
graduated 3458
scheduling 3458
Socialist 3457
bones 3457
rents 3457
rigid 3456
3.7 3455
Green@@ 3455
Naqurah 3455
romantic 3455
thly 3454
coral 3452
flu 3452
psychosocial 3451
Our 3450
pretext 3450
tunnel 3450
hybrid 3449
suppress 3449
vicinity 3449
Dakar 3448
Wu 3448
induc@@ 3448
ration 3448
beds 3447
eco 3447
0.5 3446
Departments 3446
promotional 3446
Memorandum 3445
253 3444
economical 3444
evidenced 3444
manifest 3443
Bermuda 3442
Sao 3442
rey 3442
ena 3441
matched 3440
thirtieth 3440
19th 3439
Kal@@ 3439
jun@@ 3439
margins 3439
sic@@ 3439
4.8 3438
homeless 3438
rival 3438
Chernobyl 3437
triennial 3437
Andorra 3436
bec@@ 3436
hydrogen 3436
rers 3435
short@@ 3435
tactics 3435
Consideration 3434
Hen@@ 3434
itory 3434
climb 3433
optimism 3433
hex@@ 3432
Cluster 3430
agro 3430
mic@@ 3430
reinforcement 3430
These 3429
horses 3429
show@@ 3429
adap@@ 3427
dd@@ 3427
oxide 3427
MSP 3426
economist 3426
accompany 3425
inary 3425
trac@@ 3425
Adaptation 3424
iting 3424
neutrality 3424
258 3423
L.2 3423
expired 3423
gray 3423
ranges 3423
vac@@ 3423
Directive 3422
morbidity 3422
slip 3422
Pact 3421
Provi@@ 3420
reconsideration 3420
ushing 3420
stal@@ 3418
resignation 3417
rockets 3416
yang 3416
fence 3415
openly 3415
template 3415
menu 3414
scores 3414
AC.105 3413
juice 3413
privilege 3413
stairs 3412
CCPR 3411
CTC 3410
dé@@ 3410
itating 3410
Pre 3409
ette 3409
illing 3409
quit 3409
Jews 3408
actu@@ 3408
gues 3408
Ibid 3407
effected 3407
mates 3407
4.7 3405
judged 3405
separ@@ 3405
IU@@ 3404
foreseeable 3404
improves 3403
Transit 3402
Lusaka 3401
engines 3401
gay 3401
20.@@ 3400
plates 3400
routinely 3400
gel 3399
itate 3399
1968 3397
locate 3397
magne@@ 3397
sequ@@ 3397
Wel@@ 3396
rot@@ 3396
struc@@ 3396
magazines 3395
ligh@@ 3394
197 3393
seismic 3393
Pur@@ 3392
Spring 3392
Cities 3391
Seabed 3391
atrocities 3391
invitations 3391
Sor@@ 3390
Intolerance 3389
finalizing 3389
mony 3389
deems 3388
definitive 3388
flesh 3388
Cypriots 3387
constituencies 3387
Moses 3386
ideology 3386
prediction 3386
psychiatric 3386
vegetable 3385
escaped 3384
gall@@ 3384
psychology 3384
Truth 3383
Web@@ 3383
illustrates 3382
á 3382
intra@@ 3381
Classification 3380
Course 3380
beg@@ 3380
rat 3380
wooden 3379
backgrounds 3378
reparations 3378
planting 3376
quarantine 3376
sufficiency 3376
pregnancies 3375
Travel 3374
stabilize 3374
denying 3373
mann 3373
alling 3372
rel 3372
stigma 3372
ladies 3369
layout 3368
public@@ 3368
unexploded 3368
Barack 3367
Fin@@ 3367
MAN@@ 3366
cool@@ 3366
Heritage 3365
commemoration 3365
reasoning 3365
disappointment 3364
fines 3364
Ir@@ 3363
agreeing 3363
ú@@ 3363
hypo@@ 3362
254 3361
catalytic 3361
Los 3360
bow 3360
yen 3360
Exploitation 3359
allocating 3358
nerve 3358
Strengthen 3357
Guangdong 3356
peninsula 3355
unanimous 3355
flooding 3354
gentle 3353
ishment 3353
arti@@ 3352
care@@ 3352
prudent 3351
rep@@ 3351
automated 3350
forgive 3349
onom@@ 3349
Tonga 3348
brilliant 3346
Bon@@ 3345
Fifty 3345
Under@@ 3345
nominal 3345
Don@@ 3344
Cel@@ 3341
biology 3341
feared 3341
villagers 3341
Putin 3340
packed 3340
Units 3339
Darussalam 3338
Products 3338
lasted 3338
label 3337
soc@@ 3337
vector 3337
Physical 3336
administrators 3336
collabor@@ 3336
forgot 3336
peasants 3335
proximity 3335
alised 3333
stemming 3333
Dou@@ 3332
Super@@ 3332
corrigendum 3332
ptions 3332
system@@ 3332
tak@@ 3332
emia 3331
influential 3331
nor@@ 3331
vement 3331
Quartet 3329
advertisement 3329
midst 3329
ef 3328
grasp 3328
40,000 3327
5.6 3327
TER@@ 3327
petrol 3326
symbols 3326
15,000 3325
Sheikh 3324
tot@@ 3324
bureaux 3323
interrogation 3322
troubled 3322
Kir@@ 3321
sanction 3320
Mot@@ 3319
depositary 3319
interpretations 3319
stimulating 3319
unrest 3318
Laundering 3317
repercussions 3317
Nov@@ 3316
brigh@@ 3316
legi@@ 3315
Documents 3314
MS@@ 3314
Oslo 3314
ells 3314
poorer 3314
quadrennial 3313
gan 3312
revolutionary 3312
Hum@@ 3311
acies 3311
ingredients 3311
450 3310
dial 3310
disregard 3310
finite 3310
backs 3309
Funds 3308
Medicine 3308
Old 3306
spe@@ 3306
Exercise 3304
ISO 3304
2.9 3303
HIPC 3303
contravention 3303
ç@@ 3303
Leg@@ 3302
TE 3301
Shenzhen 3300
influenza 3300
pray 3300
spell 3300
itted 3299
ologist 3299
scar@@ 3299
surrounded 3299
photo@@ 3298
obsolete 3297
Marino 3296
Ming 3296
enclosed 3295
fracture 3295
hiding 3295
severity 3295
223 3292
Cla@@ 3292
corrective 3292
peri@@ 3292
tting 3292
15th 3291
Buenos 3291
Karabakh 3291
ometer 3291
trap 3291
guardian 3290
infl@@ 3290
ager 3289
evolve 3289
refu@@ 3288
7.1 3287
trem@@ 3287
Mark 3286
rig@@ 3286
Hammarskjöld 3285
Xi@@ 3285
constructively 3285
7.5 3282
bombing 3282
mar 3282
downturn 3281
ISU 3280
influencing 3280
HA 3279
brutal 3279
clarifying 3279
reader 3279
swift 3278
yields 3278
264 3277
amphetamine 3277
performances 3277
gg@@ 3276
societal 3275
ICTR 3274
Francisco 3273
Command 3272
ila 3272
mortar 3272
way@@ 3272
weigh 3272
soup 3271
ulated 3271
combustion 3270
injustice 3269
ulating 3269
11th 3268
1000 3267
255 3267
Columbia 3267
Pan 3267
amen@@ 3267
honoured 3267
Apple 3265
eve 3265
ever@@ 3265
Knowledge 3264
nt 3264
deduc@@ 3263
juveniles 3263
Aires 3262
decreases 3262
fav@@ 3262
entries 3261
276 3259
rev@@ 3259
roc@@ 3259
Ara@@ 3258
capitals 3258
congress 3258
planes 3258
ffs 3257
mou@@ 3257
swim 3257
pling 3256
reconcile 3255
deceased 3253
Fran@@ 3252
Han 3252
correspond 3252
coup 3252
parks 3252
symposium 3252
Gazette 3250
nights 3250
shame 3250
despair 3249
Fs 3248
hes 3248
tuition 3248
Kan@@ 3247
arisen 3247
procur@@ 3247
disc@@ 3246
layers 3246
supplements 3246
specification 3244
anz@@ 3243
distr@@ 3243
PE@@ 3242
Projects 3241
Techn@@ 3241
broadening 3240
culturally 3240
phen@@ 3240
Now 3239
disparity 3239
Tenth 3238
extradite 3238
fitting 3238
Pra@@ 3237
contraceptive 3237
ee 3237
flash 3237
ures 3237
bud@@ 3236
ck 3236
fundamentally 3235
marginal 3235
recreational 3235
treatments 3235
ached 3234
contends 3233
infringement 3233
Regular 3232
UD@@ 3231
blast 3231
Some 3230
conditioning 3230
SIDS 3229
directory 3229
lity 3229
Policies 3228
GE 3227
Ze@@ 3227
ballistic 3227
Art 3226
Multi 3226
tap 3226
Commitment 3225
MINURCAT 3225
panic 3225
solemn 3225
comb@@ 3224
predominantly 3223
Srpska 3222
undergone 3222
mighty 3221
Infrastructure 3220
avi@@ 3220
plo@@ 3220
Santiago 3218
mit@@ 3218
ables 3217
complying 3217
lear@@ 3217
mill 3216
celebrated 3214
pronounced 3214
ouring 3213
servers 3213
associates 3212
governor 3212
ison 3212
AA 3211
Str@@ 3211
cord 3211
lays 3211
wells 3211
pivotal 3209
whoever 3209
Vis@@ 3208
fool 3208
objectivity 3208
ov@@ 3207
rence 3207
subparagraphs 3207
welding 3207
bubble 3206
consumed 3206
kil@@ 3206
speculation 3206
ev 3204
posi@@ 3204
Technological 3203
vague 3203
ICTs 3202
aux 3202
beating 3201
sli@@ 3201
Municipal 3200
avail 3200
discourage 3200
endanger 3200
Delegation 3199
adaptive 3199
bush 3199
eu@@ 3199
onn@@ 3199
ric 3199
1267 3198
Sab@@ 3198
accusations 3198
presiding 3198
floating 3197
236 3196
Nordic 3196
singer 3195
web@@ 3195
VE@@ 3194
declaring 3194
vitamin 3194
articulated 3193
educ@@ 3193
DR 3192
Harvard 3192
Wh@@ 3191
inqu@@ 3191
revising 3191
stretch 3191
warmly 3191
UNIDIR 3190
spacecraft 3190
crimin@@ 3189
Continental 3188
inity 3188
teenage 3188
Bl@@ 3187
astic 3187
ounds 3187
tial 3187
altitude 3186
sacred 3186
Boards 3185
ninety 3185
ased 3184
intake 3184
weakened 3184
252 3183
Ds 3182
Early 3182
1,8@@ 3181
inspiration 3181
storms 3181
appointing 3180
eds 3180
privileged 3180
Provision 3179
DE 3178
Rati@@ 3178
questioning 3178
winds 3178
Sem@@ 3177
clerk 3177
consequent 3177
rable 3177
ram@@ 3177
recurrence 3177
Tor@@ 3176
fatigue 3176
irrit@@ 3176
exhibit 3175
exchanging 3174
pale 3174
posing 3174
Fish 3173
dire 3173
Ou@@ 3172
mayor 3172
thread 3172
Wat@@ 3171
anian 3171
psych@@ 3171
sorrow 3170
Ki 3169
adi@@ 3169
handic@@ 3169
mount 3168
succ@@ 3168
Janeiro 3167
LC 3167
breathing 3167
girlfriend 3167
ignorance 3167
inci@@ 3167
Scotland 3166
eleven 3166
him@@ 3166
78@@ 3165
Direc@@ 3165
TED 3165
shipped 3165
scientist 3164
competitors 3163
mounting 3162
transi@@ 3162
lah 3161
opponents 3161
len 3160
painted 3159
traded 3159
dol@@ 3158
encumbered 3158
Colonel 3157
Faculty 3157
etc. 3157
expecting 3157
husbands 3157
masses 3157
microcredit 3157
sentencing 3156
fellowship 3154
mess@@ 3154
negotiable 3154
directive 3152
frustration 3152
RS 3151
graph@@ 3151
sponsorship 3151
arid 3150
attribute 3150
crying 3150
Cap 3149
advis@@ 3149
boarding 3149
43@@ 3148
amed 3148
astr@@ 3148
encompasses 3148
Out@@ 3147
abundance 3147
odd 3147
pel@@ 3147
unreasonable 3147
265 3146
232 3145
tripartite 3145
12th 3144
ashes 3144
ek@@ 3144
SubCommission 3141
editing 3141
stringent 3141
vaccines 3141
Republika 3140
3.8 3139
fir@@ 3139
dom 3138
e. 3138
emotion 3138
tran@@ 3138
eful 3137
los@@ 3137
quietly 3137
underscore 3137
Medium 3136
communicating 3136
ity@@ 3136
magistrates 3136
Hongkong 3135
impl@@ 3135
Hom@@ 3134
hosts 3134
persuade 3134
regi@@ 3134
sor 3134
thered 3134
Advice 3133
OS 3133
ambition 3132
avoidance 3132
neutr@@ 3132
fuzzy 3131
simplify 3130
tail@@ 3130
Gor@@ 3129
prioritized 3128
stering 3128
trademark 3128
Laws 3127
ación 3127
deeds 3127
fare 3126
inspect 3126
kingdom 3126
precautionary 3126
turmoil 3126
.or@@ 3125
On@@ 3125
diff@@ 3125
gation 3125
Irish 3124
Lehman 3124
assumes 3124
oping 3124
stock@@ 3124
youre 3124
Kor@@ 3123
Nauru 3123
behold 3121
populated 3121
Credit 3120
empirical 3120
proves 3120
traveling 3120
Commodities 3119
departed 3119
flies 3119
fortunately 3119
Associations 3118
exempt 3118
annum 3117
staffed 3117
sively 3116
forcibly 3115
responds 3115
grey 3113
ranked 3113
UNMOVIC 3111
gor@@ 3111
minim@@ 3111
shoulders 3111
xes 3111
90@@ 3110
MP 3110
Nobel 3110
Which 3110
confirming 3110
pursuance 3110
telec@@ 3109
xing 3109
Sam 3108
attachment 3108
swe@@ 3108
Pho@@ 3107
forbidden 3107
ić 3107
247 3106
Damascus 3106
Set 3106
jeopardize 3106
patho@@ 3106
plot 3106
derog@@ 3105
cigarette 3104
pes@@ 3104
pesticide 3104
44@@ 3103
INTERPOL 3103
Ombudsperson 3103
bride 3103
RT@@ 3102
attorney 3102
definite 3102
distinctive 3102
forge 3102
imaging 3102
687 3101
redouble 3101
Lim@@ 3100
that@@ 3100
án 3100
231 3099
Ann@@ 3099
deem 3099
dictionary 3099
ela 3099
stretched 3099
T. 3098
brackets 3098
unsafe 3098
238 3097
slower 3097
alistic 3096
ook 3095
outgoing 3094
pes 3094
sta 3094
ATIONS 3092
arbitrarily 3092
neighbors 3092
Guard 3091
age@@ 3091
legisl@@ 3091
main@@ 3091
Mit@@ 3090
RY 3090
fan@@ 3090
tory 3090
concise 3088
homeland 3088
244 3087
246 3087
eth 3087
Integr@@ 3086
defamation 3086
dispatch 3086
refoulement 3085
17th 3084
derive 3084
evictions 3083
Book 3081
addi@@ 3081
Assistants 3080
adhe@@ 3080
atter 3080
deploying 3080
inherited 3080
Frente 3079
ito 3079
prioritization 3079
automobile 3078
bent 3078
ratione 3078
frontier 3077
Cur@@ 3076
cell@@ 3076
itis 3076
charts 3075
discourse 3075
hair@@ 3075
Qing@@ 3074
Sig@@ 3074
discrepancies 3074
Commissioners 3073
connec@@ 3073
stricken 3073
Ve@@ 3072
17.@@ 3071
acclamation 3071
crowded 3071
expire 3071
invoices 3071
oming 3071
tful 3071
Prize 3070
UNSOA 3070
py@@ 3070
unciation 3070
Fra@@ 3069
preclude 3069
unforeseen 3069
55@@ 3068
60,000 3068
oblig@@ 3068
repression 3068
Micro@@ 3067
microwave 3067
profitable 3067
refusing 3067
speeches 3067
Gal@@ 3066
Nos. 3066
lag 3066
Reintegration 3065
critically 3065
donation 3064
preferable 3064
promulgation 3064
Methods 3063
concession 3063
physi@@ 3062
conscientious 3061
drunk 3061
tumor 3061
224 3060
lowering 3060
orange 3060
endangered 3059
aut@@ 3058
Reconstruction 3057
bes@@ 3057
ied 3057
mas@@ 3057
precondition 3057
1958 3056
Kam@@ 3056
Nicosia 3056
intentionally 3056
robot 3056
ud 3056
stockpile 3055
Her 3054
flow@@ 3054
Tang 3053
nod@@ 3053
verbal 3053
warplanes 3053
letting 3052
iv 3051
Islam@@ 3048
upgraded 3048
bail 3047
hamper 3047
program@@ 3047
royal 3047
261 3046
Poor 3046
Revolution 3046
buses 3046
keywords 3046
rationalization 3046
collec@@ 3045
paths 3045
7.2 3044
Disappearance 3044
RP@@ 3044
ashing 3044
Cartagena 3043
Includes 3043
shoe 3043
underscores 3043
widest 3043
itors 3042
lethal 3041
overhead 3041
preceded 3041
contradiction 3040
differing 3040
prosecuting 3040
1950 3039
preferably 3039
OL@@ 3038
cautious 3038
enders 3038
disturbed 3037
vy 3037
fasc@@ 3036
Securities 3035
supreme 3035
PN@@ 3034
pit 3034
． 3034
tense 3033
collaborated 3032
multimedia 3032
manages 3031
repetition 3031
Challenges 3030
hadn 3030
drain 3029
tan 3029
condemning 3028
discriminated 3028
dismantling 3028
eme@@ 3028
examines 3028
rapporteur 3028
subscri@@ 3028
18th 3027
Facilitation 3026
devi@@ 3026
psychotropic 3026
Azerbaijani 3025
diagno@@ 3025
generator 3025
rhetoric 3025
simplification 3025
Mid@@ 3024
Sport 3024
UNA@@ 3024
anxious 3024
prince 3024
Associate 3023
champ@@ 3023
ful@@ 3023
petitioner 3023
spi@@ 3022
cognitive 3021
principally 3021
alleges 3020
motor@@ 3020
Ga@@ 3019
astronom@@ 3018
priest 3018
Jan 3017
234 3016
educators 3016
Net 3015
explosions 3015
scattered 3015
tter 3015
clarifications 3014
drama 3014
POPS 3013
shifted 3013
Pakistani 3011
Susan 3011
comfor@@ 3011
brands 3010
chambers 3010
sealed 3010
1,200 3009
MOP 3009
coefficient 3009
gal 3009
impressed 3009
coating 3008
ACABQ 3007
Transparency 3007
ax 3007
detecting 3007
Santa 3006
custodial 3006
issu@@ 3006
Micronesia 3005
TF 3005
Those 3005
persisted 3003
Fair 3002
entrepreneurial 3002
knee 3002
nonproliferation 3002
Fight 3001
IPU 3001
airline 3001
oul@@ 3001
Seoul 3000
X. 3000
hierarchy 3000
battalion 2999
congratulated 2999
inspected 2999
neighbourhood 2999
respiratory 2999
Enterprises 2998
DVD 2997
Surve@@ 2997
lump 2997
varieties 2997
1964 2996
IM 2996
ema 2996
musical 2996
self@@ 2996
faults 2995
polling 2995
aki 2994
ental 2994
Turks 2993
condolences 2993
furthering 2993
scarcity 2993
suits 2993
asserts 2992
criminalize 2992
incorporates 2992
compensable 2991
descriptions 2990
ented 2989
frac@@ 2989
herein 2989
diversify 2988
ET 2987
hills 2987
indi@@ 2987
prints 2987
bite 2985
unstable 2985
hindered 2984
transforming 2984
armoured 2983
contra@@ 2983
ially 2983
64@@ 2982
Bio@@ 2982
affection 2982
But@@ 2981
subordinate 2981
Establish 2980
SE 2980
morality 2980
rear 2980
reprisals 2980
Fon@@ 2979
Trump 2979
acquisitions 2978
earning 2978
metry 2978
oldest 2978
origin@@ 2978
Circular 2977
Weapon 2977
activation 2977
electronics 2977
femin@@ 2977
materi@@ 2977
ator@@ 2976
fat@@ 2976
Institutional 2975
prayer 2975
Mount 2974
fishery 2974
lip@@ 2974
recreation 2974
sticks 2974
Extension 2973
eline 2973
landed 2973
outlining 2973
reside 2973
nity 2972
6.4 2971
contacted 2971
poll 2971
DPKO 2970
jail 2970
weigh@@ 2970
WG.@@ 2969
bargaining 2969
equilibrium 2969
solitary 2969
litres 2968
Volunteer 2967
reformed 2967
Sanctions 2966
devised 2966
drops 2966
eved 2966
pist@@ 2966
rainfall 2966
supplying 2966
ulous 2966
338 2965
administrator 2965
laughter 2965
COP.@@ 2964
colonialism 2964
relieve 2964
cir@@ 2963
inhal@@ 2963
sizes 2962
stranger 2962
ISAF 2961
XVI 2960
professions 2960
vein 2960
Notes 2959
churches 2959
pity 2959
CN.15 2958
Lam@@ 2958
confused 2958
editorial 2958
NAP 2957
careers 2957
99@@ 2956
Cambodian 2956
Observation 2956
aver@@ 2956
ints 2956
ip 2956
rol@@ 2956
extensions 2954
facilitators 2954
retreat 2954
subjective 2954
Premier 2953
merged 2953
accommodated 2952
dishes 2952
seasonal 2952
desperate 2951
impaired 2951
repeal 2951
wl 2951
aero@@ 2950
noteworthy 2950
sedi@@ 2949
shel@@ 2949
worsening 2949
les@@ 2948
paradigm 2948
impeded 2947
poultry 2947
257 2946
IE@@ 2946
Stanley 2946
recogn@@ 2946
CN.7 2945
Produc@@ 2945
encompassing 2945
indebted 2945
mented 2945
Camp 2944
advising 2944
convince 2944
eaten 2943
oted 2943
wounds 2943
Afro 2941
bankers 2941
minimizing 2941
whilst 2941
Bil@@ 2939
insight 2939
discrimin@@ 2938
distributing 2938
mon 2938
Mandate 2937
fle@@ 2937
Carlos 2936
recognised 2936
MB@@ 2935
pel 2934
sorts 2934
13th 2933
Ali@@ 2933
aka 2933
pulse 2933
Identification 2932
usable 2932
aquatic 2931
300,000 2930
LAC 2930
backing 2930
ket@@ 2930
trains 2930
Mah@@ 2929
expires 2929
FS 2928
Mechan@@ 2928
eminent 2928
matches 2928
cont@@ 2927
forefront 2927
fted 2927
Six 2926
berry 2926
Hill 2924
ICPD 2924
defensive 2923
vaccination 2923
Consultation 2922
KFOR 2922
didnt 2922
migratory 2922
projec@@ 2922
275 2921
Az@@ 2921
projection 2921
discharged 2920
featured 2920
Maj@@ 2919
Rapporteurs 2919
sporting 2919
219 2918
deliveries 2918
Four 2917
assa@@ 2917
endless 2917
Symposium 2916
conflicting 2916
enlargement 2915
posters 2915
warnings 2915
alloy 2914
textile 2914
4. 2913
bear@@ 2913
enhances 2913
founder 2913
princess 2913
sigh@@ 2913
és 2913
Census 2912
Ker@@ 2912
professionalism 2912
twin 2911
CU@@ 2910
irregularities 2910
anno@@ 2909
kings 2909
Anguilla 2908
faithful 2908
acceleration 2907
inations 2907
interrupted 2907
olu@@ 2907
Syn@@ 2906
365 2905
Khan 2905
origins 2905
shots 2905
ugly 2905
Governors 2904
Antarctic 2903
Magistr@@ 2903
16th 2902
masters 2902
programmed 2902
searches 2902
bum@@ 2901
cand@@ 2901
conferred 2901
deteriorated 2901
analyst 2900
electronically 2900
escorted 2900
reno@@ 2900
selec@@ 2900
sums 2900
termin@@ 2900
thats 2900
Claims 2899
Ts 2899
medication 2899
pin 2899
Abuja 2898
Bad@@ 2897
removals 2897
spon@@ 2897
trades 2897
champion 2896
dispos@@ 2896
283 2895
Abdel@@ 2895
Television 2895
fierce 2895
registers 2895
warranted 2895
Mess@@ 2894
query 2894
Particip@@ 2893
broadband 2893
gol@@ 2893
lun@@ 2893
precedence 2893
esa 2892
Guangzhou 2891
assertion 2891
night@@ 2891
ank 2889
ocy@@ 2889
slope 2888
throat 2888
fastest 2887
sb 2886
shield 2886
regionally 2885
replenishment 2885
Cayman 2884
Confederation 2884
acknowledgement 2884
chloro@@ 2884
landmark 2884
perpetu@@ 2884
breastfeeding 2883
eg 2883
lic 2883
underrepresented 2883
Computer 2882
intern@@ 2882
outlets 2882
Awards 2881
phot@@ 2881
scal@@ 2881
Mic@@ 2880
asing 2880
Mol@@ 2879
steal 2878
Improving 2877
Texas 2877
UR 2877
destined 2877
ose 2877
pound 2877
voiced 2877
chaos 2876
delimitation 2876
impediment 2876
dropping 2875
improper 2875
joke 2875
mercy 2875
plasma 2875
precursor 2875
gotta 2874
jacket 2874
objec@@ 2874
undermines 2874
woods 2873
prescription 2872
receipts 2872
detec@@ 2871
garbage 2871
af 2870
collateral 2870
supervised 2870
14th 2869
245 2869
Lou@@ 2869
Palais 2869
easing 2869
mus@@ 2869
ool 2869
Kyrgyz 2867
Technologies 2867
Wor@@ 2867
brokering 2867
sty@@ 2867
heed 2866
Drafting 2865
Mountain 2865
Will 2865
footnote 2865
rejects 2865
weren 2865
09@@ 2864
Goma 2863
WH@@ 2863
bedroom 2863
grantor 2863
toilet 2863
289 2862
Tome 2861
designer 2861
88@@ 2860
costing 2860
dispatched 2860
multifaceted 2860
slowed 2860
Palace 2858
Strategies 2858
superiority 2858
Corp. 2857
particle 2857
smoothly 2857
Anti@@ 2856
Sp@@ 2856
lement 2856
mi 2856
seabed 2856
gas@@ 2854
iling 2854
chi 2853
ku@@ 2853
possessed 2853
Contractor 2852
democracies 2852
fel@@ 2852
peacemaking 2852
reactor 2852
Helena 2851
Lau@@ 2849
assemblies 2849
breakthrough 2849
controller 2849
ference 2849
gentleman 2849
gravely 2849
duplicate 2848
coping 2847
iter@@ 2847
transmit@@ 2847
knock 2846
osis 2846
resem@@ 2846
rope 2846
ues 2846
dian 2845
ite@@ 2845
POPs 2844
direc@@ 2844
taining 2844
2030 2843
45@@ 2841
Speci@@ 2841
ald 2841
rays 2841
yo 2841
Abdul@@ 2840
EF 2840
geography 2840
Slovak 2839
photograph 2839
script 2839
ure@@ 2839
Ahmad 2838
dispose 2838
drainage 2838
passports 2838
vegetation 2838
Coast 2837
Instrument 2837
Lev@@ 2837
kindness 2837
revol@@ 2837
rin@@ 2837
scopic 2837
bad@@ 2836
owe 2836
SPT 2835
Telecommunication 2835
mour@@ 2834
unhappy 2834
vicious 2834
Institu@@ 2833
cyber@@ 2833
DPI 2832
Settlement 2832
TNCs 2832
charging 2832
nearest 2832
persu@@ 2832
beef 2831
IF 2830
Material 2830
Xenophobia 2830
enduring 2830
entirety 2830
mation 2830
displays 2829
inscribed 2829
ologic 2829
regulates 2829
respondent 2829
ural 2829
1945 2828
membrane 2828
subregions 2828
TP@@ 2827
Tin 2827
Waste 2826
XX 2826
goodwill 2826
materiel 2826
Ari@@ 2825
BWC 2825
Belgian 2825
Tit@@ 2825
viewing 2825
Hassan 2824
ora 2824
sentiment 2824
terri@@ 2824
var@@ 2824
vation 2824
Mobile 2823
Taylor 2823
catalogue 2823
je 2823
subnational 2823
unilaterally 2823
ICA 2822
conduc@@ 2822
ij@@ 2822
sends 2822
ula 2822
weaker 2822
MENTS 2821
cla@@ 2821
discontinued 2821
Term 2820
rings 2820
Air@@ 2819
poetry 2819
1965 2818
Dom@@ 2818
Montserrat 2818
Ev@@ 2817
idal 2817
Athens 2816
Rou@@ 2816
advisable 2816
Wales 2815
authorizes 2814
less@@ 2814
modality 2814
repu@@ 2814
6.6 2813
dupl@@ 2813
streams 2813
Gre@@ 2812
lec@@ 2812
pend@@ 2812
ground@@ 2811
oa 2811
ree@@ 2811
LEG 2810
Meteorological 2810
Tun@@ 2810
categor@@ 2810
piano 2810
simul@@ 2810
throwing 2810
Sup@@ 2809
capac@@ 2809
yielded 2809
° 2808
resin 2807
Principe 2806
cep@@ 2806
commending 2806
phosph@@ 2806
Cases 2805
gene@@ 2805
overlapping 2805
pm 2805
XX@@ 2804
Disengagement 2803
antiretroviral 2803
spirits 2803
1701 2802
Sum@@ 2802
Yo@@ 2802
apping 2802
eries 2802
hetero@@ 2802
mechan@@ 2802
poppy 2802
techn@@ 2802
cost@@ 2801
styles 2801
tiz@@ 2801
25,000 2800
mild 2800
Mak@@ 2799
los 2799
mercenary 2799
mess 2799
vity 2799
FDLR 2798
WP 2798
Materials 2797
abandonment 2797
loop 2797
withdrawing 2797
Andean 2796
photograph@@ 2796
proportional 2795
slowing 2795
solvent 2795
avenues 2794
merchandise 2794
Hun@@ 2793
Angeles 2792
controversy 2792
maximizing 2792
Card 2791
Religious 2791
amb@@ 2791
futures 2791
itch@@ 2791
sit@@ 2791
Freedoms 2789
Bah@@ 2788
fraudulent 2788
modeling 2788
pig 2788
Chung 2787
Fellowship 2787
backward 2787
biomass 2787
commendable 2786
master@@ 2786
midnight 2786
yi 2786
Rap@@ 2785
asym@@ 2785
det@@ 2785
intr@@ 2785
proving 2785
Ky@@ 2784
universalization 2784
alk@@ 2783
itude 2783
neg@@ 2783
DF 2782
assistants 2782
bowl 2782
cab@@ 2782
popularity 2782
shook 2782
expan@@ 2781
Geographical 2780
blessed 2780
kov 2780
preconditions 2780
arguing 2779
hn@@ 2779
opt 2779
stopping 2778
wrong@@ 2778
temp@@ 2777
1,9@@ 2776
Wen 2776
clever 2776
tou@@ 2776
unequivocal 2776
MIC@@ 2775
nitrogen 2775
numbered 2775
paper@@ 2775
premise 2775
refine 2775
89@@ 2774
Florida 2774
INF@@ 2774
Pierre 2774
mist 2773
Bol@@ 2772
Moon 2772
ON@@ 2772
ball@@ 2772
stepping 2772
kid@@ 2771
ox 2771
aston@@ 2770
citing 2770
Eight 2769
ICTY 2768
disagreement 2768
genuinely 2768
PM@@ 2767
Rev.@@ 2767
embry@@ 2767
6.7 2766
Algerian 2766
Analy@@ 2766
expedi@@ 2766
recurring 2766
requisi@@ 2766
warrants 2766
SME 2765
horizon 2765
riding 2765
efficiencies 2764
elite 2764
imper@@ 2764
otic 2764
punitive 2764
bicycle 2763
cents 2763
charitable 2763
china 2763
famine 2763
Loc@@ 2762
Po 2762
bids 2762
CRP.1 2761
blank 2761
performs 2761
smiled 2761
Windows 2760
zo 2760
280 2759
Century 2758
Drought 2758
tha 2758
Chan@@ 2757
Marriage 2757
institutionalized 2757
pati@@ 2757
259 2756
assass@@ 2756
desktop 2756
level@@ 2756
originated 2756
paren@@ 2756
reporter 2756
uring 2756
288 2754
organ@@ 2754
counterpart 2753
001 2752
Ken@@ 2752
Ten@@ 2752
flee 2752
prescri@@ 2752
Yearbook 2751
adul@@ 2751
custom@@ 2751
tric 2751
tually 2751
videos 2751
Diplomatic 2750
Evidence 2750
IOC 2750
aesthetic 2750
need@@ 2750
AV@@ 2749
electr@@ 2749
Naz@@ 2748
compan@@ 2748
hostility 2748
laun@@ 2748
paramilitary 2748
rever@@ 2748
unite 2748
Paragraph 2747
priv@@ 2747
valu@@ 2747
360 2746
4.9 2746
Responsibility 2746
modelling 2746
ual 2746
waiver 2746
249 2745
Nation 2745
authoritative 2745
emo@@ 2745
fast@@ 2745
Leon@@ 2744
explanatory 2744
Method 2743
Bob 2742
Handbook 2742
akers 2742
assembled 2742
belonged 2742
furnished 2742
risky 2742
Cra@@ 2741
sid@@ 2741
tionally 2741
296 2740
handsome 2740
thri@@ 2740
Reg@@ 2739
gie 2739
Sarajevo 2738
drives 2738
lab 2738
modal 2738
siveness 2738
troop- 2738
54@@ 2737
understandings 2737
Suc@@ 2736
medal 2736
1514 2735
Provincial 2735
postpone 2735
small@@ 2735
pole 2734
Steve 2733
cheese 2733
powered 2733
trans 2733
forging 2732
happily 2732
notices 2731
Baltic 2730
overnight 2730
quanti@@ 2730
reti@@ 2730
zation 2730
discretionary 2729
lit 2729
positioned 2729
Cho@@ 2728
Mutual 2728
Plant 2728
depletion 2728
eh 2728
inland 2728
protections 2728
ECOSOC 2727
bare 2727
Hussein 2726
deton@@ 2726
manpower 2726
side@@ 2726
Es@@ 2725
disappear 2725
oun 2725
usting 2725
---@@ 2724
impasse 2724
rah 2724
Enhancing 2723
ion@@ 2723
memorial 2723
66@@ 2722
NAM 2722
eman 2722
ili@@ 2722
trick 2721
Majesty 2720
logistic 2720
nowhere 2720
DEVELOPMENT 2719
Eli@@ 2719
plug 2719
Consolidated 2718
Gener@@ 2718
Goldman 2718
Tunis 2718
reb@@ 2718
umber 2718
Equ@@ 2717
PIC 2717
Such 2717
shaft 2717
M.@@ 2716
Tan@@ 2716
adop@@ 2715
declines 2715
eable 2715
ratifications 2714
shower 2714
Supervision 2713
conve@@ 2713
9,000 2712
chlor@@ 2712
ock 2712
Ensuring 2711
anthropogenic 2711
evalu@@ 2711
bilingual 2710
dus 2710
suring 2710
TIVE 2708
marke@@ 2708
DAC 2707
contempt 2706
depreciation 2706
disbursements 2706
uri@@ 2706
1,7@@ 2705
Decisions 2705
commemorate 2705
diminish 2705
nes@@ 2705
presumed 2705
retaliation 2705
shine 2705
Algiers 2704
Bat@@ 2704
casual 2704
ials 2704
identities 2704
1,4@@ 2703
Louis 2703
bridging 2703
clay 2703
Add.4 2702
Muhammad 2702
adhered 2701
raped 2701
swiftly 2701
toys 2701
Mul@@ 2700
Water@@ 2700
glob@@ 2700
sodium 2700
ame@@ 2699
ascertained 2699
moisture 2699
elegant 2698
una 2698
Democrats 2697
assert 2697
eping 2697
Elections 2696
advertisements 2696
tribes 2696
unwilling 2695
cian 2694
dom@@ 2694
lows 2694
mined 2694
stric@@ 2694
zy 2694
Pot@@ 2693
mono@@ 2693
discharging 2692
ida 2692
innocence 2692
Firearms 2691
Geo@@ 2691
buil@@ 2691
manifestation 2691
matic 2691
weakening 2691
Vision 2690
consume 2690
drawdown 2690
mes@@ 2690
.A 2689
biased 2689
slept 2689
acious 2688
fatal 2688
subsidized 2688
ambiguous 2687
forged 2687
pink 2687
stops 2687
telecommunication 2687
PFOS 2686
maxim@@ 2686
trapped 2686
cia 2685
contraception 2685
door@@ 2685
indefinite 2684
Primary 2683
checklist 2683
onset 2683
EF@@ 2682
chro@@ 2682
esteem 2682
lord 2682
htm 2681
revitalize 2681
Hazardous 2680
races 2680
stam@@ 2680
character@@ 2679
expose 2679
soccer 2679
256 2678
5.7 2678
asbestos 2678
friend@@ 2676
impacted 2675
practise 2675
bet@@ 2674
domination 2674
relay 2674
Reference 2673
defect 2673
diverted 2673
indoor 2672
aids 2671
ope 2671
oting 2671
pain@@ 2671
washed 2671
ylene 2671
ation.@@ 2670
stly 2670
1962 2669
deletion 2669
spac@@ 2669
flav@@ 2668
smiling 2667
ary@@ 2666
Class 2665
Yu 2665
chiefs 2665
eman@@ 2665
sediment 2665
supervisors 2665
torn 2665
239 2664
batteries 2664
mac@@ 2664
trusts 2664
ample 2663
229 2662
Luis 2662
Vol 2662
avert 2662
country@@ 2662
backdrop 2661
Africans 2660
Ibrahim 2660
Tha@@ 2660
amine 2660
ender 2660
power@@ 2660
proportions 2660
scenes 2660
intensifying 2659
Names 2658
TT 2658
implicit 2658
tably 2658
tiles 2658
Annexes 2657
discer@@ 2657
orate 2657
polymetallic 2657
alteration 2656
jiang 2655
Horn 2654
Tre@@ 2654
ami 2654
mentoring 2654
sth 2654
utter 2654
Mes@@ 2653
Paulo 2653
Senator 2653
plas@@ 2653
tern 2653
thickness 2653
ym@@ 2653
DP@@ 2651
Dr@@ 2651
baggage 2651
endo@@ 2651
obstetric 2650
cere@@ 2649
individu@@ 2649
outward 2649
winners 2648
262 2647
Reser@@ 2647
SECURITY 2647
Shel@@ 2646
Telecommunications 2646
mask 2646
presidents 2646
memorandums 2645
oni@@ 2645
ories 2645
prospecting 2645
terrestrial 2645
316 2644
Antonio 2644
practised 2644
refuses 2644
vain 2644
Inv@@ 2643
diameter 2643
instruc@@ 2643
inte@@ 2643
scared 2643
Abkhaz 2642
addiction 2642
axis 2642
occasional 2642
Schools 2641
Teaching 2641
convincing 2641
grandfather 2641
mod@@ 2641
tops 2641
BS 2640
OCHA 2640
Wi@@ 2640
prevailed 2640
201@@ 2639
79@@ 2639
iss 2639
lodge 2639
udes 2639
vi 2639
Agencies 2638
Andre@@ 2638
cultivated 2638
indices 2638
uation 2638
Populations 2637
assassination 2637
sue 2637
vers@@ 2637
boring 2636
eighteen 2636
DM 2635
EEC 2635
Exploration 2635
Facilities 2635
Macau 2635
Objectives 2635
depressed 2635
reck@@ 2635
Juba 2634
dressing 2634
impro@@ 2634
Ford 2633
burg 2633
calcul@@ 2633
corrosion 2633
nam@@ 2633
compiling 2632
differentiation 2632
friction 2632
hotline 2632
pig@@ 2632
ENT 2630
textiles 2630
comman@@ 2629
defences 2629
tia 2629
Helen 2628
opa@@ 2628
PF 2627
judgments 2627
liz@@ 2627
thi@@ 2627
Comple@@ 2626
Roc@@ 2626
decrees 2626
obesity 2626
olution 2626
wolf 2626
Caicos 2625
Tony 2624
Victoria 2624
Zh@@ 2623
collections 2623
cross@@ 2623
FIC@@ 2622
Twelfth 2622
castle 2622
destabilizing 2622
ired 2622
Import 2621
omin@@ 2621
ello 2620
fications 2620
ordering 2620
263 2619
nonlinear 2619
overflew 2619
tours 2619
292 2618
far@@ 2618
CI@@ 2617
obl@@ 2617
pools 2617
rewards 2617
snow@@ 2617
Digital 2616
gies 2616
invisible 2616
sells 2615
suffers 2615
chers 2614
devil 2614
272 2613
fet@@ 2613
met@@ 2612
researches 2612
ough 2611
7.3 2610
De 2610
Me 2610
elders 2610
unjust 2610
arly 2609
dia 2609
ero 2609
shop@@ 2609
Dominica 2608
RMB 2608
affiliation 2608
atism 2608
disbursement 2608
pho@@ 2608
quad@@ 2608
technicians 2608
brow@@ 2607
compliments 2607
tland 2607
classi@@ 2606
insights 2606
lot@@ 2606
sensors 2606
Ethnic 2605
TP 2605
Temporary 2605
locks 2605
spin 2605
23,@@ 2604
Migrants 2604
call@@ 2604
fitness 2604
prepares 2604
98@@ 2603
Mari@@ 2603
tization 2603
Relationship 2602
catering 2602
testify 2602
285 2601
harness 2600
arily 2599
imposes 2599
4.30 2598
commencing 2598
zi@@ 2598
elle 2597
paintings 2597
2000@@ 2596
Councils 2596
deaf 2596
deformation 2596
detriment 2596
erate 2596
3.9 2595
bra 2595
quake 2595
Nation@@ 2594
Ping 2594
detainee 2594
plain@@ 2594
GB@@ 2593
enger 2593
specifying 2593
viol@@ 2593
CR 2592
Greenland 2592
Tol@@ 2592
password 2592
dium 2591
scholarship 2591
stic@@ 2591
temper@@ 2591
atized 2590
flour 2590
Albert 2589
Bab@@ 2589
Interpol 2589
jar 2589
ratings 2589
Certification 2588
Kin@@ 2588
inferior 2588
tian 2588
contemplated 2587
gly@@ 2587
migr@@ 2587
width 2587
.It 2586
Pollutants 2586
secrecy 2586
GNP 2585
glance 2585
intimate 2585
305 2584
provisionally 2584
asc@@ 2583
influx 2583
screw 2583
serial 2583
permissible 2582
suff@@ 2582
tactical 2582
aluminum 2581
XVII 2580
bonus 2580
creatures 2580
shor@@ 2580
than@@ 2580
5.8 2579
intangible 2579
Star@@ 2578
Stephen 2578
conserv@@ 2578
gates 2578
possesses 2578
recti@@ 2578
Clin@@ 2577
sink 2577
sionary 2577
HD 2576
Shelf 2576
calcium 2576
inven@@ 2576
Jordanian 2575
selectivity 2575
stum@@ 2575
Barcelona 2574
Single 2574
shortfalls 2574
Secretaries 2573
UND@@ 2573
anx@@ 2573
correctional 2573
essay 2573
gotten 2573
illnesses 2573
reli@@ 2573
dwellers 2572
snake 2572
EU@@ 2571
Federated 2571
grief 2571
realm 2571
Edward 2570
L.3 2570
OPCW 2570
macro@@ 2570
1,5@@ 2569
FM 2569
Sw@@ 2569
analy@@ 2569
oid 2569
xation 2569
Amman 2568
ICAL 2568
gauge 2568
bot@@ 2567
lean 2567
ffed 2566
Database 2564
HRI 2564
Stocks 2564
dull 2564
eous 2564
peasant 2564
1946 2563
AB 2563
bullet 2563
blade 2562
clean@@ 2562
fake 2562
healing 2562
orous 2562
relaxed 2562
repository 2562
Big 2561
anni@@ 2561
knocked 2561
FPA 2560
translating 2559
Arbitrary 2558
delicious 2557
experi@@ 2557
usti@@ 2557
culmin@@ 2556
endure 2556
wid@@ 2556
Art. 2555
icable 2555
incorrect 2555
mist@@ 2555
nes 2555
bury 2554
coding 2554
justi@@ 2554
ails 2553
concurrently 2553
sunshine 2553
Alma 2552
batch 2552
doub@@ 2552
honesty 2552
html 2552
key@@ 2552
tious 2552
Consider 2551
grandmother 2551
reforestation 2551
22,@@ 2550
educating 2550
resilient 2550
topo@@ 2550
V.@@ 2549
countless 2549
hes@@ 2549
Vic@@ 2548
mas 2548
recruits 2548
stor 2548
No.@@ 2547
Pic@@ 2547
Rs 2547
Schedule 2547
ares 2547
boyfriend 2547
cave 2547
neighbor 2547
searched 2547
thood 2547
Econom@@ 2546
Juan 2546
Star 2546
closures 2545
loyal 2545
motives 2545
jurisdictional 2544
manipulation 2544
sleep@@ 2544
dining 2543
summarize 2543
08@@ 2542
Kashmir 2542
WP@@ 2542
bless 2542
cultivate 2542
drow@@ 2542
Stat@@ 2541
Tam@@ 2541
donated 2541
duce 2541
poet 2541
Then 2540
dried 2540
fined 2540
muscles 2540
organizers 2540
uma 2540
Date 2539
beans 2539
depos@@ 2539
lob@@ 2539
probe 2539
thetic 2539
Chairpersons 2538
Ric@@ 2538
mystery 2538
10.30 2537
O. 2537
UNOSOM 2537
tough@@ 2537
austerity 2536
entailed 2536
omission 2536
• 2536
6.8 2535
Because 2535
Benjamin 2535
Cooperative 2535
SNA 2535
dependants 2535
ink@@ 2535
Vietnamese 2534
enforceable 2534
humane 2534
miners 2534
pered 2534
unsatisfactory 2534
23.@@ 2533
did@@ 2533
INTERNATIONAL 2532
Make 2532
deterrent 2532
crown 2531
rest@@ 2531
standpoint 2531
directing 2530
inclined 2530
seemingly 2530
COM 2529
SG 2529
bienniums 2529
rod 2529
Transition 2528
butter 2528
leakage 2528
Forestry 2527
creature 2527
enclosure 2527
underway 2527
Arrangements 2526
Kigali 2526
MAL 2526
Yuan 2526
envisages 2526
nut 2526
warn 2526
criminalized 2525
lens 2525
retirees 2525
WA 2524
endemic 2524
Lima 2523
compensated 2523
Host 2522
aw 2522
march 2522
ull 2522
21.@@ 2521
History 2521
Main@@ 2521
plum@@ 2521
tum 2521
Wong 2520
abnormal 2520
juncture 2520
sunlight 2520
Ok@@ 2519
SB 2519
breathe 2519
cence 2519
EG@@ 2518
arch 2518
nominate 2518
UT@@ 2517
author@@ 2517
collapsed 2516
funeral 2516
thir@@ 2516
Innovation 2515
Towards 2515
WORK 2514
servic@@ 2514
Request 2513
Tro@@ 2513
lenders 2513
Len@@ 2512
corridor 2512
Collection 2511
Societies 2511
embark 2511
Had@@ 2510
Hil@@ 2510
murdered 2510
shit 2510
trainees 2510
Guidance 2509
Punish 2509
common@@ 2509
purview 2509
widows 2509
ador@@ 2508
lan 2508
yn 2508
para@@ 2507
CRPD 2505
Proposed 2505
mini 2505
open@@ 2505
Offenders 2504
cycl@@ 2504
longest 2504
petitioners 2504
subsection 2504
Persistent 2503
gical 2503
criminality 2502
SB@@ 2500
columns 2500
involuntary 2500
vag@@ 2500
Shabaab 2499
Village 2498
unlimited 2498
Before 2497
SAICM 2497
lou@@ 2497
spray 2497
Nile 2495
ODP 2495
unification 2495
HO@@ 2494
nings 2494
after@@ 2493
maj@@ 2493
pulling 2493
adjudic@@ 2492
bans 2492
stun@@ 2492
weaken 2492
Delivering 2491
FP 2491
authentic 2491
symbol@@ 2491
Gro@@ 2490
More 2490
Pearl 2490
publicize 2490
1954 2489
life@@ 2489
referen@@ 2489
tz 2489
backup 2488
bic@@ 2488
crow@@ 2488
intensification 2488
wholesale 2488
Eleventh 2487
fi 2487
fraction 2486
orph@@ 2486
energies 2485
outdated 2484
accords 2483
oh 2483
substantiate 2483
27,@@ 2482
bal 2482
palace 2482
tina 2482
favourably 2480
has@@ 2480
inspire 2480
poli@@ 2480
CSCE 2479
Christians 2479
exhibitions 2479
functionality 2479
ité 2479
jo 2479
vered 2479
aud@@ 2478
cit@@ 2478
incre@@ 2478
reciprocal 2478
100@@ 2477
ik@@ 2477
acked 2474
decor@@ 2474
Avenue 2473
LL 2473
Managing 2473
compromised 2473
teenagers 2473
Abdullah 2472
fem@@ 2472
heated 2472
interlocutors 2472
luggage 2472
vor@@ 2472
Offences 2471
incommunicado 2471
olds 2471
shy 2471
367 2470
induce 2470
304 2469
Mass 2469
colored 2469
earthquakes 2469
shu@@ 2469
Claimant 2468
haz@@ 2468
institutionalization 2468
tre 2468
golf 2467
otherapy 2467
290 2466
OS@@ 2466
achment 2466
drafts 2465
gasoline 2465
indul@@ 2465
Kitts 2464
massacre 2464
requ@@ 2464
reluctance 2463
wanting 2463
rais@@ 2462
unwanted 2462
veness 2462
authorizing 2461
delighted 2461
plaintiff 2461
repatriated 2461
stran@@ 2461
Autom@@ 2460
concurred 2460
exempted 2460
geospatial 2460
force@@ 2459
tailor 2459
750 2458
uk@@ 2458
worries 2458
Rab@@ 2457
drift 2457
genous 2457
Kat@@ 2456
Substantive 2456
evi@@ 2456
rushed 2456
According 2455
catalo@@ 2455
enumerated 2455
fifty@@ 2455
orbital 2455
thief 2455
7.4 2454
CERs 2454
DIS@@ 2454
outdoor 2454
sics 2454
aim@@ 2453
bio 2453
cameras 2453
prejudices 2453
Nevis 2452
queen 2452
zinc 2452
decei@@ 2451
innov@@ 2451
surfaces 2451
287 2449
peers 2449
stand@@ 2448
timeline 2448
Improvement 2447
Resolutions 2447
UNISFA 2447
anism 2447
onian 2447
otes 2447
symbolic 2447
CF 2446
pitch 2446
blog 2445
modern@@ 2445
phasing 2445
ér@@ 2445
FR@@ 2444
NS@@ 2444
profiling 2444
impairment 2443
Bridge 2442
Railway 2442
isc@@ 2442
owns 2442
possessing 2442
stems 2442
strengthens 2442
weed 2442
CESCR 2441
deepest 2441
lon@@ 2441
267 2440
Type 2440
refin@@ 2440
25,@@ 2438
Angolan 2438
End 2438
Il@@ 2438
clandestine 2438
dal 2438
ld@@ 2438
ifying 2437
demonstrators 2436
ecology 2436
naked 2436
elastic 2435
teen 2435
worlds 2435
HF 2434
ME 2434
particulars 2434
talented 2433
Zaire 2432
dairy 2432
lately 2432
FIR 2431
furnace 2431
SGB 2430
ance@@ 2430
dialec@@ 2430
Fal@@ 2429
atically 2429
garage 2429
Achie@@ 2428
Biodiversity 2428
node 2428
architectural 2427
checkpoint 2427
din 2427
revert 2427
Hungarian 2426
Men@@ 2426
crossings 2426
depleted 2426
fon@@ 2426
ultra 2426
24.@@ 2425
Finnish 2425
formalities 2425
tionist 2425
BR@@ 2424
Pollution 2424
lash 2424
goo@@ 2423
stole 2423
useless 2423
validated 2423
ram 2422
sex@@ 2422
Kh@@ 2421
Navy 2421
kilometers 2421
nel 2421
registering 2421
tories 2421
lowered 2419
responsiveness 2419
Gates 2418
rant 2418
survived 2418
algorithms 2417
inefficient 2417
strife 2417
uan 2417
verdict 2417
.鈥 2416
Shan 2416
apples 2416
drying 2416
fibre 2416
fancy 2415
fiel@@ 2415
shocked 2415
swear 2415
tible 2415
425 2414
damn 2414
dation 2414
ican 2414
monial 2414
needy 2414
ranged 2414
286 2413
betra@@ 2413
recovering 2413
strides 2413
licenses 2412
obey 2412
Republicans 2411
alizes 2411
toral 2411
Prisoners 2410
ader 2410
annotated 2410
infr@@ 2410
laughing 2410
persists 2410
radiological 2410
statelessness 2410
cloning 2409
closest 2409
humor 2409
MAR@@ 2408
bru@@ 2408
infrared 2408
policemen 2408
seated 2408
Entebbe 2407
Fire 2407
Real 2407
conden@@ 2407
supervising 2407
wondering 2407
Cle@@ 2406
mainstreamed 2406
prohibitions 2406
mium 2405
protesters 2405
rene 2405
FOR@@ 2404
Nigerian 2404
Ontario 2404
Philippine 2404
envelope 2404
pluralism 2404
som 2404
Chin@@ 2403
Supporting 2403
Work@@ 2403
elder 2403
grouped 2403
natal 2403
cock@@ 2402
variances 2402
Hydro@@ 2401
erring 2401
pets 2401
Authorities 2400
MP@@ 2400
alties 2400
fitted 2400
steep 2400
Pristina 2399
aspiration 2399
exceptionally 2399
Xinjiang 2398
alarmed 2398
domestically 2398
jan 2398
odds 2398
idity 2397
ll@@ 2397
Little 2396
Ninth 2396
consortium 2396
fertilizer 2396
insti@@ 2396
well@@ 2396
Broadcasting 2395
comparisons 2395
overseeing 2395
class@@ 2394
000,000 2393
75@@ 2393
Abdul 2393
climbed 2393
isi@@ 2393
MERCOSUR 2392
Observers 2392
ree 2392
stic 2392
Non@@ 2391
handful 2391
hopefully 2391
invoice 2391
reuse 2391
escence 2390
exacerbate 2390
satisfying 2390
bie 2389
had@@ 2389
inch 2389
wool 2389
aned 2388
contraceptives 2388
cow 2388
debated 2388
eff@@ 2388
gods 2388
sanc@@ 2388
sky@@ 2388
Boo@@ 2387
Disappearances 2386
R.@@ 2386
vari@@ 2386
Virginia 2385
boosting 2385
gement 2385
implication 2385
spectro@@ 2385
absor@@ 2384
webcast 2384
wers 2384
11.30 2383
Conditions 2383
Havana 2383
Referendum 2383
ampl@@ 2383
blamed 2383
collision 2383
va@@ 2383
PH@@ 2382
ence@@ 2382
perfec@@ 2382
Background 2381
Resistance 2381
gratis 2381
lifelong 2381
oes 2381
remo@@ 2381
corresponds 2380
mens 2380
socialism 2380
span@@ 2380
281 2379
63@@ 2379
Madam 2379
ority 2379
ASSEMBL@@ 2378
arers 2378
rement 2378
24,@@ 2377
fragmented 2377
icated 2377
28,@@ 2376
Living 2376
Sarah 2376
Spirit 2376
aly 2375
lovers 2375
policeman 2375
verifying 2375
bench 2374
museums 2374
overlooked 2374
flown 2373
inhabited 2373
kh@@ 2373
laughed 2373
Kw@@ 2372
LD 2372
abolishment 2372
03@@ 2371
Pitcairn 2371
Rus@@ 2371
pas@@ 2370
professors 2370
ripe 2370
rotary 2370
Catherine 2369
UNA0@@ 2369
anit@@ 2369
auditor 2369
ousness 2369
Caucasus 2368
PB@@ 2368
quot@@ 2368
toy 2368
burnt 2367
mable 2367
morph@@ 2367
Respon@@ 2366
Simon 2366
construc@@ 2366
fixing 2366
frustr@@ 2366
hopeful 2366
tiger 2366
MYFF 2365
Milan 2365
desirability 2365
Aliens 2364
iles 2364
neighbour 2364
SESSION 2363
SPIDER 2363
broker 2363
curious 2363
dest 2363
learnt 2363
opponent 2363
sey 2363
subordin@@ 2363
vitality 2363
electron 2362
endosulfan 2362
kidney 2362
par 2362
repayment 2362
Suppress 2361
catastrophe 2361
Kampala 2360
aller@@ 2360
Gran@@ 2359
Ugandan 2359
ois 2359
lessness 2358
Key 2357
authentication 2357
blocking 2357
Vocational 2356
cervical 2356
disbursed 2356
facial 2356
pp. 2356
FROM 2355
polio 2355
prob@@ 2355
substitution 2355
attacking 2354
1244 2353
L.4 2353
appetite 2353
oppression 2353
richest 2353
unfounded 2353
visitor 2353
BDE 2352
Bak@@ 2352
respec@@ 2352
unused 2352
vig@@ 2352
2004@@ 2351
Nur@@ 2351
oce@@ 2351
Banking 2350
Program@@ 2350
,@@ 2349
DC@@ 2349
Especially 2349
aus@@ 2349
mixing 2349
pirates 2349
tabl@@ 2349
Indicators 2348
esome 2347
excitement 2347
quote 2347
wrapped 2347
Jacob 2346
aliz@@ 2346
backstopping 2346
compu@@ 2346
globalized 2346
shr@@ 2346
ting@@ 2346
tireless 2346
1,6@@ 2345
cruise 2345
graphics 2345
alleviating 2344
climbing 2344
ght 2344
Stan@@ 2343
sar@@ 2343
unpredictable 2343
Secondary 2342
Week 2342
XL@@ 2342
Ya@@ 2342
defeated 2342
delight 2342
8.1 2341
Associated 2341
cables 2341
misery 2341
Represents 2340
chol@@ 2340
ond 2340
retire 2340
switching 2340
CCA 2339
Cook 2339
SL@@ 2339
WG 2339
refining 2339
touching 2339
Revised 2338
flag@@ 2338
mechanics 2338
nar@@ 2338
cling 2337
icating 2337
victimization 2337
Lin 2336
PO 2336
alternatively 2336
hall@@ 2336
nest 2336
CFC 2335
Exam@@ 2335
FM@@ 2335
Mediation 2335
bathroom 2335
broadcasts 2335
Restrictions 2334
loyalty 2334
mem@@ 2334
30,@@ 2333
confession 2333
polis 2333
dirt 2332
hn 2332
infantry 2332
nuts 2332
sinks 2332
unrestricted 2332
Alan 2331
afforestation 2331
min 2331
oy@@ 2331
sal 2331
uniformed 2331
Tong 2330
additions 2330
attraction 2328
Dubai 2327
IONAL 2327
enrich 2327
fix@@ 2327
remark 2327
ML@@ 2326
ake 2326
bother 2326
demolition 2326
exhibits 2326
fluor@@ 2326
RE 2325
XIX 2325
chat 2325
climatic 2325
combines 2325
BL@@ 2324
Valentine 2324
cyclical 2324
judic@@ 2324
Square 2323
pros@@ 2323
torch 2323
Monrovia 2322
pervasive 2322
proportionate 2322
rist@@ 2322
subsidi@@ 2321
PLC 2320
Partners 2320
may@@ 2320
proxy 2320
sam@@ 2320
Hai@@ 2319
Up@@ 2318
ession 2318
268 2317
accum@@ 2317
iter 2317
spiral 2316
HCH 2315
physician 2315
Map 2314
ane@@ 2314
blan@@ 2314
computerized 2314
diagnosed 2314
plat@@ 2314
therap@@ 2314
Amnesty 2313
demobilized 2313
franch@@ 2313
č@@ 2313
Civilizations 2312
POL@@ 2312
ander 2312
cad@@ 2312
gling 2312
NASA 2311
Ol@@ 2311
VA 2311
dig 2311
organizes 2311
continents 2310
pts 2310
synthe@@ 2310
Opinion 2309
acle 2309
catastrophic 2309
icle 2309
isting 2309
2050 2308
Alexander 2308
change@@ 2308
extracted 2308
26,@@ 2307
Jin@@ 2307
anticipate 2307
existent 2307
generates 2307
psycho@@ 2307
Debt 2306
airlines 2306
sensible 2306
wling 2306
compens@@ 2305
kins 2305
mun@@ 2305
wasted 2305
· 2305
irrelevant 2304
omy 2304
operationalization 2304
picking 2304
prototype 2304
tale 2304
widen 2304
NA 2303
aquifers 2303
chop@@ 2303
guardians 2303
keynote 2303
mit 2303
Clo@@ 2302
IDA 2302
regain 2302
Cambridge 2301
pockets 2301
soap 2301
susceptible 2301
Hollywood 2300
AI@@ 2299
DD 2299
ored 2299
index.@@ 2298
tenders 2298
Inalienable 2297
OF@@ 2297
UNAMIR 2297
dissolved 2297
jum@@ 2297
Mid 2296
flexi@@ 2296
Ceasefire 2295
inconsistencies 2295
polymer 2295
scor@@ 2295
watch@@ 2295
GPS 2294
Grand@@ 2294
pardon 2294
weak@@ 2294
Ec@@ 2293
Mahmoud 2293
bye 2293
kan 2293
Mohammad 2292
Pil@@ 2292
brick 2292
cellular 2292
deter@@ 2292
onia 2292
reciprocity 2292
Regi@@ 2291
WITH 2291
aunt 2291
consensual 2291
erous 2291
fts 2291
Address 2290
divorced 2290
edly 2290
inhi@@ 2290
motive 2290
scop@@ 2290
Bac@@ 2289
MEET@@ 2289
intermediary 2289
nul@@ 2289
agon 2288
interpreter 2288
needle 2288
paste 2288
UNCT 2287
eship 2287
junction 2287
obstruc@@ 2287
Add.5 2286
UNISPACE 2286
desires 2286
ming@@ 2286
ERW 2285
XXI 2285
adventure 2285
tolerate 2285
tra 2285
bac@@ 2284
cats 2284
gentlemen 2284
neighborhood 2284
unutilized 2284
Kra@@ 2283
lap@@ 2283
dispen@@ 2282
Kon@@ 2281
Sydney 2281
VEN@@ 2281
ambitions 2281
lateral 2281
appliances 2280
pick@@ 2279
Electr@@ 2278
ington 2278
McCain 2277
Sami 2277
finger@@ 2277
king@@ 2277
math 2277
Girls 2276
poem 2276
referenced 2276
finishing 2275
grounded 2275
proportionality 2275
Van 2274
harbour 2274
BiH 2273
contradictory 2273
tians 2273
adjour@@ 2272
desi@@ 2272
disrupt 2272
manifested 2272
poisoning 2272
Burundian 2271
Corps 2271
Dangerous 2271
Mam@@ 2271
acker 2271
aluminium 2271
specialization 2271
vibrant 2271
ITY 2269
Taking 2269
dings 2269
importation 2269
troubles 2269
resolutely 2268
shade 2268
aking 2267
codi@@ 2267
designers 2267
faction 2267
plur@@ 2267
sensitize 2267
stop@@ 2267
Chang@@ 2266
Stock 2266
dict@@ 2266
extingu@@ 2266
imperi@@ 2266
measles 2266
rains 2266
sph@@ 2266
ston 2266
sweat 2266
tightly 2266
vocabulary 2266
Rol@@ 2265
crip@@ 2265
interpreting 2265
racing 2265
transporting 2265
320 2264
NC@@ 2264
mond 2264
spontaneous 2264
sten 2264
stir@@ 2264
Andrew 2263
Frank 2263
HCFC 2263
brokers 2263
cocoa 2263
deck 2263
equations 2263
some@@ 2263
Institution 2262
SPLA 2262
arming 2262
Publications 2261
centi@@ 2261
Industries 2260
Kiribati 2260
borrowed 2260
fronts 2260
iri@@ 2260
venues 2260
generously 2259
spill 2259
synchron@@ 2259
ateau 2258
illustration 2258
indivisible 2258
sits 2258
Officials 2257
achievable 2257
Kaz@@ 2256
ROM 2256
az 2256
temper 2256
uniforms 2256
Mars 2255
milestones 2255
Ny@@ 2254
avian 2254
eternal 2254
torate 2254
Contin@@ 2253
Dad 2253
Ah@@ 2252
Conclusions 2252
earnest 2252
unti@@ 2252
disturbance 2251
electromagnetic 2251
descen@@ 2249
grammar 2249
maid 2249
ao@@ 2248
palm 2248
procured 2248
rab@@ 2248
xenophobic 2248
22.@@ 2247
ignoring 2247
representations 2247
slic@@ 2247
thful 2247
Over@@ 2246
centrally 2246
cliff 2246
interruption 2245
lane 2245
region@@ 2245
sures 2245
2018 2244
Gl@@ 2244
Insolvency 2244
equip 2244
grams 2244
nie 2244
surprisingly 2244
Harmonized 2243
atin 2243
cooked 2243
drill 2243
emperor 2243
repl@@ 2243
Europeans 2241
GH@@ 2241
IGAD 2241
deriving 2241
attribution 2240
diagram 2240
solicitation 2240
Adam 2239
breeze 2239
confron@@ 2239
construed 2239
Concerning 2238
behave 2238
contention 2238
dominate 2238
spective 2238
Gas 2237
fish@@ 2237
stalemate 2237
standby 2237
hook 2236
speeds 2236
uded 2236
whe@@ 2236
Dha@@ 2235
anic 2235
cadres 2235
65@@ 2234
Mac 2234
Most 2234
channelled 2234
stationed 2234
Ituri 2233
∙ 2233
brains 2232
embassy 2232
isa 2232
stabilizing 2232
Oxford 2231
divi@@ 2231
Vil@@ 2230
akes 2230
behaviors 2230
compassion 2229
domains 2229
279 2228
Aug@@ 2228
prefec@@ 2228
researched 2228
tened 2228
22nd 2227
Bec@@ 2227
KO@@ 2227
competitions 2227
confessions 2227
essed 2227
subtle 2227
Sect 2226
compression 2226
fif@@ 2226
gli@@ 2226
writes 2226
assimil@@ 2225
repe@@ 2225
Ouagadougou 2224
aboard 2224
detentions 2223
23rd 2222
Buildings 2222
Cou@@ 2222
ood 2222
CRP@@ 2221
Yan@@ 2221
ction 2221
Ty@@ 2220
cigarettes 2220
fellowships 2220
istics 2220
Covenants 2219
Jakarta 2219
LL@@ 2219
comparability 2219
comparatively 2219
presided 2219
trail 2219
poured 2218
stagn@@ 2218
Š@@ 2218
1960s 2217
Implementing 2217
Puntland 2217
bis@@ 2217
medic@@ 2217
xi@@ 2217
29,@@ 2216
5.9 2216
AGENDA 2216
URE 2216
portions 2216
sins 2216
CGE 2215
appealing 2215
foolish 2215
misleading 2215
ste 2215
understandable 2215
Students 2214
fu 2214
heal 2214
launches 2214
shaking 2214
vine 2214
Appro@@ 2213
Cat@@ 2213
Not@@ 2213
exporter 2213
pigs 2213
tural 2213
looting 2212
rally 2212
resigned 2212
HO 2211
Kafr 2211
Transportation 2211
Yi 2211
alien@@ 2211
ime 2211
Id 2210
Distribution 2209
Fel@@ 2209
JI 2209
PARTIES 2209
Pay@@ 2209
evidentiary 2209
fostered 2209
pie 2209
&apos;S 2208
25th 2208
PRC 2208
Spokes@@ 2208
devising 2208
dietary 2208
indefinitely 2208
iz 2208
overly 2208
respectful 2208
ament 2207
ati 2207
deadlock 2207
917 2206
Ul@@ 2206
balls 2206
invented 2206
parad@@ 2206
disappointing 2205
doctrines 2205
ailing 2204
compel 2204
corpus 2204
insects 2204
N.@@ 2203
destinations 2203
disastrous 2203
engages 2203
median 2203
parti@@ 2203
worm 2203
PS@@ 2202
Specific 2202
alty 2202
dropout 2202
quet 2202
aa 2201
obstruction 2201
ove 2201
penetrated 2201
floors 2200
frigh@@ 2200
genius 2200
inning 2200
Layer 2199
allot@@ 2199
ask@@ 2199
supervisor 2199
timelines 2199
Balkans 2197
ERS 2197
companion 2197
orus 2197
plastics 2197
dable 2196
Cell 2195
Ho 2195
blowing 2195
icon 2195
interconnected 2195
retri@@ 2195
GNSS 2194
ria 2194
277 2193
ghost 2193
literally 2193
quantum 2193
prenatal 2192
stigmatization 2192
2006@@ 2191
DDT 2191
Kennedy 2191
accidental 2191
corridors 2191
tenants 2191
Encourage 2190
dealers 2190
dled 2190
informative 2190
ldnt 2190
scaled 2190
shallow 2190
uro@@ 2190
vap@@ 2190
bian 2189
stipulate 2189
vigilance 2189
GA@@ 2188
Qi@@ 2188
cylinder 2188
objected 2188
Buddhist 2187
Plans 2187
07@@ 2186
274 2186
ache 2186
dys@@ 2186
second@@ 2186
Citizenship 2185
Judah 2185
effec@@ 2185
hed 2185
inver@@ 2185
onwards 2185
FE@@ 2183
businessmen 2183
cements 2183
cousin 2183
pou@@ 2183
Juvenile 2182
dynam@@ 2182
habitat 2182
pave 2182
330 2181
UNSMI@@ 2181
fron@@ 2181
grievances 2181
slan@@ 2181
Dalai 2180
John@@ 2180
anticipation 2180
blanket 2180
contr@@ 2180
sac@@ 2180
swept 2180
Isa@@ 2179
Rican 2179
bleeding 2179
bour@@ 2179
catching 2179
mysterious 2179
295 2178
Zi@@ 2178
disagree 2178
emin@@ 2178
prerequisites 2178
Jackson 2177
apologize 2177
duck 2177
evapor@@ 2177
grab 2177
lor 2177
303 2176
Hab@@ 2176
aggravating 2176
criminalizing 2176
expiring 2176
hast 2176
rivals 2176
unregulated 2176
wicked 2176
iti 2175
tren@@ 2175
8.2 2174
Core 2174
Seventh 2174
cau@@ 2174
rainy 2174
tackled 2174
Tem@@ 2173
Tex@@ 2173
aled 2173
extractive 2173
foam 2173
newborn 2173
siege 2173
Bible 2172
UF@@ 2172
bolster 2172
bou@@ 2172
outbreaks 2172
protectionism 2172
reimbursements 2172
273 2171
Slavery 2171
Zhou 2171
curbing 2171
enquired 2171
estive 2171
kis@@ 2171
scandal 2171
ingredient 2170
liaise 2170
nur@@ 2170
rested 2170
Phy@@ 2169
charm 2169
demo@@ 2169
favourite 2169
hij@@ 2169
restorative 2169
Nan@@ 2167
answering 2167
dispersed 2167
Codification 2166
Crown 2166
onau@@ 2166
Cab@@ 2165
secu@@ 2165
stan 2165
Points 2164
Price 2164
acity 2164
geopolitical 2164
lightning 2164
loses 2164
roller 2164
vely 2164
Unlawful 2163
blew 2163
encro@@ 2163
RBM 2162
clan 2162
intrinsic 2162
reversal 2162
tational 2162
Ful@@ 2161
Limits 2161
Residual 2161
deported 2161
ka@@ 2161
modifying 2161
smallest 2161
Champ@@ 2160
Maz@@ 2160
proc@@ 2160
reimbursed 2160
EL 2159
GNI 2159
Transboundary 2159
arer 2159
inges 2159
liness 2159
releasing 2159
Canal 2158
Sino 2158
operation@@ 2158
rad@@ 2158
deliberation 2157
kl@@ 2157
uplo@@ 2157
Collective 2156
Memorial 2156
ante 2156
bamboo 2156
governorates 2156
industri@@ 2156
Investments 2155
ana@@ 2155
deli@@ 2155
markedly 2155
medium- 2155
2008@@ 2154
6.9 2154
Cheung 2154
actress 2154
Cant@@ 2153
TN@@ 2153
XVIII 2153
entrust 2153
weighted 2153
Bom@@ 2152
Sat@@ 2152
admire 2152
carpet 2152
dan 2152
esh 2152
joy@@ 2152
pensionable 2152
282 2151
hen 2151
shapes 2151
1955 2150
Fur@@ 2150
Just 2150
abusive 2150
ange 2150
poin@@ 2150
sman 2150
lobby 2149
silly 2149
ught 2149
yu@@ 2149
computation 2148
enlarged 2148
mortgages 2148
prostitutes 2148
shining 2148
buc@@ 2147
competency 2147
fic 2147
importers 2147
juridical 2147
rors 2147
terrain 2147
vens 2147
Chan 2146
Current 2146
bloody 2146
idle 2146
immun@@ 2146
isms 2146
itous 2146
repaired 2146
subjec@@ 2146
vian 2146
aerospace 2145
condi@@ 2145
derivatives 2145
negligence 2145
rehabilitate 2145
prin@@ 2144
schem@@ 2144
horror 2143
iner 2143
uss 2143
PE 2142
Strengthened 2142
modernize 2142
multicultural 2142
opi@@ 2142
Chur@@ 2141
Death 2141
descendants 2141
remittance 2141
revive 2141
viewpoint 2141
Song 2140
penetr@@ 2140
sail 2140
Respect 2139
Vladimir 2139
cers 2139
practiced 2139
Lu 2138
tribe 2138
Safeguards 2137
compil@@ 2137
doses 2137
pli@@ 2137
ESS 2136
fting 2136
guardianship 2136
icy 2136
302 2135
UNMO@@ 2135
dow@@ 2135
drum 2135
tool@@ 2135
FNL 2134
Fat@@ 2134
Son 2134
horri@@ 2134
other@@ 2134
Hay@@ 2133
Up 2133
auto@@ 2133
bottles 2133
gic 2133
probable 2133
usion 2133
ITA@@ 2132
acking 2132
conversations 2132
encryp@@ 2132
irresponsible 2132
legislators 2132
pdf 2132
variability 2132
Nat@@ 2131
Peninsula 2131
flavor 2131
insi@@ 2131
activate 2130
dum@@ 2130
stays 2130
ung@@ 2130
accessories 2129
gesture 2129
lively 2129
1959 2128
Jam@@ 2128
asted 2128
dles 2128
perceive 2128
sured 2128
Dre@@ 2127
Source 2127
[...]
