的 29668824
， 21440109
。 16019495
和 9964210
在 6532890
. 6156092
、 5151327
了 4210319
是 3539991
年 2866052
) 2706144
( 2700782
/ 2437331
对 2287248
, 2056696
委员会 1830162
月 1809667
与 1773917
第 1738535
并 1690156
中 1674093
我 1648658
问题 1636811
将 1626063
为 1624319
国家 1575470
》 1538063
《 1538029
- 1528152
； 1492097
有 1484194
会议 1482223
他 1435035
： 1431156
" 1430164
日 1305869
一个 1276954
联合国 1241409
我们 1231039
不 1224321
或 1215500
发展 1201183
报告 1199736
其 1159061
国际 1146831
你 1143878
提供 1138972
到 1081240
（ 1080404
） 1080315
工作 1080165
以 1065471
上 1058361
人 1051561
关于 1001874
组织 1001060
1 985811
进行 963751
也 960964
就 954243
以及 941636
这些 934705
所 909847
包括 892476
这 891954
通过 882521
该 860277
社会 858520
方案 841425
情况 830033
其他 820859
而 792150
有关 788897
还 785140
特别 781200
方面 764447
向 762278
执行 761251
都 757089
政府 753744
他们 751613
机构 748819
地 726887
被 712562
决议 711441
2 709272
活动 706119
号 699768
及 691051
没有 681136
所有 679321
建议 678200
3 677539
可 673908
妇女 664380
时 657544
但 653400
安全 648995
行动 646537
经济 645975
项目 639676
人权 624112
会 623764
说 621933
公约 615444
可以 598042
下 595668
需要 590833
应 587411
大会 572011
根据 569701
区域 568946
于 565046
规定 564839
4 558886
理事会 557868
她 556725
它 553443
5 550284
提出 546124
合作 543157
从 539529
可能 537705
决定 532890
儿童 530335
个 523086
6 521921
必须 510440
新 505947
使 503751
“ 496025
代表 494693
支持 491509
技术 485994
已 481441
10 480915
由 475897
来 466434
影响 466372
12 464678
法律 464215
权利 463039
A 461948
认为 455185
” 454628
政策 453993
更 453101
各 452693
要求 452010
一些 443324
7 442898
要 442416
继续 441782
促进 441454
秘书长 441243
目标 433697
管理 432607
加强 431809
采取 429414
系统 424920
和平 423743
保护 420203
措施 419580
条 417840
服务 412175
能力 407566
提交 407218
使用 406702
确保 406493
: 404691
本 402821
主要 402495
后 397781
% 397307
研究 396207
内 395053
计划 394930
把 394130
缔约国 393931
这种 387760
作为 387661
任何 386543
重要 385750
？ 385363
9 384749
努力 379288
建立 378603
注意 375981
这个 372411
已经 371216
主席 369378
给 368941
如果 367681
者 365626
等 364131
11 362328
因此 361689
草案 353310
请 352546
先生 350974
多 350074
8 349961
资源 348993
段 348801
审议 348269
举行 346608
文件 346270
人员 344616
实现 344001
期间 340760
这一 340057
能 337691
· 337285
教育 336637
很 336091
一 335006
之间 332572
各国 330142
信息 330091
因为 328822
最 326637
行为 326089
审查 324513
着 323478
成员 322424
环境 321705
基金 321389
得到 319957
实施 318437
全球 315741
地区 315329
领域 314688
世界 314162
援助 313570
增加 312838
开展 311335
考虑 306177
表示 305776
中国 302249
自己 299335
持续 298829
相关 298493
获得 296882
参与 296498
战略 294390
其中 291187
一项 291144
议程 290144
代表团 286458
支助 283437
但是 282677
有效 282309
协调 281457
方法 280867
作出 280529
讨论 278023
作用 276056
及其 275194
a 274946
小组 273805
预算 273616
正在 272978
公司 272911
能够 272284
由于 271547
美国 270458
程序 270221
处理 269972
让 269797
政治 267896
指出 267338
至 267136
工作人员 266754
资料 265541
一种 264526
目前 260066
人民 260034
性 259429
许多 258724
方式 255712
开始 255653
它们 255069
解决 254334
中心 254159
特派团 254145
提高 252069
做 251801
进一步 249699
里 246783
机制 246736
秘书处 243340
任务 242932
意见 241672
非洲 241150
说明 240739
条约 240183
参加 239605
15 239586
前 238111
次 238018
事务 237491
取得 237186
培训 237103
制定 236687
调查 235683
减少 235457
去 235032
评估 233122
确定 232772
人口 232313
发展中国家 230684
框架 228866
用 228459
又 228066
原则 227912
名 227570
国 226660
同时 226555
进程 224793
具有 224740
时间 224326
30 223323
b 222587
部门 222206
各种 221957
而且 220881
目的 220756
希望 219271
这样 218685
法 217388
美元 217331
不是 217245
生活 217228
部分 216975
间 214717
费用 214686
强调 213495
同 213447
工作组 213305
现在 213128
成为 213093
以便 213048
利用 211673
文化 211165
不同 210901
平等 210546
20 210463
发言 209087
应当 208223
标准 207560
此外 207129
分析 205922
发生 205775
好 205398
应该 205214
— 204968
为了 203382
制度 203237
2005 202622
; 202089
2008 201865
关系 201779
是否 200652
适当 199487
地方 199432
C 199169
缔约方 199138
存在 199051
对于 198951
维持 198802
接受 197800
数据 197776
必要 196354
按照 195104
2006 195035
基础 193828
会员国 193330
造成 193041
什么 192865
设立 191377
* 190803
产生 190740
2010 190655
? 190584
最后 190207
行政 189478
范围 188920
结果 188501
机会 188331
全面 186496
专家 186493
2009 186449
办事处 185789
办法 185789
14 185670
消除 184941
13 184712
投资 184619
2007 184480
那 184273
建设 183269
进展 182591
不能 182081
具体 181757
受到 181414
想 181090
2004 180617
帮助 180016
承诺 179625
如 179361
司法 179337
家庭 179284
负责 179137
各项 178628
一次 178164
就是 177749
协助 177035
鼓励 176982
并且 176071
即 175709
款 175446
一@@ 175394
过 175375
做法 175242
责任 175187
16 175020
得 174549
受 174412
知道 174342
18 174205
资金 173522
非 173280
充分 173186
吗 172804
共同 172622
大 171723
用于 171008
如何 170429
两个 170262
2011 170191
法院 169951
安排 169814
性别 169787
条件 169187
过程 169181
不@@ 168813
贸易 168682
需 167615
这方面 167550
严重 167494
咨询 166901
期 166469
监测 166465
出 166343
涉及 166072
人们 165409
事项 164837
一切 164693
尤其 164481
议定书 164470
义务 164253
欢迎 163042
歧视 161068
形式 160940
2000 160859
非政府 160844
2003 160658
企业 160574
部队 160343
市场 159889
基本 159635
日至 159599
完成 159366
改革 158579
冲突 158156
则 158139
业务 158029
以色列 158029
办公室 157925
那些 157106
批准 157089
挑战 157011
17 156597
犯罪 156472
们 156236
21 155710
2002 155669
例如 155426
比 153417
尽管 152773
见 152680
之后 152365
适用 152331
c 151772
个人 151594
2012 151439
之 151373
认识 150779
国内 150735
当 150332
介绍 149940
19 149731
自由 149591
采用 149523
选举 149417
出现 149401
控制 148771
关切 148194
附件 147520
难民 147467
31 147442
仍然 147392
以下 146997
未 146877
协定 146232
武器 146136
成果 145716
2001 145513
25 145403
或者 144814
利益 143999
关注 143223
两年 142563
优先 142511
仍 142264
改善 142023
临时 141938
． 141690
作 141531
[ 141478
生产 141404
人道主义 141342
直接 141320
区 140587
22 140220
表明 139564
评价 138705
健康 138658
非常 138621
之前 138515
案件 138502
社区 137926
这项 137921
000 137746
一般 137512
报告员 137394
原因 137276
增长 137191
时候 136679
以来 136375
大@@ 135498
当局 135466
因 135336
虽然 135245
无法 134802
然而 134578
24 134328
联合 133991
自 133871
23 133513
立法 133463
最近 133334
过去 132236
现有 132062
稳定 131684
独立 131019
按 130890
禁止 130818
暴力 130796
] 130667
一直 130320
履行 130269
重申 129986
防止 129957
积极 129718
经费 129146
限制 128985
1999 128616
结构 128605
2013 128464
内容 128391
恐怖主义 127238
不会 127022
这是 126970
高 126626
了解 126486
安理会 126472
巴勒斯坦 125902
发现 125735
导致 125559
！ 125304
风险 125254
一份 124996
经 124980
需求 124773
B 124062
监督 124048
收到 123775
综合 123560
状况 123545
某些 123223
L 123195
因素 123125
另 122974
地位 122658
打击 122574
人类 121417
起 121352
土著 121215
部 121117
同意 121036
针对 120685
广泛 120564
请求 119849
呼吁 119114
厅 118894
1998 118692
结束 118560
审计 118352
承认 118147
您 117787
领土 117633
26 117598
推动 117430
产品 117324
纳入 116911
协商 116477
全国 116325
E 116238
制订 116042
面临 115969
谈判 115962
论坛 115891
材料 115819
对话 115304
扩大 115022
选择 114970
集团 114920
实际 114917
27 114899
指导 114793
设计 114644
保障 114633
保证 114542
28 114067
警察 113885
定期 113732
收入 113721
军事 113624
只有 113502
外 112858
规则 112827
联系 112677
欧洲 112475
却 112031
条款 111782
规划 111610
该国 111515
方 111410
总统 111388
只 111046
完全 110269
来自 110180
权 109877
发达国家 109876
宣言 109768
再 109723
分 109566
违反 109400
网络 109352
发挥 109311
整个 108947
法庭 108825
上述 108655
遵守 108639
成功 108342
岁 107927
从而 107732
记录 107694
伊拉克 107617
我国 107414
协议 107289
一样 107268
学校 107246
重点 107201
点 107178
表 107002
你们 106983
较 106923
财政 106655
加入 106501
事件 106242
占 106188
项 106183
非法 106057
预防 106022
类 106012
小 105763
长期 105747
侵犯 105636
威胁 105617
正式 105573
子 105534
重新 105205
之一 105171
程度 105100
S 104980
明确 104956
29 104951
员额 104832
更加 104794
二 104583
事 104262
城市 104256
此 103951
不断 103735
还是 103603
约 103329
伙伴关系 103263
当地 103216
经常 103100
经验 103066
土地 102885
准备 102815
像 102575
符合 102453
水 102247
设备 101914
成员国 101493
大学 101126
处 100977
同样 100882
确认 100612
改进 100578
每个 100455
均 100354
拥有 100281
中@@ 100280
公民 99382
应对 99330
还有 99308
保持 99176
变化 99110
科学 98989
千年 98967
d 98802
50 98649
下列 98619
化 98510
有助于 98450
达到 98060
结论 97959
感到 97768
内部 97750
普遍 97695
基于 97532
一起 97531
不过 97180
无@@ 97178
旨在 97041
一名 97017
宪法 97009
未来 97001
合同 96829
做出 96802
恢复 96732
每 96296
就业 96189
人数 96051
运动 95970
学生 95847
给予 95786
空间 95730
带来 95444
开发 95078
％ 94790
设施 94418
很多 94081
准则 94034
法官 94019
显示 93898
民主 93805
群体 93613
申请 93609
水平 93510
才 93191
解释 92922
小@@ 92831
银行 92767
编写 92762
专业 92510
倡议 92342
本国 92104
进入 92096
所述 91675
副 91561
女士 91541
改变 91305
年度 90918
保健 90838
日本 90804
指标 90590
刑事 90570
境内 90444
知识 90257
多@@ 90236
60 90212
重大 90076
现象 90048
贩运 90032
公共 89820
应用 89752
受害者 89704
阶段 89651
价值 89604
支付 89580
正 89537
缺乏 89519
有些 89097
孩子 89076
看 88969
保留 88947
举办 88910
看到 88730
列入 88273
局势 87802
反映 87618
实体 87570
允许 87546
回顾 87528
官员 87402
宣传 87160
艾滋病 87132
手段 86956
条例 86814
管制 86689
落实 86505
那么 86427
起来 86412
40 86173
国际法 85911
工具 85560
危机 85547
下午 85420
构成 85390
宗教 85325
反对 85236
超过 85236
大量 85147
传统 85127
数量 85107
提到 84916
贫穷 84859
最大 84715
拘留 84667
资产 84630
享有 84451
1996 84421
女性 84394
1997 84283
成立 84262
证明 84197
组成 84107
以上 84105
今天 84091
宣布 84021
提议 83954
满足 83924
民间 83684
呢 83243
尊重 83050
危险 82937
调整 82829
实行 82733
农业 82731
一点 82625
通知 82620
伙伴 82523
达成 82457
行动计划 82278
核武器 82161
后续 82146
2014 82113
文书 81822
然后 81807
酷刑 81414
基金会 81340
只是 81279
理由 81270
补充 81247
斯 80510
非正式 80438
访问 80297
裁军 80224
统计 80189
所以 80133
英语 80131
万美元 80065
1994 80046
来说 79938
质量 79931
关键 79916
签署 79757
无 79590
一部分 79499
授权 79188
艾滋病毒 79095
上@@ 78935
支出 78698
协会 78697
声明 78693
扩散 78190
出口 78127
吧 78109
为此 78082
采购 77893
通常 77880
若干 77759
亿美元 77684
财务 77520
残疾人 77486
三个 77401
困难 77396
领导 77257
登记 77220
总 77184
职能 77141
主任 76982
编制 76904
P 76852
治疗 76697
另外 76644
一定 76478
各方 76471
学习 76385
1995 76314
总部 76218
分配 76206
地点 76199
称 76121
家 76098
拟议 76030
森林 75790
单位 75674
在内 75583
三 75565
今后 75448
有@@ 75340
权力 74904
曾 74879
模式 74878
重要性 74677
大多数 74481
意义 74472
贡献 74373
每年 74329
印度 74256
第五 74255
提案 74251
证据 74164
收集 74140
如下 74126
更好 74094
修订 74063
人@@ 73904
亚洲 73896
喜欢 73820
信 73595
尚未 73518
住 73501
观察员 73383
答复 73286
一位 73197
外国 73148
率 73088
青年 73032
增强 72956
走 72763
属于 72687
除 72593
告诉 72571
题为 72485
移民 72472
团 72441
财产 72439
拟订 72395
生物 72267
e 72212
课程 72183
－ 72033
有人 72020
气候变化 71985
首脑会议 71917
低 71915
高@@ 71875
担任 71464
不要 71412
苏丹 71411
阿富汗 71010
从事 70997
而言 70687
再次 70686
水@@ 70676
毒品 70602
创造 70588
鉴于 70525
议会 70357
Add 70183
1993 70148
工业 70086
其它 69959
农村 69877
估计 69849
多边 69755
罪行 69730
步骤 69692
一级 69683
专门 69659
移徙 69613
避免 69603
署 69602
基础设施 69470
自愿 69469
第二 69304
寻求 69300
加以 69299
马@@ 69261
比较 69212
100 69114
常驻 69094
特殊 68975
宪章 68959
德 68959
一致 68915
加拿大 68900
司 68858
欧洲联盟 68782
至少 68782
以前 68766
团体 68747
新@@ 68517
甚至 68453
法国 68323
维护 68265
两@@ 68259
她们 68242
核心 68213
损失 68198
战争 68186
供 68052
黎巴嫩 67931
公众 67869
引起 67761
能源 67647
统一 67560
据 67550
自@@ 67503
敦促 67439
交流 67437
纲领 67397
拉@@ 67340
通信 67315
组 67306
发表 67230
可@@ 67165
迅速 67148
相信 67104
最终 67028
越来越 67017
头 67003
阿@@ 66993
的话 66984
之@@ 66920
35 66829
价格 66569
运输 66556
十分 66482
来源 66412
如此 66403
联盟 66341
公开 66316
主题 66193
第六 66187
不仅 66150
运作 66134
观点 66016
似乎 65927
债务 65849
D 65847
依照 65844
公平 65820
纽约 65710
精神 65653
商定 65641
高级专员 65619
流离失所 65601
最佳 65588
几个 65568
历史 65510
赔偿 65250
体制 65240
式 65195
新闻 65194
核准 65190
成本 65118
比例 64985
第一 64947
有权 64942
召开 64888
语言 64885
机 64857
任命 64823
此类 64814
真正 64810
预期 64744
不得 64667
概念 64519
承担 64354
首先 64329
一年 64315
贸发 64212
医疗 64171
性质 64076
部署 63939
计算 63916
东西 63802
才能 63769
这@@ 63745
理解 63660
55 63409
检查 63398
双方 63348
量 63310
日内瓦 63295
粮食 63248
45 63220
预计 63165
予以 63141
57 63072
除了 63041
金融 62998
器 62994
传播 62959
趋势 62868
三@@ 62866
良好 62860
表现 62725
定义 62672
愿意 62659
媒体 62555
天 62360
高级 62244
指控 62010
遭受 61998
32 61984
磋商 61981
达 61960
交易 61879
地@@ 61577
死亡 61445
这里 61377
成 61332
训练 61278
分别 61182
工人 61157
34 61023
依据 61003
商业 60999
科 60991
65 60982
网站 60973
爱 60968
举措 60925
索赔 60847
职位 60819
那个 60712
事实 60666
00 60618
带 60467
节 60294
感谢 60248
随着 60078
贫困 60054
日期 59916
邀请 59841
卫生 59832
事情 59831
平民 59816
本@@ 59813
民族 59710
33 59630
背景 59602
尔 59584
局 59517
几乎 59480
采取行动 59463
降低 59448
59 59439
职业 59439
类似 59365
58 59312
辩论 59232
’ 59216
拉 59215
实质性 59149
体系 59143
体 59075
核 59071
形成 59011
克 59008
数 58991
很大 58988
住房 58978
62 58964
开发署 58962
两性 58959
下降 58869
36 58810
古巴 58766
州 58677
下@@ 58492
障碍 58442
德国 58419
当前 58356
内@@ 58276
找到 58214
特 58201
61 58185
香港 58159
64 58125
详细 58098
朋友 58069
探讨 58057
十年 58052
办 58041
生效 57955
道 57933
捐款 57882
发出 57876
资助 57833
共和国 57824
指定 57716
反 57436
型 57413
立即 57295
主管 57257
捐助 57235
上诉 57103
清单 57094
长 57068
容易 57026
48 56988
决策 56911
及时 56861
那样 56818
效率 56813
公正 56757
英国 56726
明显 56709
与会者 56590
讲习班 56551
全部 56545
37 56508
载 56451
最高 56347
疾病 56327
行使 56248
特定 56205
省 56145
63 56142
这次 56115
紧急 55918
54 55862
占领 55722
物质 55709
身份 55673
52 55672
53 55620
不可 55518
律师 55503
西@@ 55475
56 55416
损害 55402
一系列 55391
出席 55383
39 55364
海洋 55348
起诉 55323
往往 55191
各级 55186
本身 55171
心@@ 55146
发@@ 55072
高级别 55059
私营部门 55016
2015 54942
对@@ 54941
足够 54859
一般性 54848
阿拉伯 54770
电子 54686
致力于 54623
顾问 54600
上午 54518
专家组 54480
破坏 54420
度 54418
车 54343
出来 54302
仅 54283
反应 54226
名单 54157
钱 54030
罪 54028
会议室 53988
接触 53833
少数 53803
所作 53802
至关重要 53776
审判 53719
拒绝 53672
站 53644
视为 53625
重视 53411
修改 53365
且 53338
赞赏 53318
四 53255
66 53206
处于 53196
药物 53173
领导人 53131
经过 53089
数字 53051
澳大利亚 52939
部长 52932
联合王国 52931
没 52925
那里 52897
意味着 52858
有限 52807
生命 52783
以后 52760
38 52661
发 52530
大约 52525
级 52500
行 52469
截至 52400
女孩 52397
国际公约 52379
竞争 52360
索马里 52309
专题 52281
最新 52112
离开 52093
9@@ 51899
51 51811
居民 51781
适应 51751
此种 51710
平衡 51704
49 51702
为什么 51667
人权委员会 51589
开发计划署 51411
数目 51319
届 51315
… 51286
卡@@ 51280
地雷 51268
跟 51187
股 51174
干事 51173
任择 51164
! 51155
工程 51107
意识 51011
那@@ 50926
1990 50907
小时 50880
评论 50878
机关 50876
学 50855
力 50840
重@@ 50813
人士 50806
监狱 50670
外地 50669
分@@ 50633
以外 50599
之外 50568
力量 50482
巨大 50475
数额 50388
即使 50363
线 50324
41 50276
47 50234
听 50142
42 50128
外@@ 50079
今年 50039
生 50038
觉得 50012
i 50009
吃 49997
电话 49983
时@@ 49912
筹资 49891
所涉 49870
图 49859
大规模 49842
侵害 49808
第一次 49779
手 49735
筹备 49664
列 49579
立场 49518
研究所 49496
出@@ 49407
研讨会 49390
斯@@ 49275
特@@ 49230
相互 49207
停止 49194
67 49113
一下 49106
位 49092
专员 48973
卢旺达 48901
工作队 48897
合理 48834
救济 48829
复杂 48777
表决 48571
44 48532
我@@ 48398
信托 48365
货物 48340
联邦 48299
问 48291
案 48290
商品 48284
市 48158
8@@ 48151
南 48142
欧盟 48124
也许 48061
须 48058
理论 47966
最好 47947
随后 47918
46 47827
心 47794
压力 47778
第三 47727
加 47700
书 47687
俄罗斯联邦 47665
海@@ 47612
份 47600
武装冲突 47592
开@@ 47536
世纪 47490
巴西 47361
增进 47341
文 47150
43 47148
打@@ 47081
大部分 47060
食物 47055
十@@ 47047
费 46921
墨西哥 46887
不足 46884
唯一 46884
日益 46856
用户 46852
制裁 46797
令人 46791
谁 46758
加勒比 46727
科索沃 46697
平均 46661
便 46624
各个 46571
打算 46570
职责 46514
各自 46513
1992 46508
待遇 46506
万 46485
68 46463
多样性 46394
全体会议 46298
过渡 46252
延长 46209
飞机 46189
父母 46153
加@@ 46074
死 46044
男子 45981
来文 45928
母亲 45770
申诉 45746
贷款 45597
清楚 45573
' 45565
花 45443
而是 45343
利 45324
巴基斯坦 45313
攸关 45293
遭到 45238
法@@ 45237
派 45218
技能 45216
f 45178
资格 45110
享受 45049
便利 45040
员 44914
指 44859
转让 44858
供资 44797
利@@ 44745
北京 44682
同@@ 44637
后果 44551
是因为 44516
预测 44454
集中 44413
实际上 44389
效果 44383
销售 44322
创新 44315
未能 44314
治理 44300
武装 44298
修正 44292
账户 44278
路 44270
罗@@ 44266
委会 44195
500 44186
大家 44151
其@@ 44149
在于 44131
CN 44112
维也纳 44086
70 44068
获取 44056
不再 44031
日@@ 43991
官方 43985
科威特 43971
重建 43895
万@@ 43741
拉丁美洲 43719
将会 43718
态度 43716
场 43706
规范 43632
分发 43610
如@@ 43607
福利 43565
流动 43562
票 43560
安@@ 43466
土耳其 43439
检察官 43429
太平洋 43391
物 43388
总是 43365
长@@ 43257
攻击 43230
当然 43203
提及 43180
埃及 43118
法治 43112
语 43016
公布 43007
事实上 42935
时期 42920
诉讼 42916
制 42911
年龄 42829
天@@ 42695
当时 42690
对此 42648
放在 42636
南非 42602
类型 42582
本文 42554
执行局 42538
用途 42528
信任 42513
开 42482
门 42463
初步 42402
人力资源 42393
变得 42389
相@@ 42358
安保 42348
协调员 42336
五 42251
电@@ 42179
生@@ 42153
种族歧视 42083
劳工 42065
开放 42062
值 42022
外部 41996
启动 41986
德@@ 41932
私人 41914
虐待 41904
看法 41890
刚果民主共和国 41873
查明 41854
更新 41847
方向 41790
数据库 41759
途径 41758
80 41733
令 41727
包含 41672
77 41599
前@@ 41564
提请 41561
指南 41538
制造 41483
判决 41479
亚@@ 41468
既 41432
状态 41390
供应 41383
200 41307
转移 41297
正如 41274
工发 41244
应@@ 41192
室 41131
劳动 41124
行业 41086
二@@ 41083
多年 41007
巴@@ 40945
起草 40937
利比里亚 40896
助理 40857
表达 40850
灾害 40825
org 40819
海地 40812
国民 40797
进 40793
队 40781
面 40739
残疾 40709
我要 40702
每天 40664
四@@ 40617
自然 40589
不利 40571
返回 40538
投入 40520
核查 40515
怎么 40474
期限 40434
言 40433
采取措施 40340
组成部分 40286
特点 40282
科@@ 40218
相当 40179
一条 40151
观察 40090
简单 40071
主席团 40070
使得 40053
意大利 40001
总额 39976
额外 39885
1991 39863
依然 39852
道路 39820
袭击 39742
卡 39698
化学品 39550
医生 39513
所@@ 39499
这么 39448
总体 39410
一天 39357
全 39331
通报 39288
心理 39282
展开 39257
之中 39252
全@@ 39249
非@@ 39229
纳 39223
候选人 39222
网 39205
只要 39196
女 39171
显然 39162
全世界 39153
入 39122
西班牙 39119
相同 39074
订正 39030
国家一级 38979
驻 38971
尼 38932
国@@ 38925
客户 38859
叫 38842
双边 38841
旅行 38820
上升 38794
以@@ 38760
相对 38711
7@@ 38687
该@@ 38657
可能性 38566
结合 38492
错误 38449
气 38353
附属 38347
最低 38325
功能 38277
难民署 38236
69 38227
0@@ 38223
议事规则 38223
子女 38219
尔@@ 38209
设 38191
汽车 38165
西 38136
剥夺 38077
金 38049
种族 38045
马 38027
回答 37987
布@@ 37985
哪些 37964
太 37961
医院 37944
老@@ 37933
有时 37922
酌情 37895
维和 37882
模型 37821
事务部 37794
90 37792
写 37775
瑞士 37729
分享 37725
主流 37704
父亲 37676
指示 37654
所有人 37645
话 37645
裁决 37641
语文 37638
试验 37633
暴力行为 37626
报道 37608
种族主义 37598
总@@ 37586
发布 37571
米 37554
妇女地位 37507
试图 37478
全球化 37453
几@@ 37434
经营 37427
美利坚合众国 37426
达尔富尔 37421
俄罗斯 37420
透明度 37393
成@@ 37373
件 37345
中期 37341
强迫 37335
更为 37286
规模 37245
男女 37223
摘要 37219
载有 37193
额 37172
之下 37166
差异 37097
干预 37091
现金 37024
差距 37017
一家 36974
进步 36894
中东 36805
有利于 36769
风@@ 36731
手@@ 36719
公@@ 36649
特设 36648
常设 36554
光@@ 36548
坚持 36536
卫星 36524
正确 36523
层 36514
主持 36505
进口 36489
解决办法 36487
资本 36487
白@@ 36480
协作 36457
集体 36438
工程处 36381
现行 36278
赞扬 36260
转@@ 36232
证书 36229
文@@ 36207
逮捕 36188
相应 36174
多少 36157
受@@ 36154
雇员 36084
面前 36017
边界 36014
女童 36008
打 36007
主权 36000
食品 35976
花@@ 35967
多数 35962
剂 35947
教师 35924
大使 35895
中央 35864
石油 35834
原子能 35825
叙利亚 35801
外交 35749
啊 35745
法令 35713
津贴 35684
只能 35674
次级 35603
执法 35602
颁布 35578
感觉 35570
正常 35570
业 35553
剥削 35545
并非 35545
气候 35519
光 35487
建筑 35440
高兴 35440
经历 35432
过@@ 35410
男性 35349
测试 35326
容忍 35322
争取 35300
科特迪瓦 35296
任 35249
以期 35225
伊朗 35190
民众 35179
保险 35178
后勤 35156
法案 35120
担保 35118
反@@ 35088
补救 35064
地球 35044
身体 35043
夫 35031
第四 34990
比@@ 34977
取消 34913
军队 34896
担心 34861
种 34839
秘书 34835
去年 34832
分类 34815
拟定 34791
世界银行 34780
购买 34778
若 34776
现实 34756
I 34743
五@@ 34737
每@@ 34704
流 34699
有所 34689
货币 34686
确实 34680
预防犯罪 34641
合法 34599
热@@ 34594
相比 34590
两 34571
尽可能 34570
任期 34550
A@@ 34514
哈@@ 34511
潜在 34511
「 34508
」 34479
第二次 34473
成就 34464
派遣 34335
居住 34325
层面 34322
共识 34309
人力 34249
减轻 34213
失踪 34210
非洲联盟 34190
决心 34179
肯定 34156
投票 34132
养 34106
防治 34057
阻碍 34037
所载 34028
车辆 34027
克@@ 34025
遇到 34025
切实 34013
速度 33986
基地 33969
病 33906
根本 33869
单独 33791
环境署 33764
逐步 33752
流@@ 33744
合并 33711
平台 33697
多个 33678
特征 33659
仲裁 33632
污染 33567
除非 33542
主义 33519
g 33507
阁下 33498
后@@ 33488
用来 33467
体现 33456
挪威 33434
筹措 33400
业绩 33378
印度尼西亚 33338
名@@ 33337
赋予 33306
严格 33294
纳@@ 33286
各@@ 33249
免费 33245
替代 33232
即将 33210
开支 33208
证实 33184
青少年 33135
单@@ 33132
高度 33093
案文 33062
废物 33057
装置 33051
近 33044
岛 33037
因而 32998
四个 32984
现代 32984
少 32982
诸如 32963
买 32952
出版物 32940
找 32910
和@@ 32881
满意 32879
比赛 32873
制止 32843
透明 32826
实践 32804
合作伙伴 32784
声 32779
面对 32767
300 32763
S@@ 32733
得以 32705
阿根廷 32668
un 32627
年代 32602
品 32598
软件 32588
好@@ 32586
动物 32571
而@@ 32547
金@@ 32527
处罚 32484
思想 32431
基@@ 32382
公务员 32379
国籍 32353
正@@ 32349
家庭暴力 32307
管 32266
类别 32258
申诉人 32241
www 32236
法规 32226
相 32225
得@@ 32220
适合 32211
第一个 32159
K@@ 32122
伤害 32104
惩罚 32097
荷兰 32048
为@@ 32045
燃料 32027
储存 31991
共 31938
波斯尼亚 31934
密切 31904
人道主义法 31889
G@@ 31881
监管 31880
东帝汶 31831
格@@ 31825
别人 31812
快速 31802
调动 31802
弹药 31779
赞同 31736
消费 31719
75 31706
上文 31692
推广 31686
工资 31677
六 31652
高专 31652
吁请 31651
大楼 31647
会@@ 31629
刑法 31548
排放 31485
推进 31465
里@@ 31454
代理 31453
塞拉利昂 31426
对象 31400
常常 31384
道德 31377
无论 31375
争端 31367
寻找 31336
F 31335
快 31327
效力 31320
一旦 31292
议题 31276
团结 31245
动 31241
出版 31236
危害 31229
格 31219
后来 31178
取决于 31146
自身 31132
B@@ 31124
命令 31098
别 31052
界 31052
乌克兰 31043
以往 31029
用@@ 30992
掉 30974
美@@ 30972
制作 30957
年底 30955
付款 30946
不到 30907
儿 30881
阐述 30853
小岛屿 30852
当@@ 30828
释放 30821
南@@ 30817
认可 30738
位置 30713
章 30708
山 30656
融资 30656
突出 30654
儿子 30626
可靠 30604
讲 30601
位于 30594
角度 30586
共同体 30581
低@@ 30570
跨国 30562
估计数 30560
促使 30489
想要 30481
成绩 30466
附近 30431
续 30413
瑞典 30389
片 30385
谴责 30382
反恐 30356
o 30354
时代 30347
永远 30316
几年 30292
强烈 30287
曾经 30282
男人 30254
维@@ 30223
页 30220
同一 30197
哥伦比亚 30196
咨 30192
合@@ 30175
场所 30106
运行 30083
该项 30064
新西兰 30061
可是 30034
气@@ 30014
回应 29992
口 29990
回 29925
学院 29915
款项 29897
埃塞俄比亚 29891
例子 29873
姆 29855
记者 29839
更大 29790
妨碍 29789
台 29771
巩固 29762
尼@@ 29748
神 29744
示范 29723
主@@ 29705
未经 29693
直到 29686
变@@ 29646
伊@@ 29643
失去 29617
手册 29600
性@@ 29594
普通 29560
自然资源 29512
放弃 29503
促请 29495
审理 29475
自治 29457
体@@ 29446
涵盖 29443
太@@ 29437
概述 29426
南部 29406
混合 29401
亚 29375
武装部队 29362
女人 29342
布隆迪 29328
来@@ 29289
从@@ 29264
还要 29257
值得 29253
船 29182
整体 29181
奥@@ 29180
词 29132
融入 29092
腐败 29090
感 29086
首次 29013
摩洛哥 29006
证人 28993
显著 28977
负担 28953
外层空间 28943
回@@ 28933
确立 28910
专门机构 28895
加沙 28892
军 28888
斗争 28887
装备 28879
族裔 28877
吸引 28864
主 28861
荒漠化 28861
参考 28829
重 28825
尼日利亚 28815
捐助者 28800
修正案 28772
婚姻 28752
物品 28751
系 28741
感染 28722
一套 28715
某 28715
投资者 28689
全体 28665
总理 28660
单 28640
死亡率 28623
原@@ 28613
作@@ 28589
意愿 28585
明@@ 28570
无核武器 28561
下来 28546
一体化 28541
图@@ 28527
真的 28518
细则 28504
山@@ 28479
象 28450
调@@ 28442
未@@ 28433
声称 28426
书面 28373
效益 28362
受理 28359
生殖 28349
数@@ 28340
2@@ 28335
拿 28314
恶化 28307
家@@ 28302
基 28283
事业 28260
年@@ 28257
三年 28228
一道 28200
联合会 28175
萨@@ 28158
空@@ 28077
他@@ 28054
公共部门 28054
庇护 28050
6@@ 28037
政治权利 28035
热 28026
达@@ 28024
描述 28003
劳动力 27969
脆弱 27968
价 27963
产出 27962
瓦@@ 27961
职务 27961
菲律宾 27955
争议 27916
消费者 27915
信贷 27914
死刑 27875
依赖 27854
难以 27832
共计 27802
波@@ 27792
员工 27778
雷@@ 27745
分摊 27744
中有 27741
信息技术 27738
具备 27712
不得不 27686
亦 27678
头@@ 27665
北 27660
期望 27648
衡量 27605
教授 27578
注重 27556
尽快 27542
加快 27531
终止 27520
h 27485
联@@ 27482
交@@ 27476
受害人 27464
管理局 27432
痛苦 27428
南斯拉夫 27427
10@@ 27425
先 27413
T@@ 27350
泰国 27341
期待 27330
起@@ 27319
税 27294
收@@ 27292
女@@ 27280
利比亚 27266
实验 27262
仅仅 27246
电影 27211
布 27210
行预 27209
报 27185
视 27167
在@@ 27143
双@@ 27122
准确 27119
两种 27099
年轻 27084
红@@ 27081
英文 27058
发起 27049
神@@ 27029
合 27015
澄清 27014
乌干达 27010
讨论会 27007
有着 26996
过境 26993
M@@ 26965
自我 26950
运用 26943
并未 26941
管辖权 26927
P@@ 26894
很快 26893
图书馆 26883
通@@ 26873
意 26861
第一@@ 26852
列出 26849
旅游 26830
建造 26816
定于 26785
本次 26772
清洁 26761
征聘 26756
球 26740
潜力 26739
情报 26737
周期 26723
监禁 26700
放@@ 26662
怎样 26648
五年 26625
最初 26607
核裁军 26600
阿尔及利亚 26558
实地 26551
部长级 26529
正是 26516
设想 26513
界定 26502
规划署 26482
引渡 26444
简要 26436
例 26416
声音 26413
看见 26404
很少 26362
年度报告 26360
机@@ 26357
板 26340
艺术 26338
和解 26310
薪金 26308
已有 26304
怀疑 26301
雇主 26301
听到 26259
机场 26255
经委会 26243
意思 26235
难 26234
患者 26188
接@@ 26170
米@@ 26165
边 26163
持久 26161
低于 26135
宗旨 26130
操作 26120
格鲁吉亚 26115
关心 26108
72 26105
与其 26101
称为 26084
就此 26056
古@@ 26043
400 26038
巴 26026
N@@ 26018
听取 26017
妻子 26004
重返 25998
赞成 25990
㈠ 25958
G 25945
想法 25941
询问 25938
照顾 25928
推迟 25898
教学 25897
塔@@ 25890
真@@ 25888
任意 25884
好处 25881
月份 25875
阻止 25824
变成 25792
应急 25778
会计 25762
设法 25754
海关 25751
掌握 25743
人居 25734
一场 25732
认真 25721
老年人 25717
空缺 25679
学@@ 25669
共有 25654
习惯 25651
被告 25631
自动 25626
两次 25611
发言者 25599
彻底 25598
提供援助 25590
㈡ 25589
火 25587
D@@ 25582
克服 25581
第三次 25569
肯尼亚 25567
证 25553
特性 25538
圣@@ 25537
少数民族 25531
黑塞哥维那 25504
些 25500
色 25486
拨款 25465
有利 25449
细胞 25425
身 25413
前往 25410
讲话 25404
设置 25376
贝@@ 25375
注册 25370
兴趣 25350
方@@ 25319
提@@ 25318
观察团 25306
金融机构 25296
驱逐 25286
联 25268
73 25267
六@@ 25260
沙@@ 25257
阿 25236
气体 25214
阿塞拜疆 25207
核@@ 25197
飞行 25195
行@@ 25186
完善 25177
交换 25154
入@@ 25137
油 25105
指数 25088
供应商 25086
普@@ 25069
重复 25044
元 25038
面@@ 24994
规约 24959
干 24958
财务报表 24954
送 24950
西非 24941
豁免 24938
塞@@ 24936
丈夫 24918
管辖 24908
属 24883
600 24860
房 24851
优势 24846
马来西亚 24827
塔 24826
罗马 24826
受益 24794
刚果 24771
与此同时 24768
塞浦路斯 24751
谅解 24751
皮@@ 24739
奥地利 24733
伊斯兰 24725
应付 24725
减贫 24712
点@@ 24710
所谓 24705
观念 24663
提名 24647
欧元 24626
党 24625
厄立特里亚 24610
裁军谈判 24597
销毁 24574
通讯 24549
百分比 24548
美 24540
口头 24536
18@@ 24532
创建 24503
两名 24494
计算机 24491
爱@@ 24486
71 24476
检测 24467
主张 24457
委员 24453
代@@ 24437
恤金 24434
伊 24432
相反 24416
许可证 24402
多种 24397
门@@ 24345
深@@ 24338
护理 24316
或许 24300
转 24288
河 24275
总数 24256
源 24252
L@@ 24251
外勤 24250
角色 24243
新闻部 24242
黑@@ 24227
公民权利 24224
要素 24219
分子 24214
架 24213
安装 24208
大型 24181
鱼 24178
用品 24176
建设性 24161
回到 24156
出于 24151
智利 24151
案例 24148
逐渐 24148
互动 24141
连 24128
工 24108
世界各地 24103
将来 24042
收益 24032
敏感 24025
补偿 24015
城 24004
风 24002
五个 23985
犯 23974
失败 23969
伊朗伊斯兰共和国 23966
半@@ 23959
质 23954
谨 23936
74 23922
k@@ 23918
深入 23917
前景 23913
排除 23908
故事 23906
削减 23891
提醒 23889
家人 23881
密切合作 23878
缅甸 23871
上帝 23842
H@@ 23837
或是 23824
动@@ 23799
联络 23771
军@@ 23759
取代 23746
消息 23746
我会 23738
东道国 23730
本届 23727
林 23697
议员 23696
他人 23690
加上 23681
树 23674
看来 23665
可行 23661
教科文组织 23651
76 23643
奇 23637
翻译 23637
外国人 23623
事先 23616
1.@@ 23613
一半 23613
包 23612
清@@ 23612
不够 23560
巴黎 23557
补贴 23535
初级 23525
一只 23516
许可 23491
发放 23490
阿拉伯叙利亚共和国 23436
告知 23435
78 23432
士兵 23431
这位 23423
备忘录 23409
教 23406
希腊 23384
这份 23339
出生 23330
星期 23328
伦敦 23314
远 23309
培养 23275
莫@@ 23268
名字 23267
要@@ 23265
获 23262
当选 23220
加速 23179
会上 23178
遵循 23171
早期 23149
经济体 23137
协商一致 23126
85 23112
95 23075
尊严 23059
倒 23049
木@@ 23048
惯例 23036
工会 23017
名义 23016
否则 23014
复@@ 22992
真 22984
亿 22958
AC 22953
电视 22953
东@@ 22952
失业 22925
报@@ 22923
农民 22919
靠 22915
备选 22907
结婚 22905
尽 22904
百@@ 22891
专@@ 22873
音乐 22870
形 22854
科技 22853
选 22852
八@@ 22826
主动 22825
每月 22821
看看 22819
教@@ 22801
工@@ 22799
情形 22799
印发 22798
结@@ 22775
比如 22726
一件 22725
出售 22710
分布 22699
罗 22697
作业 22689
大韩民国 22684
导言 22648
事故 22645
保存 22644
限度 22636
完整 22635
陈述 22634
火@@ 22612
缺少 22607
3@@ 22605
短期 22593
油@@ 22579
丹麦 22574
恩 22567
北部 22550
近东 22526
进@@ 22514
考试 22513
粮农组织 22510
抗@@ 22502
营养 22496
衣服 22493
加剧 22479
文章 22476
丰富 22460
渔业 22455
有用 22452
测量 22445
病人 22439
十一届 22432
推@@ 22421
苏@@ 22414
药 22406
年轻人 22397
眼睛 22391
囚犯 22367
已@@ 22341
紧张 22333
先@@ 22311
人人 22294
待 22284
最@@ 22251
试@@ 22235
方针 22222
精@@ 22211
信心 22209
不论 22189
字 22186
飞@@ 22175
约旦 22163
人格 22133
强 22131
生态系统 22100
穿 22088
发射 22074
北@@ 22069
埃@@ 22061
明白 22027
卖淫 22020
院 22017
孟加拉国 21992
于是 21965
血@@ 21964
表@@ 21947
名额 21945
各类 21936
失@@ 21932
波兰 21931
电脑 21919
克罗地亚 21914
於 21910
森 21907
暂停 21900
来看 21896
对待 21892
警方 21859
第四次 21845
平@@ 21839
独特 21824
条@@ 21820
男孩 21820
国际法庭 21816
早 21804
调 21795
性能 21774
最高法院 21756
车@@ 21743
滥用 21740
因@@ 21722
愿 21713
定@@ 21701
转变 21701
广告 21693
积极参与 21691
绝对 21682
洛@@ 21653
化@@ 21642
98 21639
此@@ 21631
概算 21628
共@@ 21624
商 21620
安哥拉 21616
内罗毕 21612
白俄罗斯 21612
理想 21589
某种 21582
库 21564
口@@ 21545
为期 21541
产业 21529
安置 21529
方便 21528
设在 21526
诉 21505
互联网 21494
名称 21486
快乐 21483
策略 21453
房间 21447
各地 21439
缔结 21409
化学 21408
目录 21408
特遣队 21406
驻地 21399
F@@ 21388
海 21387
移交 21384
芬兰 21384
职等 21377
任何人 21367
波 21357
排@@ 21332
800 21299
获悉 21281
汇编 21266
交通 21264
推行 21264
基准 21260
自然灾害 21252
随时 21246
近年来 21230
不久 21218
81 21205
雇用 21204
不管 21200
房子 21197
79 21192
首席 21171
康复 21161
有害 21159
兰 21158
始终 21154
块 21151
病毒 21141
族 21114
组合 21112
体育 21101
以此 21075
制@@ 21074
身上 21056
妈妈 21048
充足 21035
超@@ 21031
志愿人员 21010
直@@ 21003
当事人 20992
生存 20992
82 20970
婴儿 20967
恐怖 20957
废除 20931
突尼斯 20928
可持续性 20917
秘鲁 20899
1@@ 20889
M 20879
主办 20878
强化 20871
政党 20868
保@@ 20864
迪 20854
汇率 20851
交付 20832
配置 20831
文本 20830
96 20820
预@@ 20820
连接 20808
干@@ 20801
第二个 20799
下面 20797
读 20789
83 20765
毁灭性 20742
Rev 20736
改为 20728
4@@ 20725
跑 20725
资源管理 20718
分庭 20710
渠道 20708
原 20675
传@@ 20661
支援 20658
满 20653
认定 20642
约束力 20639
得出 20629
着手 20629
据称 20600
格式 20584
等待 20581
连续 20574
会计准则 20562
耶和华 20561
迪@@ 20555
比率 20553
帮 20540
楼 20533
负责人 20521
裁定 20514
信仰 20505
事态 20502
坚定 20491
酸 20490
al 20468
黄@@ 20443
提升 20433
84 20421
国外 20421
博@@ 20415
安 20415
E@@ 20406
比利时 20404
接近 20403
时间表 20402
植物 20402
科学家 20400
经@@ 20400
上海 20391
或@@ 20384
身@@ 20381
邻国 20377
调解 20369
职 20364
融合 20363
突然 20350
C@@ 20344
投诉 20336
关闭 20331
86 20330
附加 20323
注 20307
加工 20305
扩展 20297
危地马拉 20276
托@@ 20254
柬埔寨 20251
另一方面 20249
后者 20247
星期一 20247
问责制 20236
本人 20229
不应 20222
管理人员 20219
金属 20215
勒 20208
总结 20203
防@@ 20202
游戏 20196
分钟 20186
私营 20176
星期五 20162
15@@ 20154
老 20144
西亚 20140
专门知识 20125
其他人 20117
缺陷 20115
乌@@ 20114
如今 20098
马里 20092
签名 20077
海外 20070
小型 20060
国际贸易 20053
动态 20052
表格 20048
电 20040
的确 20037
处境 20019
R@@ 20005
秩序 20005
绿色 19993
版 19978
地震 19977
内陆 19974
现@@ 19960
限 19951
查@@ 19946
93 19936
复员 19928
关联 19921
先前 19896
何种 19892
灵活 19862
董事会 19852
核定 19842
国际法院 19820
装 19806
极大 19804
移动 19797
协同 19796
轮 19773
空气 19768
行政当局 19762
吉@@ 19758
持有 19756
一国 19743
拟 19742
王@@ 19732
知识产权 19732
角 19730
依靠 19728
落 19727
配合 19716
再@@ 19713
尼泊尔 19690
回来 19677
表面 19670
瓦 19668
斯里兰卡 19667
间接 19662
退休 19661
谈 19654
余额 19643
现状 19635
状 19608
老师 19602
共享 19600
林@@ 19595
七 19590
学会 19587
87 19579
新加坡 19573
皮 19558
穷人 19556
92 19552
爆炸 19542
形势 19534
汞 19533
美洲 19533
参数 19517
供@@ 19511
94 19509
子@@ 19497
实@@ 19492
下去 19490
兵 19481
完 19477
正义 19465
推出 19463
探索 19458
班 19449
房屋 19441
中国政府 19431
定 19431
性暴力 19431
13@@ 19427
99 19405
海洋法 19393
发言人 19392
兼 19386
变 19385
纲要 19370
变革 19354
文明 19342
微@@ 19340
梅@@ 19308
南南合作 19306
强奸 19306
缓解 19303
反腐败 19297
贸易法 19289
纪念 19286
明 19283
星 19281
12@@ 19271
企图 19268
以为 19259
700 19252
不人道 19251
放 19251
委内瑞拉 19247
地带 19246
难@@ 19244
事@@ 19228
坚决 19223
区别 19220
路@@ 19220
帐户 19207
做到 19201
雷 19200
具 19195
信@@ 19193
力@@ 19184
工艺 19167
活@@ 19163
看起来 19160
幸福 19156
多次 19144
座 19144
装@@ 19141
武力 19137
鲁@@ 19127
有罪 19121
一方面 19117
西方 19114
管@@ 19108
财富 19103
首长 19100
塞尔维亚 19088
空 19088
著 19088
上空 19078
88 19076
载于 19076
召集 19074
当中 19067
村 19066
石 19063
那种 19058
信号 19054
假 19052
秘密 19044
巴勒斯坦人 19041
受伤 19039
各位 19039
单方面 19021
法定 19019
厄瓜多尔 19008
97 18996
往 18992
拖延 18987
排雷 18983
周围 18967
理@@ 18959
更@@ 18955
删除 18941
有力 18926
极为 18922
通 18909
港 18897
药品 18893
有益 18891
期@@ 18889
遗憾 18880
托 18858
汇报 18845
转型 18844
希@@ 18829
晚上 18827
然 18822
警告 18822
金额 18821
个别 18820
切@@ 18814
社会保障 18814
89 18797
此项 18783
签订 18778
负债 18777
跟踪 18767
偿还 18758
至于 18756
不想 18755
单一 18754
远@@ 18736
没@@ 18716
说法 18715
八 18695
强大 18679
极@@ 18678
91 18666
解@@ 18666
张 18649
守则 18648
杀 18643
越南 18633
罪犯 18610
SR 18607
可用 18599
提 18599
国际@@ 18570
脱@@ 18567
效应 18551
标志 18551
遣返 18548
病@@ 18545
二十@@ 18538
法语 18537
并@@ 18533
联合国开发计划署 18532
来到 18530
连@@ 18529
索@@ 18515
情@@ 18514
莱@@ 18499
照片 18488
开幕 18478
O@@ 18477
愿望 18477
这场 18475
别@@ 18461
批评 18449
爱尔兰 18445
战@@ 18441
援助团 18437
国别 18436
离 18429
审评 18425
曼 18425
120 18421
作品 18414
地理 18411
之内 18409
充满 18408
级别 18391
固定 18363
必要性 18358
极端 18354
被@@ 18340
n 18337
丧失 18335
转递 18324
被迫 18318
沟通 18299
两项 18291
坐在 18276
绩效 18270
工厂 18269
核可 18256
配@@ 18256
能否 18247
出去 18244
费@@ 18243
自从 18239
上面 18232
节目 18226
聚@@ 18223
运@@ 18211
处置 18209
订立 18209
帕@@ 18204
感兴趣 18189
某个 18189
经理 18188
竞争力 18186
摊款 18183
所列 18157
向@@ 18155
实质 18155
边境 18153
论 18150
简化 18112
协调一致 18105
能@@ 18104
取@@ 18098
集 18090
四年 18087
福@@ 18083
残忍 18081
网上 18069
繁荣 18066
高于 18063
指@@ 18048
诊断 18042
说话 18040
哪 18017
石@@ 18016
战 18013
领空 17999
伤 17989
日起 17989
分散 17988
常@@ 17978
厂 17971
披露 17969
女儿 17967
分列 17958
大大 17945
k 17943
理 17943
视察 17895
怀孕 17887
前提 17884
七@@ 17877
强调指出 17861
212 17858
诺@@ 17858
群 17854
千@@ 17853
处决 17842
修@@ 17839
外交部长 17837
现代化 17836
第一届 17831
还应 17831
这类 17827
假设 17824
京都 17816
空中 17815
公里 17812
刺激 17779
小学 17776
酒 17774
利率 17759
国务院 17737
产 17723
维修 17723
由@@ 17719
亚美尼亚 17712
减@@ 17693
葡萄牙 17684
H 17679
紧急情况 17678
应有 17676
轻武器 17676
人群 17661
就业机会 17658
很难 17644
差 17642
统计数据 17642
时限 17640
众多 17637
例外 17625
所属 17618
变动 17616
阅读 17614
取 17606
画 17606
现 17604
明天 17595
说@@ 17593
狗 17580
质疑 17578
书@@ 17576
仇外 17551
奖 17551
合适 17547
伯@@ 17537
死@@ 17522
外交部 17520
任职 17512
伦 17506
大幅 17505
近@@ 17499
职权范围 17497
料 17485
暂时 17485
塞内加尔 17476
终了 17474
17@@ 17465
到达 17452
盘 17447
1989 17431
过度 17420
草 17415
引发 17406
不妨 17365
越 17362
14@@ 17355
星期四 17345
店 17342
150 17326
识别 17322
其余 17320
加纳 17320
继承 17317
地址 17301
列@@ 17299
一步 17294
看@@ 17294
解决方案 17289
牌 17286
北爱尔兰 17284
查阅 17274
有机 17271
问责 17270
区域合作 17268
士 17268
多样化 17268
2.@@ 17266
照料 17251
立@@ 17246
这儿 17246
为止 17227
物资 17217
艾@@ 17216
中非共和国 17213
法律援助 17212
净 17208
开会 17197
领袖 17186
档案 17179
世贸组织 17178
县 17171
兄弟 17170
预算外 17166
尝试 17153
地域 17152
十五届 17148
其实 17142
错 17137
一张 17131
破产 17125
冲@@ 17122
情 17113
现已 17113
留下 17105
离@@ 17100
导弹 17096
随@@ 17072
索赔人 17066
选出 17058
领取 17057
东部 17054
R 17051
很@@ 17040
公路 17039
迄今 17039
倾向 17038
第二@@ 17037
库@@ 17035
别的 17026
展示 17018
利润 17014
消耗 17000
捐助国 16996
规章 16991
兰@@ 16989
压@@ 16983
星期二 16980
升级 16970
句 16960
监察员 16958
约翰 16953
华@@ 16951
有辱 16946
粮食安全 16925
犯下 16921
每次 16916
入侵 16903
萨 16898
杀害 16882
碳 16854
一方 16853
师 16846
本地 16842
药@@ 16840
谈到 16840
整@@ 16836
税收 16835
作者 16834
强@@ 16834
中间 16831
乌拉圭 16831
哥斯达黎加 16830
沙特阿拉伯 16827
极 16824
16@@ 16822
民事 16822
着重 16822
响应 16821
贩卖 16813
$ 16811
不幸 16808
罗马尼亚 16806
有限公司 16805
藏 16801
满@@ 16795
左右 16792
库存 16782
眼 16781
吨 16774
非殖民化 16765
灾难 16756
解除武装 16747
5@@ 16743
民@@ 16738
素 16738
促成 16737
记得 16715
杰@@ 16686
广播 16663
组@@ 16663
常会 16659
制品 16652
阐明 16647
轻@@ 16641
国际标准 16640
英@@ 16639
咨询服务 16637
有效性 16637
轨道 16637
男女平等 16618
乍得 16600
星期三 16594
带@@ 16584
宝贵 16581
行事 16580
J@@ 16579
第三十@@ 16579
含有 16575
简报 16575
走@@ 16571
Al 16564
参照 16564
根源 16562
易 16561
手术 16555
朝鲜民主主义人民共和国 16545
动力 16538
定罪 16538
课 16534
见@@ 16533
合格 16532
胡@@ 16531
笑 16517
900 16514
凯@@ 16512
检验 16504
异@@ 16497
持 16492
包容性 16491
区分 16490
好像 16488
○ 16487
旧 16482
权@@ 16474
第三@@ 16468
经济@@ 16453
纪律 16451
没收 16448
就要 16446
博士 16441
生态 16439
追求 16432
r 16429
温室 16429
经验教训 16428
联刚 16417
第二届 16412
证券 16405
根 16401
奥运会 16396
温@@ 16387
铁@@ 16385
加大 16384
l 16372
查询 16360
美国@@ 16358
信通 16352
求 16351
干旱 16350
现场 16348
饥饿 16344
思考 16328
交给 16323
货 16320
19@@ 16316
密@@ 16309
物体 16307
依法 16295
赛 16293
即@@ 16288
至今 16282
彼此 16272
索 16271
１ 16265
游@@ 16263
总干事 16262
> 16260
是从 16245
净额 16244
声@@ 16237
想@@ 16222
天气 16221
关 16220
刚 16220
塞 16215
0 16207
代 16198
in 16196
南方 16176
到@@ 16168
真实 16163
深 16157
当事方 16145
安全部队 16130
海上 16116
等等 16107
所说 16101
同事 16093
快@@ 16079
望 16077
在线 16073
独@@ 16072
细节 16066
家里 16065
选@@ 16064
列为 16061
发行 16059
清除 16059
定为 16050
算法 16050
内部监督 16047
从未 16046
日子 16044
选民 16044
侵略 16043
食 16037
进度 16005
忽视 15990
奥巴马 15988
所在 15988
赢得 15983
计 15981
万人 15979
因特网 15964
有点 15963
成效 15960
打开 15958
岛屿 15952
标题 15951
韩国 15940
九@@ 15934
泰@@ 15922
最为 15914
世 15912
105 15909
里面 15907
实验室 15902
革命 15898
恩@@ 15895
做@@ 15894
差别 15875
发展权 15869
周 15868
铭记 15867
面积 15867
降@@ 15865
色@@ 15858
109 15855
庆祝 15855
V@@ 15842
萨尔瓦多 15830
这件 15827
由此 15817
首要 15811
对付 15809
杀伤 15800
时刻 15797
T 15794
监察 15785
首@@ 15781
该法 15779
部@@ 15779
相当于 15778
发给 15775
多哈 15758
算 15757
结 15756
必需 15749
所得 15749
1988 15747
退化 15738
穆斯林 15736
对策 15720
永久 15718
简@@ 15713
交 15709
捷克共和国 15702
政权 15694
年初 15693
祝贺 15683
编辑 15673
爆发 15672
@ 15667
情绪 15665
作出贡献 15660
常规武器 15660
杜@@ 15658
提起 15656
登记册 15656
生产总值 15655
动员 15654
化学武器 15649
纠正 15648
尼加拉瓜 15646
压 15645
航空 15636
所有权 15634
草坪 15630
流行 15629
症 15627
哈 15618
建@@ 15618
种种 15611
倍 15585
常 15584
脚 15583
必要措施 15581
回收 15578
哈萨克斯坦 15571
中学 15558
团队 15549
m 15530
液 15513
匈牙利 15508
转交 15508
东 15496
汉@@ 15495
第二条 15489
奥 15456
主管部门 15439
于@@ 15438
早@@ 15436
实例 15413
兹 15412
一致性 15410
大不列颠 15408
制约 15406
王 15401
战斗 15400
诺 15400
发了 15397
W@@ 15391
玻利维亚 15390
真是 15387
造@@ 15387
图像 15381
20@@ 15370
使@@ 15361
付 15355
网@@ 15355
水资源 15354
对外 15346
y@@ 15336
伟大 15324
疟疾 15324
超出 15295
探@@ 15290
提高认识 15284
只@@ 15282
箱 15278
客观 15277
覆盖 15268
封锁 15264
咨商 15261
代表性 15248
距离 15241
一词 15236
用作 15232
零@@ 15226
支柱 15215
违背 15209
息 15207
辅助 15204
时至 15203
用以 15194
朝 15179
美丽 15179
蒂 15174
撤销 15172
u 15167
形象 15167
强有力 15162
公认 15160
夫人 15158
均衡 15157
０ 15157
食@@ 15152
活 15142
回家 15141
判断 15134
迄今为止 15118
大陆 15113
招募 15113
穆@@ 15112
少年 15109
离职 15096
‘ 15090
会谈 15080
港口 15080
官 15077
印@@ 15073
军备 15072
金融危机 15062
关@@ 15056
全权 15055
地面 15050
必@@ 15049
倡导 15046
一段 15040
观测 15028
排放量 15026
种植 15022
接收 15021
编列 15015
独立性 15007
先进 15006
目 15002
解 15002
船舶 15000
迹象 14997
土@@ 14992
每周 14989
支@@ 14977
约束 14975
也门 14970
投@@ 14954
温度 14953
短@@ 14947
优化 14946
排斥 14940
视@@ 14937
灯 14936
血 14936
流程 14933
席位 14920
原来 14919
营 14917
+ 14916
办理 14913
喀麦隆 14912
十三届 14911
宏观经济 14901
自决 14901
每日 14900
负有 14894
认证 14886
侧重于 14884
电子@@ 14877
一贯 14875
判例 14871
设定 14869
脆弱性 14863
做好 14860
什 14859
记@@ 14856
成长 14850
关押 14836
㈢ 14832
河@@ 14824
形@@ 14822
答案 14821
1980 14815
半 14802
申请人 14800
台湾 14794
会晤 14772
Z@@ 14770
高效 14766
解除 14764
那儿 14744
股票 14735
白 14734
é 14718
华 14697
冷@@ 14689
减 14687
恐怖分子 14683
数据@@ 14681
及@@ 14679
恰当 14678
临床 14676
听@@ 14674
顺利 14673
钻石 14670
退@@ 14668
963 14667
网页 14662
产量 14651
0.@@ 14648
改造 14648
编@@ 14644
亲@@ 14629
谢谢 14622
底 14621
家属 14616
限于 14603
亚太经社会 14599
中华人民共和国 14595
摆脱 14591
就@@ 14587
一所 14585
坐 14582
日常 14582
强制 14581
结论性 14569
价值观 14560
高等教育 14554
吸收 14549
卖 14544
眼@@ 14539
那时 14527
同等 14526
伦@@ 14521
查 14521
喷@@ 14520
纸 14518
停@@ 14502
禁运 14493
断@@ 14488
决策者 14485
环境保护 14482
杂志 14472
领@@ 14471
技术转让 14470
污染物 14466
营地 14465
质@@ 14461
样 14455
绑架 14448
裁谈会 14446
步 14438
培训班 14435
为何 14433
保安 14432
标@@ 14430
月底 14421
新型 14418
终于 14415
短 14413
尽早 14407
毛里求斯 14406
薪酬 14405
of 14403
太阳 14402
包@@ 14398
国内法 14390
细@@ 14388
友好 14384
不错 14383
联合国大会 14380
节@@ 14373
陷入 14373
毒@@ 14353
报纸 14344
论文 14341
溴 14340
请@@ 14316
选定 14309
会费 14307
集@@ 14306
膜 14301
应由 14293
沿海 14290
期内 14282
配偶 14275
卡塔尔 14272
直至 14268
编 14268
洗钱 14266
分歧 14265
态 14263
晚 14263
份额 14258
顿 14257
公报 14255
房@@ 14255
3.@@ 14252
毛@@ 14251
循环 14250
冰@@ 14243
李@@ 14237
和平利用 14236
救@@ 14229
信息系统 14220
灵活性 14218
洗@@ 14217
青@@ 14216
谢@@ 14210
农@@ 14208
种类 14208
削弱 14196
照 14191
本法 14177
较大 14175
全球性 14167
意外 14158
版本 14151
从来 14150
术 14147
未成年人 14144
参与者 14140
留@@ 14135
负 14133
de 14127
授予 14113
分离 14102
尽量 14101
代价 14096
工作文件 14091
意@@ 14091
包容 14088
意图 14087
强制性 14083
十二届 14078
宗 14067
公园 14053
假@@ 14047
分为 14044
学术 14036
平 14029
脸 14018
单元 14015
歧视性 14007
t 14004
牙买加 14000
人物 13996
脑@@ 13996
凡 13989
国家元首 13972
机遇 13961
辐射 13960
哪里 13956
作物 13955
另有 13951
开办 13950
副@@ 13943
被占领土 13938
近期 13931
j 13922
一支 13919
医学 13919
旅游业 13910
填补 13907
想象 13905
下次 13901
增@@ 13894
增多 13894
脱离 13886
不必 13885
建 13871
过来 13870
顾客 13859
得不到 13856
言论自由 13839
雪@@ 13835
真相 13832
指称 13830
迫切需要 13829
颜色 13816
计@@ 13814
遭 13809
电子邮件 13792
复原 13786
论述 13781
物@@ 13780
调查结果 13780
要是 13770
草@@ 13764
清理 13755
初次 13748
西岸 13746
十届 13742
见到 13740
再生能源 13731
中国@@ 13729
行政部门 13722
计量 13716
华盛顿 13715
生计 13708
易@@ 13701
工作者 13700
共同努力 13697
试点 13697
含量 13696
消失 13690
后面 13686
农村妇女 13684
此次 13682
输入 13673
z@@ 13670
更改 13669
Corr 13663
丝 13656
首都 13648
卫生组织 13645
该部 13645
致@@ 13642
债权人 13641
缓慢 13633
无论是 13630
记 13622
我谨 13616
不仅仅 13611
环@@ 13609
给出 13605
张@@ 13599
政府首脑 13596
昨天 13588
几内亚比绍 13582
司长 13582
施@@ 13581
教训 13577
量@@ 13573
赞比亚 13566
和谐 13541
蒙古 13529
按@@ 13520
条文 13518
依 13511
纸@@ 13511
蒙@@ 13510
110 13507
土 13506
年前 13502
CP 13500
健全 13493
引@@ 13489
队伍 13488
人为 13483
第六条 13478
赫@@ 13478
紧@@ 13474
大小 13472
致 13468
麦@@ 13465
不当 13462
消灭 13462
局面 13460
模拟 13457
详情 13457
= 13456
管理系统 13456
越@@ 13450
马上 13437
复苏 13432
核实 13430
指导方针 13429
何@@ 13421
验证 13409
审 13405
接着 13404
中部 13398
阿尔巴尼亚 13391
本来 13386
社 13383
弄 13378
250 13374
极其 13372
程 13370
国会 13367
巴塞尔 13367
HRC 13365
套 13364
入境 13359
其次 13359
陈@@ 13352
增编 13347
民兵 13345
N 13343
常见 13341
前面 13336
犯罪行为 13335
笔 13330
暂行 13327
色情 13324
国王 13319
援引 13317
类@@ 13300
十 13298
坏 13298
委托 13298
系列 13295
计划生育 13289
I@@ 13288
留在 13284
接 13283
足以 13283
结果表明 13282
端 13278
预定 13278
收 13274
签证 13268
是不是 13265
管理层 13263
附 13263
仔细 13259
道@@ 13257
娜 13256
肉 13255
求@@ 13250
另@@ 13249
家庭成员 13249
土壤 13247
散发 13244
对方 13243
同次 13241
上次 13236
合法性 13235
除外 13231
难民营 13228
牛 13227
换@@ 13226
沉@@ 13226
基因 13224
免遭 13221
多么 13220
街 13214
优惠 13210
会见 13210
人权法 13209
落@@ 13206
运 13205
基本上 13193
新兴 13186
童工 13186
保密 13181
学科 13181
富有 13176
激励 13167
增长率 13164
建筑物 13160
买卖 13158
刚刚 13158
虫 13157
上涨 13155
下文 13149
机器 13137
成熟 13131
迫使 13131
s 13128
面向 13128
民 13124
船只 13119
人生 13115
审查会议 13115
定居点 13114
d@@ 13113
实物 13108
卢@@ 13101
` 13099
事宜 13099
互@@ 13092
动机 13091
围绕 13091
保加利亚 13088
归@@ 13083
发达 13081
抗议 13072
不罚 13070
糖 13064
人才 13060
盖@@ 13052
命 13050
枚 13039
言论 13039
活力 13037
劳@@ 13028
尚 13026
弱势群体 13026
文职人员 13025
电信 13010
否认 13005
俱乐部 13002
政@@ 13001
线@@ 12997
贵 12995
关税 12992
知情 12991
老人 12990
普及 12987
联黎 12985
安全部门 12983
技术@@ 12982
朝鲜 12977
排 12974
失望 12972
养护 12969
卷 12964
文字 12963
球@@ 12957
草稿 12956
指挥官 12945
FCCC 12937
V 12936
字@@ 12928
免受 12924
经济委员会 12923
改@@ 12914
著名 12913
http 12909
亚太 12895
添加 12895
司法部 12882
青年人 12882
无害 12873
不少 12862
六个 12858
自由化 12855
第十四条 12846
常规 12839
蒙特利尔 12835
威@@ 12833
产@@ 12829
老板 12829
习俗 12828
星@@ 12825
生产力 12820
长时间 12820
节省 12813
报酬 12810
盖 12803
熟悉 12797
玩 12793
痛 12790
冲击 12788
下述 12787
矛盾 12783
世界人权宣言 12780
次数 12777
广大 12775
地图 12774
债券 12772
所示 12768
莫桑比克 12767
此事 12766
任用 12764
含 12759
传真 12757
弗@@ 12755
起到 12751
... 12750
联塞 12745
对抗 12738
设有 12730
免疫 12726
骨 12724
户 12723
被捕 12720
开设 12716
罚款 12714
缩小 12713
剩余 12712
干涉 12708
支 12703
无效 12697
筹备工作 12682
世界卫生组织 12680
恐惧 12679
世@@ 12677
担忧 12671
发动 12669
圆桌会议 12664
承受 12664
失业率 12661
气氛 12660
编号 12638
乐@@ 12635
麽 12632
西部 12631
非正规 12629
松@@ 12625
阿尔@@ 12619
第三届 12618
邦 12618
还@@ 12614
股@@ 12608
喝 12597
害怕 12595
疫苗 12583
题 12579
有待 12578
感@@ 12575
Y@@ 12574
言@@ 12572
除@@ 12565
署长 12561
津巴布韦 12560
生育 12556
今日 12555
辩护 12555
应为 12553
想到 12550
一架 12549
步@@ 12529
受害 12513
发挥作用 12511
忘记 12511
核试验 12510
联合国秘书处 12510
冻结 12508
亿@@ 12496
分段 12491
权限 12489
爱情 12486
& 12481
U@@ 12481
市@@ 12480
姓名 12478
特权 12466
指挥 12463
菜 12454
据说 12452
巡逻 12448
树@@ 12437
睡 12437
标准化 12436
音@@ 12429
脚@@ 12428
群岛 12413
短缺 12406
广@@ 12405
布基纳法索 12404
零 12404
批款 12396
杯 12395
权能 12391
货@@ 12384
置于 12381
船@@ 12379
应用程序 12368
波动 12366
几天 12362
算@@ 12361
买@@ 12355
职@@ 12354
批 12351
收费 12351
一块 12344
举 12343
社会主义 12340
年间 12335
联合国环境规划署 12330
事务处 12329
家长 12325
施加 12325
经合组织 12321
家园 12316
第三方 12314
修复 12312
国际劳工组织 12306
能量 12305
补助金 12304
这笔 12304
不用 12301
几内亚 12291
私@@ 12289
─ 12284
味 12284
跨界 12283
看着 12282
技巧 12278
开列 12277
谨慎 12276
礼物 12273
梦想 12271
照@@ 12271
讲@@ 12271
霍@@ 12271
找出 12270
破@@ 12265
申明 12263
无疑 12261
远远 12252
所用 12250
令人@@ 12247
警@@ 12244
姆@@ 12242
射@@ 12241
一周 12240
1986 12239
班@@ 12233
特使 12232
往@@ 12229
修建 12226
洛 12217
如同 12214
此后 12213
振兴 12209
不了 12197
初@@ 12193
爆炸物 12179
截止 12172
软@@ 12165
黑 12164
周@@ 12155
着重指出 12148
机械 12147
多项 12146
支配 12146
击@@ 12141
J 12140
人均 12140
墙 12140
需@@ 12137
整合 12133
音 12133
相似 12132
存 12123
斯洛文尼亚 12121
总共 12115
风险管理 12114
CEDAW 12112
第二十@@ 12112
转向 12108
包装 12098
报表 12088
扎@@ 12084
个@@ 12083
枪 12074
4.@@ 12066
残疾儿童 12064
K 12061
un@@ 12060
中非 12058
惊@@ 12058
六个月 12056
赠款 12056
市民 12054
叶 12050
旅费 12049
毕业 12042
爸爸 12042
仪式 12035
村庄 12035
分开 12024
馆 12022
第四十@@ 12021
驳回 12006
and 12005
引入 12005
换 12005
预防性 12005
手机 12004
其后 11998
命运 11996
领土完整 11994
科技咨询 11991
职类 11991
要点 11991
当代 11990
断 11986
成分 11984
奇@@ 11983
急@@ 11981
美好 11979
缴款 11976
盟约 11973
招聘 11970
果@@ 11968
海事 11968
语@@ 11968
102 11967
恶@@ 11963
呀 11960
en 11956
等@@ 11955
商@@ 11954
斯洛伐克 11953
下跌 11951
胜利 11949
生长 11948
补@@ 11944
业@@ 11942
判处 11940
分担 11930
序言 11927
达成协议 11927
运送 11927
福祉 11913
沃@@ 11902
UNEP 11899
联邦政府 11898
九 11897
本着 11897
刑事法庭 11896
人事 11886
i@@ 11879
开采 11878
影响力 11876
一句 11873
男@@ 11869
委 11868
击 11867
多名 11867
殖民地 11863
毛额 11863
铁路 11858
韦@@ 11858
湾 11854
力求 11846
富@@ 11845
联利 11837
办@@ 11836
划分 11826
仇恨 11819
第七条 11815
乐 11814
一部 11805
普 11803
乌兹别克斯坦 11801
一座 11792
计划署 11792
不结盟运动 11791
母@@ 11789
130 11788
紧迫 11785
鸟 11784
带有 11783
欧洲委员会 11782
黑山 11778
高质量 11777
欺诈 11768
采纳 11766
速 11758
显得 11757
助@@ 11754
休@@ 11751
j@@ 11742
社会@@ 11739
伤@@ 11738
小姐 11723
输@@ 11723
红 11722
基本权利 11717
中等 11716
煽动 11713
产妇 11701
较为 11701
哦 11700
CRP 11699
弱势 11699
响 11693
读@@ 11691
回返 11690
警察部队 11685
印 11680
蒂@@ 11678
页次 11677
性虐待 11674
某一 11661
101 11658
物种 11653
镇 11653
学者 11648
奖励 11647
桑@@ 11634
防范 11634
温 11633
记忆 11628
取得成功 11626
认捐 11622
工业化 11621
诉诸 11618
清 11615
不足以 11613
颁发 11613
术语 11607
a@@ 11606
荷 11606
丁 11604
坦桑尼亚联合共和国 11604
浓度 11600
手续 11598
民警 11598
电力 11598
比额 11593
an 11591
斯特 11587
章程 11585
忙 11578
花费 11576
on 11572
提前 11572
法律文书 11571
正当 11569
不愿 11566
绝@@ 11558
必不可少 11541
政 11541
深刻 11541
大众 11538
救 11536
遗产 11532
作出努力 11531
住宅 11528
卫生部 11528
前进 11527
通用 11515
契约 11514
贝宁 11514
典型 11513
元素 11508
103 11502
核能 11499
登@@ 11491
腿 11489
CONF 11488
救助 11487
发送 11482
缴纳 11482
购置 11482
酒@@ 11482
英 11477
逻辑 11476
离婚 11475
边缘 11467
总务 11466
东耶路撒冷 11465
一人 11463
会议议程 11462
各个方面 11458
本条 11451
工作量 11448
撒哈拉 11444
之际 11437
降 11433
111 11432
咖啡 11431
呆 11429
走向 11411
漂亮 11408
标 11407
敌人 11404
管理@@ 11398
第十届 11395
国家@@ 11391
麻烦 11391
夜 11385
烟@@ 11385
客 11384
必 11384
打电话 11382
商店 11381
酒店 11378
治安 11373
大力 11371
干扰 11371
经济危机 11371
有趣 11366
送交 11365
架构 11360
耐@@ 11357
首 11352
撤回 11347
奠定 11333
副本 11322
寿命 11316
付出 11309
指令 11306
克斯 11300
了@@ 11289
104 11286
运动员 11286
运营 11286
系统地 11278
106 11276
塞族 11275
互相 11270
II 11263
赛@@ 11262
少@@ 11260
背@@ 11257
到底 11254
重组 11253
O 11249
维 11249
立 11246
消@@ 11241
大幅度 11229
居 11229
1967 11227
协调会 11224
案情 11223
耶路撒冷 11222
假如 11219
勘探 11216
谋求 11213
大西洋 11211
服 11209
网址 11208
延迟 11202
木 11188
一段时间 11180
并于 11179
中亚 11176
范畴 11174
之日起 11172
怎么样 11169
反馈 11167
塔吉克斯坦 11164
埃 11163
但@@ 11159
学家 11159
测@@ 11156
欧@@ 11151
必然 11141
麻醉药品 11140
持久性 11139
环 11139
残@@ 11138
过于 11136
联检 11134
这家 11129
代替 11128
画@@ 11127
INF 11123
办公 11120
深信 11119
皮肤 11118
尼亚 11117
品牌 11116
较@@ 11115
翻@@ 11114
和平解决 11107
矿@@ 11107
月@@ 11103
马耳他 11101
驱动 11091
圈 11090
成人 11088
中小企业 11086
增至 11086
莱 11085
人民政府 11075
退出 11075
心里 11074
资@@ 11060
会员 11056
西撒哈拉 11056
收购 11054
妇发 11050
裂变 11046
封@@ 11045
出发 11044
西藏 11043
导@@ 11036
路线 11036
一类 11035
说道 11034
牛@@ 11025
108 11013
即便 11010
尽@@ 11008
超越 11004
谈话 11003
有所增加 11000
抵达 10998
停火 10991
针对性 10989
商业@@ 10984
经社理事会 10978
正规 10973
移@@ 10968
校@@ 10961
林业 10959
渴望 10959
乱 10957
不安 10956
散@@ 10955
弥补 10952
采@@ 10948
世界贸易组织 10944
偏@@ 10943
康@@ 10941
一届 10928
德班 10928
务 10924
暴@@ 10924
叙述 10923
国际原子能机构 10918
事物 10917
曼@@ 10915
撤出 10913
服务@@ 10911
环保 10900
仅@@ 10899
喝@@ 10899
积累 10897
尊重人权 10887
联合国儿童基金会 10877
权益 10875
养@@ 10874
更多地 10871
转换 10871
不好 10867
活跃 10864
中美洲 10856
准备金 10852
可怕 10851
部落 10848
床 10847
准许 10845
1987 10839
追踪 10838
生成 10835
含义 10834
海岸 10834
东盟 10832
印刷 10832
本书 10830
感受 10827
弃权 10826
休息 10820
弹@@ 10813
辆 10808
巴林 10806
一边 10794
补编 10793
司@@ 10788
结余 10782
团长 10775
刚才 10773
n@@ 10767
明年 10763
养恤 10755
禁@@ 10751
酸@@ 10743
不受 10736
as 10734
112 10733
周年 10733
抓住 10733
第二章 10727
透过 10724
使命 10723
演讲 10722
举@@ 10721
跳 10720
迷@@ 10718
倒@@ 10715
省@@ 10712
划@@ 10709
引导 10709
第五次 10709
第四条 10708
城镇 10703
107 10699
玛@@ 10698
第三条 10698
我能 10697
愉快 10694
甘@@ 10693
低收入 10692
储备 10692
两级 10691
处@@ 10691
行动者 10688
孔 10682
寄@@ 10670
COP 10669
实 10666
三分之一 10663
尽管如此 10655
偏见 10652
证件 10649
手中 10648
骨@@ 10644
中所载 10641
杂@@ 10639
1985 10636
权威 10635
跨国公司 10632
圆@@ 10631
小额 10623
刀 10620
问@@ 10614
转化 10608
外联 10607
第五条 10606
纳米比亚 10606
骚扰 10606
绿@@ 10603
公共行政 10602
足 10602
若@@ 10601
科学技术 10599
生物@@ 10589
两位 10588
职员 10588
提倡 10585
自主 10585
送@@ 10583
校 10582
参@@ 10580
统治 10578
出色 10569
届会 10569
啦 10567
银@@ 10565
至@@ 10560
折@@ 10555
物理 10555
藏@@ 10555
营养不良 10549
着@@ 10547
组建 10547
福 10543
记住 10543
追@@ 10539
目的地 10538
考@@ 10537
影 10536
v 10535
政治@@ 10531
予 10529
体面 10528
既定 10528
致使 10526
观@@ 10514
目@@ 10509
闭会 10509
第四届 10506
减缓 10501
关键作用 10498
护@@ 10497
中文 10494
苏丹政府 10492
美国政府 10490
乔@@ 10488
承包商 10488
实在 10487
梦 10473
口译 10471
签发 10471
久 10466
南部非洲 10459
理念 10457
一片 10455
两者 10453
战斗人员 10451
遭遇 10446
耶稣 10445
z 10444
表示感谢 10439
紧密 10438
联科 10437
２ 10434
一辆 10430
X 10428
打破 10428
毫无 10428
征求 10427
将要 10424
置@@ 10414
爱沙尼亚 10411
跳@@ 10410
拉加 10405
28@@ 10395
表演 10393
激烈 10392
采矿 10391
铁 10389
确切 10387
无需 10384
视频 10383
上学 10381
之上 10379
某人 10377
路线图 10376
邮@@ 10376
经济社会 10375
跨 10373
智慧 10369
任@@ 10367
玩@@ 10364
地说 10360
吃@@ 10358
乳@@ 10357
搜索 10356
观 10355
头发 10354
阴@@ 10346
早上 10342
糟糕 10336
军事行动 10335
完美 10335
利息 10332
夜@@ 10332
袋 10332
迁移 10332
可否 10331
作家 10327
待@@ 10326
顾及 10325
宽@@ 10322
普遍性 10322
拖@@ 10320
香@@ 10311
保 10306
主导 10303
务@@ 10300
使用者 10297
160 10296
经共体 10296
看出 10295
艰难 10293
5.@@ 10291
将@@ 10289
毛 10289
p 10278
接纳 10273
警官 10271
供水 10270
h@@ 10266
还会 10266
具体@@ 10263
碎片 10262
05 10260
么 10257
团@@ 10250
遏制 10249
每一 10242
演@@ 10242
三名 10238
横@@ 10238
司法制度 10230
施工 10228
基本建设 10225
衣 10225
当作 10219
灵@@ 10219
升@@ 10213
鱼类 10210
填@@ 10209
困境 10203
天然气 10195
苦@@ 10193
摧毁 10188
演变 10188
进来 10187
龙@@ 10185
强度 10184
竞选 10181
佩@@ 10176
115 10173
140 10173
印象 10170
品@@ 10166
测定 10165
该司 10164
114 10160
巴拿马 10145
赞助 10144
看上去 10143
y 10141
到来 10135
含@@ 10134
签字 10133
负面影响 10132
已于 10131
巴拉圭 10130
联合国总部 10128
拉脱维亚 10126
认@@ 10125
犯有 10122
滑@@ 10121
欣见 10120
施行 10114
置 10112
闭门 10110
充分利用 10108
小心 10108
住所 10107
操守 10102
流入 10102
某@@ 10100
中止 10098
热情 10098
代码 10095
乐观 10087
显@@ 10087
守@@ 10086
间@@ 10085
尽力 10082
次序 10082
向前 10081
灰@@ 10064
个人@@ 10058
终@@ 10058
推荐 10053
斯德哥尔摩 10053
1982 10050
服务器 10041
非国家 10038
IDB 10037
第一章 10035
洪都拉斯 10033
统筹 10033
税务 10032
品质 10028
113 10026
化合物 10024
堕胎 10023
区@@ 10015
一个月 10011
补助 10004
鞋 10004
路上 9999
1373 9996
直升机 9996
升 9995
炎 9994
种族灭绝 9994
穿@@ 9993
麻@@ 9993
轮@@ 9991
隔离 9990
更换 9989
教堂 9984
边缘化 9981
作法 9980
分裂 9978
合作社 9978
会期 9974
所指 9971
公 9966
臭氧 9964
租赁 9958
一组 9956
衣@@ 9954
乡村 9952
桥 9952
地中海 9950
世界@@ 9949
思@@ 9948
抗 9947
硬@@ 9947
教会 9946
原籍 9945
赫 9944
余@@ 9932
双重 9932
吉 9932
构建 9921
土库曼斯坦 9916
收取 9914
粘@@ 9907
绝大多数 9907
全面禁止 9903
金钱 9903
浮@@ 9898
订约 9897
中断 9896
园 9896
便@@ 9895
29@@ 9894
存@@ 9892
检@@ 9892
一生 9890
不变 9888
登 9888
免@@ 9887
却是 9886
社会福利 9886
塞人 9882
差@@ 9875
发明 9874
海底 9874
十四届 9870
网络@@ 9866
116 9859
沙 9857
投 9854
军火 9848
有没有 9848
严@@ 9846
宣称 9842
存款 9837
原理 9836
外债 9834
法人 9832
罗姆人 9832
微 9826
优质 9822
普通照会 9822
更正 9818
齐 9817
频率 9816
此前 9811
造 9810
感到遗憾 9807
名册 9804
便于 9802
该条 9802
感情 9799
随 9798
素@@ 9797
两国 9793
租金 9790
人民币 9789
浪费 9788
木材 9781
势头 9778
旧@@ 9775
不予 9771
可行性 9770
底@@ 9769
贾@@ 9769
减免 9767
日前 9765
人体 9764
刺@@ 9764
约@@ 9763
职工 9758
人民法院 9756
外空 9754
抱 9754
斐济 9754
冰岛 9752
第三个 9748
动作 9740
聘用 9733
通货膨胀 9728
检查组 9727
立陶宛 9724
居@@ 9720
构想 9718
博物馆 9716
模@@ 9714
参观 9713
消极 9713
采取有效 9713
护照 9712
118 9706
懂 9704
幅 9702
申报 9702
王国 9701
老年 9701
仪 9693
患 9688
切 9687
根@@ 9680
几次 9679
饮食 9679
高级官员 9677
对比 9676
展览 9674
122 9672
GC 9671
写@@ 9670
篇 9665
反对派 9662
治@@ 9661
抽@@ 9656
甲@@ 9653
精确 9652
自行 9652
导 9651
领 9651
职业培训 9650
从中 9645
老龄 9641
企业家 9640
炸弹 9638
雅@@ 9638
摇@@ 9636
项下 9633
统计数字 9632
对应 9626
捍卫 9621
t@@ 9620
动议 9619
戴@@ 9618
等级 9616
the 9611
鱼@@ 9611
指责 9609
报复 9607
三次 9605
DP 9604
看作 9603
层次 9602
弹 9601
资 9597
义 9595
角@@ 9593
母 9591
夫@@ 9590
_ 9588
飞 9586
重叠 9585
一再 9584
考察 9578
传递 9571
毫无疑问 9570
风格 9564
获@@ 9559
戈@@ 9556
撤离 9555
持@@ 9554
惩处 9553
抑制 9550
去@@ 9549
要么 9548
维护者 9546
吉尔吉斯斯坦 9544
个案 9540
第九条 9539
行政@@ 9539
士@@ 9538
2.1 9536
先决条件 9535
孕妇 9535
力度 9534
款@@ 9534
教育部 9532
措辞 9531
第十@@ 9531
有时候 9528
丁@@ 9520
工程师 9520
游客 9520
撒@@ 9519
聪明 9518
调节 9518
合成 9515
争论 9512
土著人 9512
地上 9512
汤姆 9509
联海 9508
邮件 9508
果 9506
样子 9505
以南 9503
系数 9503
呈 9499
家具 9497
顺序 9497
禁毒 9493
势 9492
百 9490
国防 9489
集会 9488
s@@ 9487
混乱 9487
下载 9486
指明 9482
贸易@@ 9479
审讯 9478
试 9473
阻@@ 9473
之所以 9466
损坏 9466
目前为止 9466
严峻 9465
传染病 9464
贴@@ 9464
宝@@ 9461
附@@ 9461
净@@ 9459
挑选 9456
注意力 9456
耶 9455
6.@@ 9454
成年人 9454
一笔 9452
资讯 9452
进出口 9451
齐@@ 9450
曲@@ 9449
180 9447
耳@@ 9447
117 9442
牵头 9442
具体措施 9441
猫 9438
立刻 9436
危及 9432
】 9429
刑法典 9426
剧@@ 9424
招@@ 9422
塔利班 9408
湖 9402
配备 9400
气象 9399
电邮 9399
钢@@ 9395
捐赠 9389
119 9388
菌 9386
耶@@ 9383
09 9382
饮用水 9382
阿拉伯联合酋长国 9379
携带 9378
烧@@ 9373
作战 9372
接到 9371
初期 9370
文献 9370
布什 9369
瑞@@ 9368
非索 9367
公务 9362
惩治 9361
蓝@@ 9360
延误 9358
拯救 9358
法律事务 9348
文学 9345
司机 9344
全文 9339
多哥 9339
海盗 9339
９ 9336
默@@ 9334
阵线 9327
纤维 9324
不满 9320
刻@@ 9320
周末 9318
救援 9318
采访 9316
旅馆 9314
执法人员 9308
8.@@ 9307
修 9307
估算 9304
e@@ 9297
预警 9297
恶劣 9296
公共卫生 9293
相关性 9293
像是 9289
营@@ 9289
承@@ 9283
罪@@ 9282
卖@@ 9280
确信 9279
利亚 9278
材 9278
标签 9277
经济学家 9277
云@@ 9276
交通@@ 9276
公共政策 9276
at 9274
将军 9274
有意 9272
自由@@ 9263
看待 9262
团伙 9258
台@@ 9257
两人 9253
监控 9253
第五十九 9253
吸@@ 9251
议定 9251
勒@@ 9250
毫米 9249
刑事诉讼 9247
两份 9244
大多 9242
摆@@ 9238
献@@ 9238
公共服务 9237
展@@ 9237
戴 9233
to 9232
雪 9232
偷@@ 9228
禁令 9225
刑事责任 9220
亮 9219
西班牙语 9218
订 9218
云 9217
新闻@@ 9216
农场 9215
精神@@ 9215
救灾 9211
追加 9211
具体情况 9209
混@@ 9209
国民议会 9204
谈论 9204
害 9202
内地 9201
儿基会 9200
追究 9200
戈 9195
u@@ 9193
免 9192
千 9191
税@@ 9187
项@@ 9187
据此 9186
羁押 9185
汇@@ 9181
松 9179
实务 9178
电子商务 9177
双 9175
癌症 9172
论@@ 9167
储蓄 9166
小说 9164
莉 9161
Al@@ 9151
龙 9149
本案 9148
假定 9145
亲 9144
最多 9141
优秀 9138
军官 9134
动荡 9132
马其顿共和国 9129
变更 9128
穷国 9128
收回 9127
创业 9125
房地产 9122
无国籍 9120
Mr 9118
场合 9109
东欧 9108
今晚 9108
尊敬 9108
故意 9106
ar@@ 9103
主体 9103
放松 9103
法文 9103
然@@ 9103
三项 9099
更具 9097
提取 9092
电台 9092
垃圾 9090
销 9090
缺@@ 9088
听说 9087
几十年 9072
参加者 9072
主人 9071
朗 9071
胶@@ 9066
亲爱 9063
一大 9061
大脑 9061
弱 9056
将近 9054
火车 9054
这时 9051
信函 9050
检察长 9050
精简 9050
朝@@ 9049
U 9048
射 9046
知 9039
炉 9037
顶 9037
概况 9035
核算 9033
分至 9032
得出结论 9032
曼谷 9029
永@@ 9029
裁@@ 9027
1.1 9025
街头 9021
诗 9021
述 9017
明确规定 9011
过分 9009
兴@@ 9005
围@@ 9003
财务报告 9002
优@@ 8998
当今 8994
遗留 8991
定位 8990
一事 8986
吉布提 8986
保险@@ 8983
少女 8981
解决问题 8980
买方 8979
归 8979
城@@ 8975
边@@ 8972
茶 8971
红色 8970
理事 8966
职权 8962
谋杀 8958
第五十八 8954
筹集 8951
列举 8947
博 8946
萨摩亚 8946
放射性 8944
早日 8944
史 8939
第九届 8939
概要 8938
令人满意 8936
野@@ 8936
影@@ 8935
稿 8932
穿着 8931
股东 8928
专用 8927
警察局 8927
等于 8926
核证 8919
al@@ 8915
125 8913
内阁 8912
峰会 8912
复制 8906
裔 8906
WP 8904
一百@@ 8903
只会 8900
密 8898
服@@ 8895
用尽 8893
航@@ 8889
综合性 8886
内政部 8879
敌对行动 8879
尼日尔 8873
镜 8871
7.@@ 8870
CRC 8868
磨@@ 8868
粗@@ 8868
抱怨 8866
论点 8866
过渡时期 8866
行径 8863
身边 8862
既然 8859
种@@ 8855
清晰 8853
无人 8849
毒 8849
训研 8849
雅 8842
拨 8841
插@@ 8841
自决权 8840
制造商 8839
标记 8838
录 8836
左@@ 8834
黑暗 8833
增 8832
异常 8826
季 8822
工业@@ 8822
专利 8819
甚@@ 8818
你@@ 8813
牺牲 8812
南亚 8810
工作@@ 8808
薪 8807
适足 8807
政府部门 8802
概览 8802
9.@@ 8801
湖@@ 8800
那位 8800
书记 8798
难以@@ 8791
信念 8790
o@@ 8787
递交 8784
马拉维 8784
通道 8782
欲 8779
解雇 8777
缩短 8775
丝@@ 8774
一本 8772
圣 8772
证词 8763
积@@ 8762
x 8761
盛@@ 8756
示威 8756
卢森堡 8754
的@@ 8750
女子 8749
女生 8749
雨 8748
生境 8745
七个 8742
嘴 8742
欧洲人 8741
占有 8740
三十@@ 8736
控制@@ 8729
扎 8722
进行谈判 8716
／ 8716
摩@@ 8715
菲@@ 8715
附录 8715
复兴 8714
堡 8706
外面 8706
123 8702
与@@ 8701
准 8699
英里 8697
监@@ 8694
北方 8690
本质 8688
基本@@ 8687
纠纷 8687
辛@@ 8687
转型期 8684
区内 8683
个体 8681
扬 8680
坐@@ 8673
医@@ 8671
见解 8671
1978 8670
三分之二 8666
流行病 8662
展望 8657
散 8656
灭绝种族 8656
怀@@ 8654
回报 8652
闭@@ 8649
练习 8643
人口@@ 8640
刑事诉讼法 8640
奖学金 8640
坚信 8638
内在 8637
备@@ 8636
文职 8632
太太 8631
娱乐 8627
普查 8625
引用 8622
大会决议 8621
根除 8621
08 8620
层@@ 8617
邮政 8614
卫生@@ 8610
初 8607
原则上 8605
划界 8600
烟 8600
依@@ 8599
托克劳 8598
灵魂 8598
g@@ 8596
属性 8596
思维 8594
创 8591
善@@ 8591
见下文 8590
一会儿 8587
严厉 8587
专题讨论 8586
前任 8586
片@@ 8585
义@@ 8581
喜@@ 8580
志愿 8580
占@@ 8576
处在 8575
相互依存 8571
玻璃 8566
< 8559
二十一 8559
容 8559
an@@ 8557
借口 8556
伯 8555
贩卖人口 8552
遗传 8546
入学率 8545
卫生保健 8541
警务 8541
121 8539
无线电 8532
收养 8531
蒙特雷 8531
指派 8529
服务中心 8528
适@@ 8524
捕捞 8520
读者 8518
徒 8517
杆 8515
岩 8514
境 8512
江@@ 8512
函数 8511
隐@@ 8511
欧安组织 8508
三种 8506
故@@ 8505
奇怪 8504
无关 8503
多米尼加共和国 8498
世卫 8496
特色 8495
马达加斯加 8495
丽@@ 8494
服装 8493
为主 8489
属@@ 8489
入学 8485
茨 8484
预先 8484
1981 8482
餐 8482
申@@ 8481
剩下 8479
蔓延 8477
解释性 8475
确@@ 8473
市场准入 8470
慢 8470
流通 8470
汇款 8468
贫@@ 8467
模块 8465
配额 8465
送到 8460
情感 8455
屋 8452
型@@ 8450
球队 8448
诊所 8447
第二阶段 8443
题目 8442
规律 8437
两天 8433
丽 8431
伊斯兰会议组织 8429
所提 8428
代理人 8427
苦难 8425
展 8424
司法部门 8422
编纂 8418
大赦 8413
传 8412
继 8411
抵消 8406
07 8403
忆及 8402
获益 8400
租@@ 8392
癌 8390
支持者 8389
聚集 8388
派出 8386
频繁 8386
附上 8385
即可 8381
国际货币基金组织 8380
研制 8380
古 8379
原始 8377
延期 8376
哪个 8375
数学 8373
中将 8366
慢慢 8365
第五十七届 8365
巴巴多斯 8364
持久和平 8363
套@@ 8361
真诚 8359
数值 8357
曲 8357
2.2 8356
27@@ 8353
山区 8349
神经 8346
原料 8345
丹@@ 8343
一揽子 8341
群众 8341
小孩 8340
抵抗 8338
存储 8337
稳定性 8337
妥善 8334
改组 8330
何时 8329
.5 8325
大气 8319
文中 8317
汉 8314
助长 8312
粉 8311
1970 8310
基督教 8307
燃烧 8306
微笑 8301
玛 8301
那天 8299
武@@ 8298
自治区 8288
止@@ 8286
海洋环境 8285
突@@ 8284
【 8281
施政 8281
恐吓 8279
可见 8278
碳@@ 8276
部委 8274
原先 8272
示@@ 8271
应予 8266
破 8265
不但 8260
容@@ 8260
顺@@ 8258
种子 8253
司法机关 8252
以供 8251
区域性 8250
观众 8249
医疗保健 8247
册 8246
民族和解 8246
评注 8242
贴 8241
症状 8240
博茨瓦纳 8238
续会 8237
回合 8235
所在地 8235
b@@ 8233
借鉴 8233
透@@ 8232
卫生设施 8231
实效 8224
场地 8223
梦@@ 8220
乡 8215
处以 8213
第七届 8213
鸡 8212
第一步 8211
电池 8205
第四@@ 8202
鉴定 8197
复杂性 8194
股市 8191
链 8190
财政部 8188
坏@@ 8184
阳光 8180
病例 8176
课@@ 8172
㈣ 8166
白色 8163
粉@@ 8161
导航 8159
麻 8159
124 8158
鼓舞 8157
壳 8153
伤亡 8150
象@@ 8149
词@@ 8148
幼@@ 8145
抵押 8144
略 8144
露@@ 8140
列支敦士登 8139
v@@ 8135
季度 8132
夫妇 8131
渔@@ 8131
潮 8131
苏 8131
第三国 8129
俩 8126
友谊 8123
叶@@ 8119
幅度 8118
归还 8118
枪支 8117
而已 8114
教育@@ 8111
肉@@ 8111
友 8110
无条件 8108
纯@@ 8107
航行 8107
氟 8106
扭转 8104
住@@ 8102
WG 8100
马尔代夫 8100
空运 8099
名为 8097
审计员 8097
核不扩散 8096
次@@ 8096
节约 8092
难道 8092
01 8089
楼@@ 8089
田 8087
业已 8086
异 8085
详尽 8085
1984 8083
亲属 8076
幕 8076
优点 8072
联合国日内瓦办事处 8068
体重 8063
吹@@ 8062
载列 8062
连续性 8060
预算编制 8056
男 8055
剧 8054
劳动者 8054
ar 8053
接下来 8053
痛@@ 8052
Original 8048
富 8046
1.2 8044
洋@@ 8041
涉嫌 8041
挂 8033
认同 8028
预见 8028
尾@@ 8026
尤@@ 8025
勇气 8018
夏天 8018
狂@@ 8015
费率 8015
密度 8012
什么样 8011
究竟 8011
er 8008
无论如何 8005
充@@ 8004
军事@@ 8004
选项 8002
一群 8001
客@@ 8001
虚@@ 8001
进去 8000
接待 7997
歌 7997
付@@ 7996
听见 7994
General 7993
雇佣军 7993
深切 7991
告@@ 7990
吸引力 7987
度@@ 7986
略@@ 7986
暗@@ 7984
结构性 7984
同学 7981
138 7980
境外 7980
农产品 7977
段落 7977
评@@ 7974
邮票 7968
公告 7967
呼@@ 7965
哪儿 7960
丰@@ 7958
清洗 7958
可靠性 7957
忽略 7957
128 7954
加深 7950
直 7950
2.5 7949
内外 7949
毁 7946
06 7944
有个 7944
自动化 7939
称@@ 7937
西欧 7937
现任 7934
第二天 7934
回归 7933
矿 7933
技术支持 7932
紧 7931
借此机会 7928
关键问题 7926
违法行为 7926
各部 7920
诸多 7920
体罚 7918
平静 7917
权力下放 7916
受欢迎 7915
扫盲 7914
派@@ 7914
莫 7914
天空 7913
尚@@ 7912
第六届 7910
枪@@ 7907
适宜 7907
东南亚 7906
国内外 7905
赤贫 7904
跨@@ 7904
股份 7898
02 7890
缺点 7888
x@@ 7887
134 7884
全民投票 7884
得知 7884
微型 7882
一面 7881
火箭 7879
盐 7878
时说 7877
庭 7872
第六次 7872
经济学 7869
中所 7866
2020 7865
完整性 7863
维尔 7862
足@@ 7862
完@@ 7860
损伤 7860
淘汰 7860
自杀 7858
界限 7854
研发 7850
贝 7850
他会 7848
创@@ 7848
布鲁塞尔 7846
3.1 7845
款额 7844
信中 7841
地下 7837
庭长 7835
相结合 7832
第五届 7831
价@@ 7830
收容 7830
劳动@@ 7824
定居 7824
模糊 7824
欧洲共同体 7824
假期 7823
调查团 7822
吸烟 7821
酶 7819
回复 7817
第十一届 7816
绳之以法 7811
益处 7810
透露 7809
大概 7808
理性 7807
够 7806
153 7805
境况 7805
重大进展 7803
拿@@ 7801
海牙 7793
管道 7792
局@@ 7790
1973 7785
唱 7784
毛里塔尼亚 7782
右@@ 7780
逃@@ 7779
不可@@ 7778
盘旋 7778
集束 7777
据报 7775
封 7774
扩张 7772
留 7771
据@@ 7769
日历 7768
预防措施 7767
玻利瓦尔 7765
累 7765
出台 7762
替代品 7761
遵照 7761
卷入 7760
126 7759
电视@@ 7759
加紧努力 7758
姑娘 7757
巨@@ 7757
紧张局势 7754
席 7747
二氧化碳 7745
占据 7745
可信 7745
家伙 7743
伴侣 7742
失 7741
慷慨 7740
智@@ 7735
田@@ 7735
抱歉 7734
用水 7734
乘@@ 7733
03 7732
中午 7731
实用 7731
呼吸 7730
朱@@ 7730
想起 7728
联合国人口基金 7728
作出反应 7721
财务状况 7717
阶层 7716
155 7715
创作 7714
钱@@ 7712
孕产妇 7711
安全@@ 7702
圭亚那 7701
宁 7697
各项规定 7696
甄选 7694
笔@@ 7693
管理机构 7693
刑罚 7689
章节 7689
香 7689
不良 7688
引进 7687
苏联 7687
第五十@@ 7682
大卫 7680
帐 7680
一体 7679
陆地 7678
北约 7675
民主@@ 7675
ah 7671
军人 7670
制造业 7669
图片 7669
党@@ 7668
卫@@ 7663
伊斯兰教 7662
鲁 7662
哭 7657
承付 7654
教学@@ 7653
睡@@ 7651
购@@ 7651
性骚扰 7649
独立宣言 7649
尸体 7645
解放 7640
答 7637
荣幸 7637
English 7635
乘客 7634
无视 7632
唐@@ 7631
乱@@ 7629
侧 7628
旅客 7627
十六届 7624
译文 7624
信用 7623
补救措施 7622
报导 7619
家中 7618
系统@@ 7618
顶@@ 7611
东京 7607
127 7605
位@@ 7605
借 7605
雨@@ 7604
愤怒 7602
矿物 7599
准@@ 7595
朝着 7594
百万 7594
多地 7591
替 7590
时机 7589
总量 7588
对手 7587
累积 7587
非统组织 7586
固有 7584
1949 7578
专长 7576
极为重要 7575
对不起 7574
球员 7569
命@@ 7566
监视 7565
不可或缺 7563
毒性 7563
牙@@ 7561
端@@ 7561
运转 7558
非洲大陆 7558
细菌 7557
债 7554
躺 7550
旁 7545
苹果 7542
拍 7538
国防部 7536
不丹 7535
用语 7535
甲基 7534
w@@ 7532
系@@ 7531
纪录 7531
迫害 7531
妥协 7530
裁减 7530
违法 7530
桶 7526
聚会 7526
莫斯科 7524
庞大 7519
氯@@ 7519
环境@@ 7518
难题 7518
农药 7516
牙 7516
合约 7514
小组讨论 7514
输出 7510
兼顾 7509
航空公司 7508
幸运 7506
区域间 7504
通告 7504
2016 7501
惠益 7501
议 7500
甲 7499
同行 7494
事务司 7493
旁边 7493
脸@@ 7493
受过 7491
闲@@ 7488
感激 7487
睡觉 7486
籍 7486
客人 7485
第十九条 7484
公私 7481
背后 7480
132 7475
第八届 7475
燃@@ 7474
调集 7474
拒 7473
慈善 7471
一批 7466
早晨 7465
进而 7464
身份证 7463
衰退 7456
羊@@ 7454
致命 7454
告 7451
穿过 7451
静@@ 7451
希 7450
焦点 7450
卖方 7448
实力 7447
这使 7447
容器 7445
主持人 7442
马德里 7442
玛丽 7441
激@@ 7439
1979 7438
Distr 7438
增设 7437
生产能力 7437
业务@@ 7436
迈出 7436
钻@@ 7435
崩溃 7430
极端主义 7429
中小型 7427
称赞 7426
杰克 7425
再度 7422
民用 7420
摩尔多瓦共和国 7419
贩毒 7418
介入 7414
舞 7414
官长 7408
这部 7408
第一阶段 7406
元@@ 7405
欢@@ 7404
胸@@ 7403
彩@@ 7402
审@@ 7401
足球 7401
独立国家 7398
卡尔 7396
证@@ 7396
哪@@ 7395
流量 7395
冷 7394
课题 7392
129 7391
常用 7391
党派 7389
c@@ 7387
创伤 7386
学术界 7386
宫 7384
与会 7383
昂贵 7383
简介 7381
判@@ 7378
投标 7378
当事 7374
道理 7373
游 7371
受益人 7370
三大 7369
扶持 7369
自行车 7369
航 7368
招标 7367
警卫 7366
占领国 7363
局长 7362
八个 7361
所致 7359
无辜 7358
连同 7358
资金来源 7357
对本 7354
大国 7353
码 7353
整理 7349
令人遗憾 7343
话题 7343
上周 7341
改 7339
相一致 7337
示 7337
这两项 7335
债务人 7334
护士 7334
董事 7334
走私 7333
载@@ 7331
仍@@ 7327
各种各样 7326
135 7324
分娩 7324
追回 7324
沿着 7320
Q@@ 7319
钢 7314
经社 7313
应是 7310
第一条 7310
到期 7308
计算机@@ 7306
虽 7305
故障 7304
柱 7304
香港@@ 7304
［ 7304
胜 7302
洗 7301
潜@@ 7301
远程 7301
撒 7295
父 7289
切割 7288
阿拉伯国家联盟 7283
启@@ 7280
缴付 7280
什@@ 7276
注射 7275
同情 7274
磁@@ 7273
孔@@ 7272
圆 7270
兵@@ 7269
交往 7268
花园 7268
夏@@ 7267
泥@@ 7267
落后 7262
设@@ 7262
立法会 7261
化学@@ 7258
舍 7258
不必要 7257
133 7256
刚@@ 7256
暂定 7256
棒 7253
商务 7252
大批 7252
束 7252
栏 7252
马克 7251
首相 7248
形态 7247
忘 7247
脸上 7246
蛋白 7246
精力 7244
不让 7243
170 7239
洞 7236
共同@@ 7234
26@@ 7232
产假 7232
约翰内斯堡 7232
波多黎各 7231
暂@@ 7224
舞@@ 7224
域 7218
靠近 7216
之二 7215
悲剧 7215
伴随 7211
哥本哈根 7210
房舍 7210
1540 7208
无障碍 7206
仪器 7201
大学生 7201
第十二届 7201
充分考虑 7199
宇宙 7199
演员 7199
窗 7199
信件 7196
抢劫 7196
遥感 7193
城市化 7192
充当 7190
触@@ 7190
金融市场 7190
禁 7189
诸@@ 7189
赤字 7186
婚@@ 7185
配 7185
历史@@ 7184
征收 7183
改动 7183
妇女组织 7182
.4 7180
卡车 7180
中方 7178
法外 7178
相符 7178
样本 7174
品种 7172
］ 7172
守 7171
不确定性 7170
影片 7166
主意 7165
井@@ 7165
学员 7162
联委会 7162
赢 7162
2017 7160
扮演 7160
带到 7155
限额 7155
拆除 7151
生命权 7151
黄金 7151
窗口 7150
临 7149
坚@@ 7147
搞 7147
划拨 7146
基层 7145
几种 7140
走进 7140
三方 7139
象征 7139
固@@ 7138
托管 7137
服务业 7137
民主党 7136
法律顾问 7135
简直 7130
兹@@ 7127
CD 7126
违约 7125
阳@@ 7125
知@@ 7124
人身 7123
借@@ 7121
礼 7120
几项 7117
场@@ 7117
182 7111
公斤 7111
轻松 7110
一日 7106
吸毒 7100
效@@ 7100
体验 7093
烟草 7089
侧重 7088
治 7086
加重 7083
伊拉克政府 7081
挂钩 7081
群@@ 7081
蛋 7074
战略性 7073
天然 7071
延@@ 7071
桌子 7071
联苏 7071
陆@@ 7071
沉重 7067
141 7065
停 7063
说服 7063
加蓬 7062
众@@ 7061
孤立 7059
毕业生 7058
这会 7056
麻醉品 7055
乙@@ 7054
超 7051
误@@ 7050
不可分割 7048
号法 7048
年份 7047
好好 7042
扣押 7042
太阳能 7039
抵制 7039
迎接 7039
地名 7038
甜@@ 7037
修理 7034
动用 7034
诚实 7034
速@@ 7033
附注 7033
年来 7030
幸存者 7030
古老 7028
中央银行 7027
使人 7027
Mar@@ 7025
拜@@ 7022
闪@@ 7018
巴格达 7017
怪 7015
136 7011
地向 7011
错@@ 7010
戈兰 7009
自信 7008
流动性 7007
隔@@ 7006
保护措施 7003
宪法法院 7001
惊讶 7001
蒙 6999
英译汉 6998
关岛 6997
第五十四届 6997
犯人 6995
退 6995
明智 6994
04 6993
教育权 6992
发育 6991
大选 6989
偷运 6987
非常@@ 6987
一致意见 6986
良@@ 6985
远离 6985
可疑 6984
全国性 6983
意志 6981
望@@ 6979
链接 6978
胆@@ 6977
部件 6977
养老金 6975
院长 6975
思 6973
前所未有 6970
宽容 6968
不适 6967
各州 6965
这座 6965
卷@@ 6963
电视台 6962
TD 6954
从前 6953
131 6952
搬@@ 6952
毫不 6951
良心 6951
阵地 6951
三条 6950
长期以来 6950
延伸 6949
值@@ 6948
控 6948
浏览 6948
辞职 6948
生产率 6947
仓库 6944
健康状况 6944
拘押 6944
蔬菜 6938
剪@@ 6936
奥运 6936
信誉 6932
一篇 6931
抓@@ 6931
涉@@ 6930
借助 6928
决定性 6928
译 6926
不如 6924
市长 6923
布雷顿 6923
奴役 6920
盐@@ 6917
黑人 6917
民族@@ 6914
金融@@ 6914
隔离墙 6911
文化遗产 6910
宾@@ 6909
度过 6909
科学@@ 6909
时应 6908
缴 6908
辅导 6907
到处 6906
心中 6906
is 6901
接种 6900
不法行为 6896
迫切 6896
瓶 6895
举报 6894
百分之@@ 6894
晚@@ 6892
哲学 6891
第三章 6890
俄 6886
殴打 6886
1983 6884
新增 6879
水果 6879
购 6877
早些时候 6876
免除 6875
征得 6875
订@@ 6874
减灾 6871
不知 6869
采取任何 6868
公寓 6867
威 6867
径 6867
便宜 6862
猪 6862
判定 6858
热带 6857
浆 6853
ra@@ 6852
联网 6850
连贯 6850
1.5 6849
此案 6849
过时 6849
餐厅 6845
同性恋 6843
插入 6839
众 6838
广 6837
出席会议 6835
轴 6834
主管机构 6832
海军 6832
奖@@ 6829
年级 6828
拖欠 6827
肿瘤 6827
公共@@ 6818
羊 6818
回国 6817
联合国粮食及农业组织 6817
拿出 6814
氯化 6814
撰写 6812
大程度 6811
堂 6810
函 6806
指引 6805
延续 6801
号码 6800
险 6800
露 6799
侦查 6798
查看 6798
生意 6798
胁迫 6796
.3 6795
滚@@ 6793
煤@@ 6791
闭幕 6789
r@@ 6788
碎 6788
142 6783
可怜 6783
回去 6783
睡眠 6782
七年 6781
匹配 6781
易于 6780
斡旋 6779
杀死 6778
多边贸易 6775
之类 6772
凭 6772
最小 6772
亚的斯亚贝巴 6771
外来 6768
冰 6767
素质 6766
凝@@ 6765
量化 6763
商人 6762
怪@@ 6759
很小 6757
生产性 6757
生气 6755
遵约 6754
述及 6753
169 6752
公然 6752
负@@ 6747
泽@@ 6746
锻炼 6746
鬼 6746
液@@ 6745
被控 6744
严格遵守 6742
财@@ 6742
互助 6741
判刑 6741
势力 6741
按时 6741
蓄意 6741
梅 6740
in@@ 6738
发病率 6737
特别法庭 6737
生产者 6736
蓝色 6735
状@@ 6733
传输 6731
僵局 6731
智能 6730
欣赏 6730
不可避免 6729
深感 6729
有毒 6728
财政@@ 6727
３ 6724
仿真 6723
.2 6722
抢@@ 6722
疗法 6721
中立 6720
体内 6718
第十条 6717
调查表 6715
深化 6714
分组 6708
血液 6708
井 6706
努力实现 6706
拘禁 6706
创立 6705
海啸 6705
乔治 6702
词汇 6697
填写 6696
只不过 6695
高层 6695
下令 6692
便是 6689
源@@ 6688
形状 6686
全额 6685
替换 6684
2.3 6683
艺术家 6683
薄弱 6681
史@@ 6679
高效率 6678
3.2 6677
ad@@ 6677
经常性 6677
饼 6672
孤儿 6671
丹 6667
拟@@ 6665
备 6663
药物滥用 6663
发言稿 6661
法典 6661
疑问 6661
杰出 6660
皇家 6658
军备竞赛 6656
吸取 6650
自主权 6649
觉@@ 6649
执@@ 6648
阿曼 6648
30@@ 6647
钟 6645
高度重视 6645
号@@ 6643
科学研究 6643
第一款 6643
ch@@ 6639
龄 6639
法律@@ 6634
石油@@ 6634
黑色 6632
执行机构 6631
139 6628
众所周知 6628
遗@@ 6627
愈@@ 6626
令人鼓舞 6622
l@@ 6620
交叉 6619
谈谈 6619
弗 6618
书籍 6617
机器人 6617
硬件 6617
续@@ 6617
强劲 6615
无力 6614
物流 6612
移 6612
协商会议 6611
� 6611
编入 6610
原文 6609
佛@@ 6608
街道 6608
疡 6606
交存 6603
十二 6603
社@@ 6603
措词 6602
搞@@ 6598
石头 6597
供应链 6595
多人 6592
传感器 6591
储@@ 6590
多重 6590
通知书 6590
建制 6589
长度 6589
英尺 6587
再也 6585
当天 6585
GDP 6584
月初 6584
支撑 6582
成年 6581
class 6578
驾驶 6577
效 6576
令@@ 6575
162 6571
农 6570
赶@@ 6570
写作 6567
色彩 6567
幼儿 6566
性别歧视 6562
财务@@ 6562
第七 6561
迹 6561
通胀 6561
营销 6559
医疗保险 6558
源自 6555
订单 6554
急剧 6553
第十三届 6552
非洲人 6551
4.1 6547
百万美元 6547
增效 6545
高等法院 6545
末 6544
后代 6542
亲自 6539
附表 6539
鼠 6539
汇 6532
137 6531
小规模 6531
植@@ 6531
尺寸 6529
正面 6528
23@@ 6526
妇@@ 6526
东亚 6525
在场 6524
统@@ 6523
历史性 6520
艘 6517
á 6515
彼得 6515
暴露 6513
猛@@ 6511
联合行动 6511
紧缩 6510
许 6510
录音 6509
惠@@ 6509
贵@@ 6508
凡@@ 6499
样品 6499
甚 6498
自卫 6498
四条 6497
冷战 6496
应收款 6496
环节 6492
困扰 6490
差旅 6490
污@@ 6489
账 6489
园@@ 6488
145 6487
反复 6487
九条 6485
人工 6485
厚@@ 6483
液体 6483
.1 6479
环境影响 6478
伸@@ 6477
轨 6474
00@@ 6473
犹太人 6473
似的 6471
观看 6470
醒 6470
执行@@ 6469
忧虑 6466
身心 6465
未决 6464
空白 6464
交谈 6463
奴隶 6461
该次 6459
今@@ 6458
荒@@ 6458
虚拟 6458
am@@ 6455
亚人 6455
育@@ 6454
拉斯 6453
贯彻 6453
艰苦 6451
预审 6450
阿布哈兹 6448
尔斯 6447
审核 6446
针 6445
制备 6444
截@@ 6443
上市 6442
播放 6441
世界粮食计划署 6440
兑现 6439
护 6439
贵国 6438
保罗 6433
犯罪活动 6430
住宿 6429
# 6427
比尔 6427
讨厌 6427
久@@ 6426
同一个 6426
派驻 6425
餐@@ 6424
保持一致 6423
患有 6422
143 6420
家庭@@ 6420
恐怕 6420
f@@ 6417
有效率 6417
红十字 6415
器官 6414
可爱 6409
绝不 6409
秒 6407
约定 6407
裂 6407
暴行 6405
八届 6403
面试 6403
一向 6402
火器 6401
雄@@ 6401
央行 6398
叫@@ 6397
以色列政府 6396
此时 6395
曾@@ 6393
保养 6392
抵@@ 6392
陈 6392
技术性 6391
诉@@ 6391
心灵 6389
开车 6388
太多 6385
珠@@ 6384
现况 6383
逃离 6383
高中 6383
传媒 6381
冲 6381
答辩 6380
认知 6380
问卷 6375
相辅相成 6374
夫妻 6373
特立尼达和多巴哥 6373
复审 6370
抚养 6370
市场经济 6369
征税 6369
荣誉 6368
行李 6368
江 6367
心脏 6363
水域 6363
立法机构 6363
Q 6362
中央@@ 6362
决@@ 6362
航班 6362
鹿特丹 6362
冈比亚 6361
交易所 6359
锁 6359
敬@@ 6357
第六十六 6356
吃饭 6353
推翻 6350
帮@@ 6348
厚 6347
at@@ 6346
ou@@ 6346
找@@ 6346
年内 6345
心情 6344
统计资料 6344
氧 6339
致力 6339
努@@ 6337
里程碑 6336
扶贫 6335
144 6334
校长 6334
祖@@ 6334
谱 6333
工程@@ 6332
承担责任 6332
多方 6328
严肃 6326
1960 6324
板@@ 6320
伊斯坦布尔 6319
深度 6317
限制性 6317
哥@@ 6315
相互作用 6315
弹性 6314
刘@@ 6313
无数 6313
省份 6313
日常生活 6309
而定 6308
针@@ 6308
撞 6307
饭 6306
巴哈马 6305
er@@ 6303
居留 6303
民政 6302
研训 6302
帕 6301
敲@@ 6301
乘 6299
弱点 6298
220 6297
冠军 6296
各省 6296
探测 6296
灯@@ 6296
大使馆 6295
防御 6287
早就 6285
宣读 6283
岸 6283
考 6283
刺 6282
支票 6282
货币基金 6282
着眼于 6281
An@@ 6279
忍受 6278
点击 6278
罢工 6278
拥挤 6275
门口 6275
后裔 6274
级@@ 6273
146 6271
一把 6271
歌@@ 6271
饮料 6271
11@@ 6270
测 6269
呈现 6268
结构调整 6268
牛奶 6267
巴布亚新几内亚 6265
噢 6262
第八条 6262
桥梁 6261
率@@ 6261
暴力事件 6260
莱索托 6260
省级 6259
选择性 6259
多元化 6257
胜@@ 6257
学位 6255
拍卖 6255
面包 6254
解散 6253
涂@@ 6252
种群 6252
高达 6252
财政年度 6251
W 6250
平等权利 6250
国有 6248
上班 6245
兴奋 6245
似 6244
列表 6244
句子 6244
1000 6239
战略方针 6238
直布罗陀 6238
抛@@ 6236
社会保险 6236
社团 6236
勤 6233
官@@ 6233
频 6233
刑事犯罪 6230
谈@@ 6230
强制执行 6229
艇 6228
舒适 6226
战略规划 6225
传达 6223
尽量减少 6223
详细资料 6220
肇事者 6219
被害人 6219
搜查 6217
谢 6216
公式 6215
同步 6214
屠杀 6214
民航 6214
飞离 6214
管理部 6213
参议院 6212
便利化 6211
体育@@ 6210
人会 6209
往来 6209
背 6207
家族 6206
消耗性 6202
声援 6201
译@@ 6201
淡@@ 6200
开罗 6198
季节 6196
隆 6196
注销 6194
25@@ 6192
差不多 6192
征@@ 6192
汲取 6192
索取 6191
从不 6190
在职 6190
保护区 6189
资讯科技 6188
受益者 6186
运输@@ 6183
扫描 6182
常任理事 6181
所起 6181
暗示 6181
人选 6180
莉@@ 6179
拆@@ 6178
157 6177
保险公司 6176
发电 6174
分区 6170
爬 6167
大麻 6164
166 6163
土著居民 6160
宣@@ 6160
小册子 6159
部长会议 6159
剂量 6158
５ 6158
检 6156
外汇 6155
管理工作 6155
147 6154
1975 6154
岗位 6154
承包者 6153
和平部队 6152
防护 6151
限@@ 6150
驻@@ 6150
否定 6147
怕 6146
孤@@ 6145
发动机 6143
源于 6142
下滑 6139
合办 6139
man 6138
觉 6138
控@@ 6136
飞越 6136
负面 6135
交易@@ 6134
勇敢 6134
洪水 6134
没什么 6133
235 6132
变量 6132
苦 6132
操@@ 6131
战胜 6129
产品@@ 6127
答应 6127
愿景 6124
作证 6120
1974 6119
发展@@ 6118
晶@@ 6118
电路 6118
密切相关 6117
生物武器 6115
变为 6113
基线 6107
约会 6106
脱 6106
尤为 6104
两周 6102
欧元区 6102
民主化 6102
软 6101
软件@@ 6101
筹备会议 6100
教材 6095
发展部 6094
弄@@ 6094
进攻 6094
新闻稿 6093
池 6093
地质 6092
喜爱 6091
学年 6091
潜能 6089
见面 6089
156 6087
环境卫生 6087
广场 6086
揭示 6086
老挝人民民主共和国 6086
第二十届 6084
迈@@ 6084
演 6083
丧生 6082
去世 6079
跨部门 6078
震惊 6076
前后 6075
余留 6074
获准 6074
貌 6074
习惯法 6069
第二十三届 6069
存放 6068
开心 6067
裁撤 6064
惊人 6061
分项 6059
富裕 6059
发表意见 6057
综述 6057
以免 6055
六年 6055
式@@ 6055
我方 6052
话@@ 6052
盈余 6051
战略目标 6050
振@@ 6050
步伐 6048
访 6046
婚 6041
给@@ 6041
必要条件 6038
节日 6037
第十二条 6036
保卫 6033
多方面 6033
薄@@ 6031
劳 6027
附有 6025
一间 6024
冒 6024
刀@@ 6024
承办 6024
犯罪者 6024
考验 6024
拨@@ 6023
柜 6023
所定 6021
捕鱼 6021
第四章 6019
识 6018
重计 6018
景@@ 6017
en@@ 6016
坦@@ 6016
二苯醚 6015
犯@@ 6015
筒 6015
念 6014
传送 6013
危险废物 6011
冒险 6007
游泳 6007
隆@@ 6007
da 6006
早已 6006
供给 6005
应力 6004
氢 6004
营业 6003
中欧 6000
原件 6000
防 5998
军方 5995
定性 5995
禁产 5995
塑料 5994
视角 5994
晋升 5989
沙特 5989
不利于 5988
混凝土 5988
赋权 5986
联合国安全理事会 5985
人口普查 5984
胶 5983
妈 5982
纵@@ 5982
鲜@@ 5981
PV 5980
市镇 5979
遮@@ 5979
村@@ 5978
距 5978
重量 5978
媒介 5976
投资@@ 5975
毒素 5975
突破 5974
很长 5973
爆 5971
近来 5971
演出 5970
组件 5970
讲座 5967
传染性 5966
不停 5965
私有化 5964
大臣 5962
书记官 5961
151 5960
Re@@ 5958
依赖于 5956
外界 5956
玩具 5956
批@@ 5955
铲除 5955
新闻界 5954
曲线 5954
注入 5954
筹@@ 5953
徒刑 5952
最低工资 5950
财力 5949
额@@ 5949
出口@@ 5948
走上 5947
土地利用 5946
诱@@ 5946
疗效 5945
相互@@ 5945
成千上万 5944
这点 5944
雇佣 5943
教练 5938
心理@@ 5936
草拟 5934
油价 5931
录@@ 5929
波恩 5929
毁坏 5928
某种程度 5926
CO 5924
ka 5924
ć 5922
咱们 5922
活性 5922
附带 5922
一颗 5921
三天 5920
避孕 5918
亮@@ 5913
肠 5912
国家计划 5911
构造 5910
ag@@ 5909
is@@ 5909
斗 5909
懂得 5907
日刊 5907
女工 5906
加紧 5905
大会堂 5905
 5904
简短 5903
二级 5901
泛@@ 5900
泡沫 5900
不明 5899
铜 5899
一个@@ 5898
族群 5898
桩 5897
缔约 5896
吻 5893
154 5886
万名 5884
策划 5882
劳动法 5877
公职人员 5876
放缓 5876
轻 5876
210 5875
不清 5875
应计 5875
总局 5875
王子 5871
厨房 5870
泡 5869
技@@ 5868
委@@ 5867
西撒 5864
坦桑尼亚 5863
顿@@ 5863
舍@@ 5862
杀@@ 5860
窗户 5857
日后 5856
2.4 5855
4.2 5855
安全性 5855
对照 5855
几位 5854
喊 5853
煤 5852
350 5850
震@@ 5850
婚礼 5849
线路 5849
日程 5848
继续加强 5847
注明 5845
展现 5844
竞争性 5844
合理化 5843
电脑@@ 5841
贷@@ 5841
安盟 5840
挖掘 5840
北美 5839
免于 5838
有形 5836
侵权行为 5834
仅限于 5830
司法程序 5830
谋@@ 5829
大厦 5828
158 5827
装饰 5827
嗯 5825
港@@ 5825
床@@ 5823
舒@@ 5822
152 5820
实况 5820
148 5819
中央政府 5819
产物 5819
欧 5819
实时 5818
般 5816
初始 5814
专 5813
性健康 5812
奈@@ 5811
关键因素 5810
强行 5809
第二期 5809
街@@ 5808
24@@ 5807
拍摄 5807
联合国贸易和发展会议 5803
文盲 5802
反而 5801
第六十 5801
一并 5800
穆罕默德 5800
缩@@ 5798
恶 5792
上去 5790
阵 5789
p@@ 5788
倾@@ 5787
编码 5786
盘@@ 5784
汽油 5782
含水层 5779
切实有效 5778
饮水 5778
受到限制 5777
漫@@ 5776
希族 5775
岩@@ 5772
不起 5771
内心 5771
巡@@ 5771
指望 5771
末@@ 5771
金融服务 5771
上限 5770
PC 5769
杜 5769
河流 5769
舱 5769
保人 5768
149 5767
it@@ 5762
定价 5760
礼@@ 5756
祖国 5756
估值 5754
十七届 5754
定稿 5751
宽 5751
纯粹 5750
小计 5749
规格 5748
造林 5748
隐藏 5748
後 5747
十二@@ 5744
所知 5744
270 5743
一台 5743
硫@@ 5743
领事 5743
251 5742
不限 5742
市场@@ 5742
干净 5742
骑@@ 5740
局部 5738
总计 5738
大致 5737
推定 5737
旋转 5736
破坏性 5736
胃@@ 5735
on@@ 5734
前途 5733
大于 5733
审视 5733
漫长 5733
练 5733
无须 5731
南北 5730
裁判 5730
市政 5728
总之 5727
疯狂 5725
第七章 5725
叫做 5724
四十@@ 5724
在此期间 5724
审批 5723
外交政策 5721
扭曲 5720
克里@@ 5719
扫@@ 5718
艰巨 5715
教徒 5714
亿元 5713
发电机 5712
申请书 5712
自豪 5712
第七@@ 5710
老鼠 5709
也就是说 5704
八条 5704
天内 5703
西班牙文 5703
急性 5702
催@@ 5700
飓风 5699
经由 5696
银行@@ 5696
长远 5694
把握 5693
奉 5692
糖尿病 5692
上网 5691
资发 5690
190 5688
基础教育 5684
季@@ 5682
谨@@ 5681
í 5680
收获 5680
螺@@ 5680
下届 5679
同期 5679
无可@@ 5679
金伯利 5679
沮丧 5678
保护@@ 5677
摩加迪沙 5676
下属 5674
创意 5673
1977 5672
都@@ 5672
1961 5671
第二节 5670
院@@ 5670
信用证 5669
误解 5669
健康权 5668
脑 5668
嫌疑人 5665
节余 5665
高速 5664
函件 5663
出入 5662
这句 5662
1971 5660
挥@@ 5660
激发 5660
颗 5660
埋@@ 5657
屈@@ 5656
以使 5655
灌@@ 5651
III 5650
资源分配 5650
际 5650
161 5648
联阿 5648
押 5647
英格兰 5647
瘤 5646
一节 5645
澳门 5645
各项措施 5642
一同 5641
红十字国际委员会 5641
表决权 5639
十周年 5638
操纵 5638
漂@@ 5638
不敢 5635
显而易见 5635
培训中心 5634
宗教信仰 5633
创造性 5632
南斯拉夫联盟共和国 5631
特许 5631
太空 5630
牧师 5630
沉 5629
系统性 5629
出身 5624
评 5624
联络小组 5623
社交 5621
革新 5621
休假 5620
扣 5620
科技@@ 5620
ak@@ 5618
不论是 5618
胺 5618
手里 5617
铀 5617
走廊 5616
信息@@ 5614
监督机构 5614
俄@@ 5611
新生儿 5611
视觉 5611
杀人 5610
卢 5609
苏格兰 5606
第二项 5605
表述 5605
规 5604
讲述 5604
垄断 5601
灭@@ 5601
竞赛 5601
请愿 5601
挤@@ 5600
谷 5600
大陆架 5599
讯 5598
该处 5598
理事国 5597
届满 5596
树木 5596
发票 5595
Y 5592
尾 5592
原有 5590
纽@@ 5590
原子 5588
乔 5584
殖民主义 5581
商标 5580
基石 5580
密码 5580
多元 5577
座位 5577
昨日 5572
普遍存在 5570
贸易协定 5569
史密斯 5567
七条 5565
阿拉伯语 5565
应收 5564
氏 5564
灭 5564
受援国 5563
ha@@ 5560
冒@@ 5560
日向 5560
购物 5559
妮 5558
毫无@@ 5558
第二款 5558
谋 5558
频@@ 5558
226 5557
细 5556
英语@@ 5556
仆人 5555
脂肪 5553
送给 5553
坎@@ 5552
列报 5551
耐心 5551
智力 5550
盛 5550
杰 5549
脊@@ 5548
树立 5547
饭店 5547
联大 5546
师@@ 5545
逾期 5545
出庭 5544
被判 5544
六条 5543
独联体 5543
240 5541
停留 5541
仲裁庭 5539
欠 5539
据估计 5538
特派 5536
生日 5536
势@@ 5533
在家 5533
布朗 5532
红十字会 5532
el@@ 5531
保护环境 5531
提高效率 5529
耳 5528
载入 5527
m@@ 5525
定居者 5522
陪同 5522
竞争法 5520
英镑 5520
控制系统 5518
乡@@ 5517
监护人 5516
须@@ 5515
全力支持 5513
绝 5513
分析师 5512
密集 5512
降至 5512
默 5511
促 5509
不同于 5508
新喀里多尼亚 5508
医药 5507
行政长官 5507
童@@ 5506
灵 5505
过多 5503
急需 5502
本周 5502
茶@@ 5500
一声 5499
魔@@ 5499
es@@ 5498
检查站 5498
至迟 5497
雷达 5497
活着 5496
之友 5495
内战 5494
相处 5494
累@@ 5493
路径 5493
已知 5490
欲@@ 5490
吞@@ 5489
跨越 5489
万元 5487
增大 5486
案@@ 5486
减至 5485
繁@@ 5485
摩纳哥 5484
污水 5483
拿到 5482
严重性 5481
总收入 5481
英雄 5480
风暴 5480
鲍@@ 5480
审计报告 5478
报价 5478
时所 5478
移植 5476
参与性 5474
铜@@ 5474
估价 5471
湖区 5471
真理 5471
怀 5469
善 5467
科摩罗 5467
结核病 5467
钥匙 5466
交流信息 5465
朗@@ 5465
神圣 5465
长大 5464
八年 5463
创收 5463
宁@@ 5463
州@@ 5463
盒 5463
基伍 5459
夏季 5458
疑@@ 5458
餐馆 5458
本项 5457
腹@@ 5456
侦察机 5455
列明 5455
大声 5455
自然@@ 5454
邻居 5454
回忆 5453
控告 5451
哥 5450
文档 5449
业主 5443
条中 5443
牵@@ 5443
采集 5443
交通运输 5440
特别强调 5440
进出 5440
废料 5439
这条 5437
星期六 5435
管理员 5435
非盟 5434
履约 5433
慢性 5433
壁 5432
激光 5432
贫民窟 5432
1976 5430
主义者 5430
赖@@ 5430
继@@ 5429
∶ 5427
一对 5427
例@@ 5426
重新@@ 5423
料@@ 5422
争@@ 5421
逃 5421
自治@@ 5420
莎 5420
欣@@ 5419
PRST 5417
瓜 5416
表示满意 5412
鼓@@ 5412
镇压 5411
毁灭 5409
服从 5408
浪 5408
佛得角 5407
豆@@ 5405
为本 5402
人称 5402
大纲 5402
汁 5402
野 5401
走出 5400
储备金 5398
疼痛 5398
精度 5398
尿@@ 5397
履行职责 5397
as@@ 5396
终身 5396
法制 5394
208 5393
or 5393
黄 5393
Mu@@ 5392
古代 5389
技术咨询 5388
头上 5385
为例 5383
159 5382
X@@ 5380
五名 5380
总会 5379
特有 5379
菲 5379
六种 5378
医务 5378
聚 5378
re@@ 5376
随函 5373
儿@@ 5372
湿@@ 5371
眼前 5371
继续执行 5371
迟@@ 5371
屏幕 5369
1.3 5368
舒服 5368
日志 5367
缺 5367
九个 5364
唱@@ 5364
旁@@ 5364
缝 5364
无意 5362
192 5361
性行为 5361
浓@@ 5361
头脑 5360
新鲜 5358
时光 5358
过渡政府 5356
出资 5353
一根 5352
余 5352
志愿者 5352
欺骗 5350
口粮 5349
大胆 5349
阀 5349
湿 5348
消费量 5346
氧化@@ 5345
流域 5345
像@@ 5341
土族 5341
平行 5340
海运 5340
范@@ 5340
撤消 5338
公主 5337
峰 5337
组成员 5337
尖@@ 5336
严重威胁 5334
堆 5333
禁试 5333
合金 5330
.6 5329
联索 5328
致函 5328
蛇 5328
抓 5327
该股 5327
国家主权 5326
臭氧层 5326
控制措施 5325
研@@ 5324
器@@ 5322
3.3 5321
IS@@ 5321
圣诞节 5321
生产@@ 5321
表示遗憾 5321
迷 5320
50@@ 5317
槽 5315
祝 5314
肌肉 5314
范例 5314
贯穿 5314
情节 5313
转达 5313
专注 5312
血管 5312
规@@ 5309
总督 5307
前者 5306
201 5304
生育率 5302
露出 5301
志@@ 5300
故 5300
温暖 5300
冬天 5298
总的来说 5294
该案 5292
折 5291
差额 5290
日本政府 5289
不行 5287
国情 5287
我愿 5287
众议院 5286
重债 5286
仿佛 5285
两倍 5283
浸@@ 5283
165 5282
值得注意 5282
敌方 5282
隐私 5279
一新 5277
ov 5275
第一份 5275
荡 5274
菜@@ 5272
勤@@ 5271
缩 5267
极其重要 5265
选票 5265
硬 5264
春天 5263
拉特 5261
波黑 5261
政治家 5260
230 5259
多久 5257
传染 5256
贝尔 5256
毕竟 5253
等到 5253
打死 5246
ac@@ 5245
功@@ 5241
春@@ 5240
岩石 5238
大门 5237
标识 5237
全新 5235
浅@@ 5235
少量 5233
承 5232
缓 5231
制成 5229
舞台 5229
刑 5228
四名 5228
审慎 5228
当年 5226
教室 5224
椅子 5224
沙漠 5224
妹妹 5221
导向 5221
建筑@@ 5220
明星 5220
越境 5220
扔 5219
检讨 5217
沿 5215
历 5213
1972 5212
前体 5211
辞 5211
意识形态 5210
ST 5209
扬@@ 5209
货运 5209
汇集 5207
审前 5206
性格 5206
提示 5206
分工 5205
味道 5204
分成 5203
怎么办 5203
销@@ 5203
主管机关 5200
简易 5200
登记@@ 5199
评级 5199
捕@@ 5197
时尚 5197
第八 5197
务实 5196
公营 5195
景 5193
相称 5193
车队 5192
字母 5189
程@@ 5189
il@@ 5188
集装箱 5187
肯 5186
习@@ 5185
侵入 5185
腰@@ 5185
单个 5184
目睹 5183
美洲国家组织 5183
参见 5182
闻 5181
多万 5180
情景 5180
条所 5180
事例 5179
货币政策 5179
马丁 5177
不上 5176
伪造 5176
扣除 5173
推 5168
沃尔@@ 5168
里斯 5168
阻挠 5168
行星 5167
稍@@ 5165
反叛 5164
颇 5164
最高@@ 5163
伯利兹 5162
佳@@ 5161
逊 5159
幻@@ 5158
录像 5158
劲 5157
名叫 5156
透 5155
永久性 5154
内政 5152
帮忙 5150
戏 5149
专业知识 5148
例句 5148
宜 5147
平方米 5147
维奇 5147
分阶段 5146
文化@@ 5146
信用卡 5142
累计 5141
一次性 5139
上来 5136
效能 5135
肥@@ 5134
银 5133
am 5132
不太 5132
义务教育 5132
复合 5132
挺 5132
宝 5131
撤@@ 5131
解放军 5130
炮 5129
ad 5128
野生 5128
扶@@ 5126
概括 5125
芬@@ 5125
二条 5124
淡水 5124
热线 5124
167 5123
第一项 5122
艺术@@ 5121
核对 5118
沉默 5118
程序性 5118
260 5117
役 5117
缺口 5116
罪名 5116
税率 5115
协@@ 5114
滴 5114
怒 5112
是@@ 5111
逃避 5111
最长 5110
实习 5109
213 5108
毫不@@ 5108
废@@ 5107
临@@ 5106
飘@@ 5106
余地 5102
两家 5100
粒 5099
哥哥 5098
址 5098
否决 5097
禁毒署 5097
ab@@ 5096
肯@@ 5096
5.1 5093
担@@ 5093
舆论 5093
189 5091
乌 5089
每届 5088
di@@ 5087
经营者 5087
切实可行 5086
界面 5086
等国 5084
营造 5084
牧@@ 5081
结算 5080
损 5079
筛选 5079
地下水 5076
利害关系 5074
床上 5073
全民 5072
琳 5072
总产值 5071
诚@@ 5071
中为 5070
接口 5070
机密 5070
美联储 5070
183 5068
SC 5068
这名 5068
平等待遇 5067
封闭 5066
更是 5065
豪@@ 5064
瑞 5062
ri@@ 5060
三角 5060
简称 5059
挂@@ 5058
敌对 5057
磨 5054
拓展 5051
㈤ 5049
绝望 5049
室内 5047
联络点 5047
被告人 5047
变形 5046
第二十四届 5046
175 5045
搬迁 5045
兵力 5044
印度洋 5043
横向 5043
Sa@@ 5042
诚意 5042
项目管理 5042
销售@@ 5041
惩戒 5039
四分之一 5038
携手 5038
集合 5038
特区 5036
申请者 5036
242 5032
敌 5032
东欧国家 5031
警 5031
优先权 5030
提问 5029
浅 5027
奉行 5026
Ar@@ 5025
保守 5024
奶@@ 5024
三年期 5022
蛋白质 5022
此基础 5021
院校 5021
os 5020
炮@@ 5019
es 5018
夹@@ 5018
残酷 5018
荣@@ 5018
埋 5017
深表 5017
差旅费 5016
扫雷 5016
211 5015
一代 5015
正好 5015
之处 5013
最早 5013
敢 5012
刊登 5011
短暂 5011
奉@@ 5010
结成 5010
供其 5009
名誉 5009
此处 5009
起飞 5009
周一 5007
裁 5007
一处 5006
名词 5006
一杯 5005
烧 5005
牢@@ 5004
黄色 5004
保管 5003
164 5002
原本 5002
第二十六条 5002
管理制度 5001
结构@@ 5000
付给 4999
户@@ 4997
冠@@ 4996
希尔 4996
届时 4995
里奥 4994
播@@ 4993
宣告 4992
缉获 4992
事务局 4991
汽@@ 4991
幸@@ 4990
共和党 4989
校园 4989
划 4988
商业银行 4988
排列 4988
温和 4988
锡@@ 4988
牲畜 4986
均@@ 4985
止 4985
键 4985
地板 4984
判 4982
研究生 4982
地为 4981
振动 4979
跟@@ 4979
检索 4977
启用 4973
ir 4972
拐@@ 4971
监护 4969
方程 4968
既有 4967
舰 4967
迈克尔 4966
不动产 4965
醇 4965
险@@ 4961
宗@@ 4960
寻@@ 4960
避@@ 4960
恰@@ 4959
着重于 4959
手指 4958
魅力 4957
火灾 4956
租 4956
就此结束 4952
一遍 4951
人民@@ 4951
息@@ 4950
探 4950
种族隔离 4950
5.2 4949
上半年 4949
臂 4948
索偿 4947
获释 4946
赖 4946
163 4945
介绍性 4945
办公@@ 4942
廉价 4942
贿赂 4940
商品价格 4939
XV 4938
一阵 4938
第七次 4937
在外 4936
帐@@ 4936
增值 4935
伏@@ 4934
育 4934
称之为 4932
目光 4930
以求 4929
国际金融 4929
划定 4928
争 4927
制度化 4927
离子 4927
联络处 4924
227 4922
不时 4921
阿拉伯人 4918
来讲 4917
四周 4916
职司 4915
般的 4915
酯 4914
173 4913
天使 4911
第六十@@ 4911
建成 4910
扩@@ 4910
驻科 4910
能源@@ 4907
发表声明 4906
有何 4906
构成威胁 4906
例外情况 4905
刊 4905
售 4905
可取 4904
la 4903
租用 4903
俗@@ 4901
竞@@ 4900
咨询机构 4899
紧急状态 4899
通往 4899
人家 4898
队员 4898
农业部门 4896
总裁 4896
海域 4896
深远 4895
第十七条 4895
适用范围 4895
之害 4893
几 4890
命名 4890
或非 4890
先例 4888
署@@ 4887
辩护律师 4887
递 4887
承运人 4886
Ma@@ 4884
掩盖 4883
薄 4883
倍@@ 4881
污 4881
某项 4878
帽子 4877
阿拉伯文 4877
迁@@ 4875
172 4874
不合理 4874
第六十九 4874
ay@@ 4873
ra 4873
昨晚 4873
武装力量 4873
ya 4872
无法@@ 4871
恨 4870
一层 4865
艺 4865
骂 4865
欧洲@@ 4864
折磨 4863
整 4863
独自 4863
此一 4862
汤@@ 4862
跟着 4861
数百万 4859
登记处 4857
签署国 4857
少于 4855
限定 4853
麦 4852
猜 4851
射击 4848
工作日 4846
乃至 4845
定型 4845
机理 4842
铅 4841
菌@@ 4840
急 4839
悲惨 4839
白宫 4839
该科 4839
伴 4838
民法 4838
熟@@ 4838
赤道几内亚 4836
ti@@ 4835
具@@ 4835
更高 4835
腔 4835
出境 4830
执政 4830
牌@@ 4830
异议 4829
农业@@ 4828
受损 4828
负担得起 4828
我来 4827
爵士 4827
生产商 4826
Bar@@ 4825
奴隶制 4824
昏@@ 4824
道歉 4824
轻易 4823
检疫 4821
庭@@ 4820
悲伤 4818
模板 4818
借贷 4817
十个 4817
票@@ 4817
熊 4816
请问 4816
保留意见 4815
酒吧 4815
汇总 4814
贝鲁特 4813
下落 4811
泵 4810
做些 4808
创造条件 4808
激动 4807
径@@ 4806
祈祷 4806
管理者 4806
参议员 4805
合作项目 4798
糖@@ 4798
交换意见 4797
阳 4795
完全符合 4794
皇@@ 4794
已婚 4792
第五章 4791
转运 4791
发生变化 4789
168 4788
个性 4788
第九 4787
轴@@ 4787
充分@@ 4783
天主教 4783
积压 4783
苏里南 4783
弃 4782
单身 4779
斯威士兰 4779
占用 4778
结果显示 4778
第四十九届 4777
韩@@ 4777
凡是 4776
各届 4775
词语 4774
页面 4774
姐姐 4773
结社自由 4773
休 4772
退休金 4772
记载 4771
叛乱 4769
船上 4769
团聚 4767
无罪 4766
萨赫勒 4766
诗@@ 4766
氧化 4765
负有责任 4763
数码 4762
钟@@ 4761
调解人 4760
图表 4759
大家庭 4759
瑟 4758
骄傲 4757
构@@ 4756
速效 4756
节能 4755
内向 4753
猎@@ 4752
酮 4752
一枚 4750
塞浦路斯共和国 4750
程序@@ 4750
零售 4750
尖 4747
鼻@@ 4745
信仰自由 4743
无权 4743
第一批 4743
出示 4741
双手 4741
汤 4739
精神药物 4738
陪伴 4738
重大贡献 4737
原谅 4735
国政府 4735
愚蠢 4735
虚假 4735
神秘 4734
com 4733
互利 4733
产权 4733
保育 4733
稀@@ 4732
大力支持 4731
榜样 4731
局限于 4730
第三节 4730
248 4729
议案 4729
升高 4728
拼@@ 4728
放到 4728
高昂 4728
巧克力 4727
父@@ 4726
那边 4726
雷斯 4726
宪政 4724
裂@@ 4724
沃 4723
自然人 4723
符号 4720
经典 4720
返@@ 4720
防扩散 4720
垂@@ 4718
行列 4713
镇@@ 4713
封信 4712
薪水 4712
太阳@@ 4711
弱@@ 4711
浓缩 4711
171 4710
新政府 4707
反过来 4706
焦@@ 4705
财务管理 4705
价格@@ 4704
戒@@ 4704
Ch@@ 4703
先后 4703
座@@ 4703
消防@@ 4703
统计局 4703
两类 4701
千克 4701
盈利 4701
搬 4700
起点 4700
一章 4699
IV 4695
多达 4695
擦@@ 4695
渐渐 4695
偶尔 4694
跑@@ 4694
吓 4693
家务 4692
开枪 4692
几周 4690
极度 4690
崇高 4689
账@@ 4689
以色列国防军 4688
慢@@ 4687
剑 4684
英国@@ 4684
轰炸 4684
缓和 4683
业界 4682
不准 4681
原告 4681
伦理 4680
取缔 4678
引擎 4678
搭@@ 4678
法律依据 4677
耳朵 4676
说出 4676
鸡@@ 4676
堆@@ 4675
检查@@ 4675
最具 4674
衰@@ 4673
礼貌 4672
不定 4671
月球 4669
漏@@ 4669
电流 4669
房地 4668
本函 4668
碰到 4667
巴勒斯坦国 4666
到位 4665
脉@@ 4665
ba 4664
认 4664
段@@ 4663
肤色 4663
议会选举 4663
帝国 4662
交货 4661
全氟 4661
凉 4661
地理信息系统 4661
恋 4661
高校 4658
准确性 4657
排名 4657
８ 4657
森@@ 4656
模 4656
随之 4656
调查员 4655
选手 4652
174 4649
零件 4649
生病 4648
185 4647
继续下去 4646
下放 4645
顾 4645
４ 4645
庄严 4644
容量 4642
西非国家 4642
1969 4640
一大@@ 4640
住户 4640
骑 4640
会计师 4638
小国 4638
拍@@ 4638
十一 4637
发布会 4636
售@@ 4636
复 4636
侵蚀 4635
一案 4632
健@@ 4632
犹太 4632
应立即 4631
ó 4630
缺席 4630
以致 4629
罐@@ 4629
其管辖 4628
开来 4628
泽 4628
灰 4627
界@@ 4626
超级 4626
宿@@ 4624
趋@@ 4624
好象 4621
1.4 4619
街上 4619
Dec 4618
随意 4617
玉米 4616
遇@@ 4616
件@@ 4615
注@@ 4615
1951 4614
兑换 4613
分割 4613
拜 4613
折扣 4612
问道 4611
阿卜耶伊 4611
一艘 4608
初等教育 4608
民事@@ 4607
侮辱 4606
公共汽车 4606
3.5 4605
安静 4605
防卫 4604
转入 4603
熟 4602
及早 4601
合计 4601
访谈 4601
会面 4600
吹 4600
广阔 4599
联发援 4599
赞@@ 4599
抛弃 4598
在一起 4597
遥远 4597
都市 4597
战士 4596
马拉 4595
啤酒 4594
法郎 4594
生理 4594
214 4592
阅 4591
股权 4590
树林 4588
童 4588
职业@@ 4588
力图 4587
单词 4587
哈利 4584
惨@@ 4584
评审 4582
金融体系 4582
锡 4582
预备 4582
增列 4581
注视 4580
噪音 4579
干燥 4579
联格 4579
非洲统一组织 4579
外勤人员 4578
应于 4578
男童 4578
两大 4577
顺 4577
坦克 4576
动脉 4574
基本法 4574
签 4574
生殖器 4573
邻@@ 4573
el 4572
并入 4572
框 4572
所能 4570
公共秩序 4568
无限 4567
运费 4567
戏@@ 4566
下表 4564
压迫 4562
前来 4561
国防军 4561
鸿沟 4561
坐下 4559
贬值 4559
里克 4557
RC 4556
最有 4555
法医 4555
预报 4554
援 4553
放置 4553
每人 4553
第五@@ 4553
定量 4550
百分点 4550
进口@@ 4550
卵@@ 4548
它@@ 4545
想想 4545
雾 4544
安全措施 4543
途 4543
食用 4543
灾后 4542
翼 4542
危@@ 4541
索引 4541
水泥 4540
消极影响 4539
资源@@ 4537
通行 4536
静 4536
战术 4535
自我@@ 4535
洞@@ 4533
糟 4533
一轮 4530
控诉 4530
思路 4529
再生 4528
摆在 4528
沿@@ 4528
缓@@ 4528
2.6 4527
补 4527
计算@@ 4527
各个领域 4526
误差 4526
压缩 4525
与非 4523
扣@@ 4523
似@@ 4520
罐 4520
人员编制 4517
假日 4517
181 4514
追查 4514
中等教育 4512
绕 4511
低下 4510
发性 4510
腾 4510
读书 4510
技术人员 4509
格局 4509
ch 4508
圣卢西亚 4508
增添 4508
ia 4507
微生物 4506
4.5 4505
受伤害 4505
摸 4504
部位 4504
实际@@ 4503
符合@@ 4503
缝@@ 4502
历@@ 4501
九年 4500
失效 4500
机会均等 4499
小组会议 4497
中应 4496
宫@@ 4496
出缺 4494
中介 4493
溶@@ 4493
北非 4492
肠@@ 4491
访问团 4490
熔@@ 4489
挑@@ 4485
瞧 4484
缩减 4484
腐@@ 4483
干什么 4482
所罗门群岛 4482
本港 4482
罗伯特 4482
农发 4481
下半年 4480
殖民 4480
误 4480
扩充 4479
除此之外 4478
克林顿 4477
博客 4477
序列 4477
斑@@ 4475
热烈 4475
提供者 4473
彻底消除 4472
调用 4472
利益冲突 4471
应从 4471
精 4471
灌溉 4470
191 4469
普遍认为 4469
杨@@ 4469
笑@@ 4469
管理处 4467
不符 4466
忠诚 4466
空气污染 4466
许@@ 4466
186 4465
关键性 4465
教廷 4464
验@@ 4464
一倍 4463
制剂 4463
策 4461
4.3 4460
吊@@ 4460
美属 4460
薪资 4458
生物学 4457
联保 4457
习 4456
柔@@ 4456
聘请 4456
即决 4455
调度 4455
屋@@ 4454
184 4451
偿付 4451
瓦努阿图 4451
研究者 4451
核设施 4450
感染者 4449
所称 4449
177 4448
荷@@ 4448
安慰 4447
判处死刑 4446
刷 4446
廷 4444
兼@@ 4443
东非 4442
有效期 4442
政策措施 4441
造福 4441
丢 4440
第十九届 4440
囊 4439
斯特@@ 4439
九龙 4438
喀布尔 4437
志 4437
建立联系 4433
迎@@ 4433
下达 4431
坡 4431
北极 4430
四项 4430
外交@@ 4430
链@@ 4430
尊@@ 4429
In@@ 4427
双语 4426
夜晚 4426
壁@@ 4425
律 4425
碎@@ 4425
偏离 4424
伏 4423
其所 4423
桌 4423
法律法规 4423
炉@@ 4423
穷@@ 4423
联合体 4423
公开@@ 4420
斗@@ 4420
查验 4419
基督 4418
si@@ 4417
汽车@@ 4417
事务所 4416
奋@@ 4416
市区 4416
最少 4415
视听 4414
加共体 4413
精算 4413
薪@@ 4411
人身安全 4410
改良 4409
第八@@ 4409
股价 4408
RES 4407
纹 4407
德尔 4406
祝福 4406
银行业 4406
码头 4404
178 4403
Sub 4401
233 4400
就算 4398
币 4398
有所改善 4398
法律义务 4398
电话@@ 4397
那次 4397
De@@ 4395
幻想 4395
肢 4393
坚实 4392
割@@ 4391
海水 4391
在实践中 4390
不顾 4389
决策@@ 4389
牌照 4388
跳舞 4388
公顷 4387
滑 4386
电器 4386
杂 4385
第纳尔 4385
低估 4384
四方 4384
现代@@ 4384
450 4383
动性 4383
吓@@ 4383
汗 4382
组织@@ 4382
香港特别行政区 4380
寒@@ 4379
珍@@ 4379
重新考虑 4378
奖金 4377
酒精 4377
寻常 4376
从业人员 4375
动词 4375
船长 4375
这张 4375
EC 4374
你好 4374
决不 4374
每当 4374
稳步 4374
学费 4373
各不相同 4372
教育领域 4372
时常 4372
破裂 4372
领先 4372
q 4371
图瓦卢 4371
乘坐 4370
使用权 4370
数年 4369
战略@@ 4368
熟练 4367
奶 4366
死去 4365
既@@ 4364
五条 4361
225 4360
手工 4359
英国人 4359
关系@@ 4358
断定 4357
全都 4356
微软 4356
县级 4354
等候 4354
218 4352
开关 4352
靠@@ 4352
肾@@ 4351
do 4349
协 4348
府 4348
坑 4346
欧共体 4346
轻微 4346
187 4345
大屠杀 4345
育儿 4344
岛上 4342
报名 4342
刻 4341
惠 4340
天基 4339
六月 4338
民用航空 4338
― 4337
碰@@ 4336
评委 4335
相关者 4333
刑@@ 4332
神经@@ 4332
搜寻 4331
略有 4331
之地 4330
晚餐 4329
率为 4329
一番 4328
引 4328
个人资料 4327
中说 4327
派别 4326
使该 4325
逐字 4325
第十一条 4324
付诸 4323
委任 4320
Car@@ 4319
佳 4318
执行官 4318
开辟 4317
是非 4317
深深 4317
户主 4315
机械@@ 4315
精神病 4315
罗姆 4315
会议厅 4313
律师协会 4311
抵触 4311
覆盖面 4311
违@@ 4311
饭@@ 4311
CMP 4309
商品@@ 4308
接管 4308
详细情况 4308
研究员 4307
一般来说 4306
巧 4306
总署 4306
枝 4306
儿童@@ 4305
得益于 4305
拥@@ 4304
隧道 4302
占领军 4301
寄 4301
旗 4301
176 4300
只好 4300
拖 4300
版@@ 4300
206 4299
谷歌 4299
不住 4298
公职 4298
度假 4297
东方 4296
积 4296
流失 4294
研究@@ 4293
祝愿 4293
村民 4292
案子 4292
安南 4290
规划系统 4290
培育 4288
当今世界 4287
第十五届 4287
联伊 4287
陪 4287
分支 4286
对称 4286
旅游@@ 4285
监察组 4285
墨@@ 4284
敏感性 4284
犬 4284
空军 4284
哈马斯 4283
奋斗 4283
海洋生物 4283
199 4281
不结盟 4278
多于 4278
乐意 4275
架@@ 4275
妻 4274
征 4272
丑 4271
拔@@ 4271
城乡 4270
202 4269
心脏病 4267
诞生 4267
它会 4266
克制 4265
预警系统 4265
亨利 4264
俗 4264
邻近 4263
Su@@ 4262
水中 4262
未成年 4261
电讯 4261
另一方 4260
外聘 4260
年龄组 4260
煤炭 4260
期限内 4258
档 4258
对面 4257
罗斯 4257
发生率 4256
缴@@ 4254
Mo@@ 4253
援@@ 4253
一期 4250
参考@@ 4249
有望 4248
比较@@ 4248
夺@@ 4247
歌曲 4247
母婴 4247
凶@@ 4246
处理@@ 4245
颗粒 4245
丢失 4244
逾 4244
全人类 4243
坛 4243
开启 4243
文物 4243
长久 4243
一封 4241
冬季 4240
德斯 4240
罩 4240
陷 4240
ic@@ 4238
地球@@ 4238
墙上 4238
逆@@ 4238
广告@@ 4237
焦虑 4237
国民经济 4236
炼@@ 4236
牙齿 4235
天堂 4234
法律效力 4234
平均@@ 4232
198 4231
增订 4231
尚待 4231
废 4231
十五 4230
信息管理 4228
二零零@@ 4227
理学 4227
第十六届 4227
ta@@ 4226
因子 4226
大学@@ 4226
混合物 4226
反应堆 4225
庆@@ 4225
版权 4225
im@@ 4224
旅@@ 4224
评定 4224
有所不同 4223
元首 4220
令人担忧 4219
公司@@ 4219
新建 4219
上校 4218
国际性 4218
子弹 4217
废水 4216
随机 4216
一度 4214
加勒比地区 4214
迁徙 4214
二十年 4212
声誉 4211
统一@@ 4211
入口 4210
见证 4209
介@@ 4208
207 4205
– 4205
监督管理 4205
卫生部门 4204
匮乏 4203
完毕 4203
弹道导弹 4203
穷 4203
第六@@ 4203
察 4202
加倍努力 4201
宾 4200
阿里 4200
充分发挥 4199
千美元 4198
性取向 4198
此举 4198
员@@ 4197
194 4196
铺 4194
.. 4193
丧@@ 4193
极了 4193
阿鲁沙 4192
如上 4191
怒@@ 4191
杂项 4191
走过 4191
欢乐 4190
规范性 4190
戏剧 4187
稳 4186
综管 4186
韦 4186
提出申请 4185
析 4184
电视节目 4184
责 4184
搜集 4183
秋@@ 4183
玻璃@@ 4182
知名 4182
243 4180
灾难性 4180
零部件 4180
乎 4179
逐@@ 4179
商业性 4178
暗 4178
伯爵 4177
半数 4177
泉 4176
演习 4176
借款 4175
第十五条 4174
装运 4173
节点 4172
宗教自由 4170
移动电话 4170
体育运动 4167
代表大会 4166
佛 4165
审案 4165
222 4164
铝@@ 4163
摸@@ 4162
外籍 4161
爬@@ 4160
叛@@ 4159
孤独 4159
挫折 4159
柏林 4159
布林迪西 4156
新年 4156
贝尔格莱德 4153
205 4152
欺@@ 4151
典礼 4150
减排 4150
听证会 4150
卓越 4149
经济衰退 4149
成本@@ 4148
段时间 4148
高出 4147
烤@@ 4146
乐队 4145
效用 4143
７ 4143
服务提供者 4142
涅@@ 4142
喜 4141
氯 4141
６ 4141
冠 4139
夜间 4139
倾听 4138
年会 4138
束@@ 4138
小麦 4137
审定 4136
193 4135
塞舌尔 4135
洪@@ 4135
188 4134
石棉 4134
米尔 4133
英联邦 4132
son 4131
夏 4131
布什总统 4129
时效 4129
见本 4129
全力 4128
生活@@ 4128
错过 4128
ga 4127
ro@@ 4127
肌@@ 4126
上个月 4125
炸药 4125
第十七届 4125
充实 4124
控制权 4124
摘@@ 4124
高风险 4123
1963 4122
以至于 4122
观察@@ 4121
阔 4121
指导@@ 4120
1325 4119
Bo@@ 4118
限期 4118
讨@@ 4116
始@@ 4115
滋@@ 4115
警务人员 4115
全年 4114
果断 4113
生命@@ 4113
经济合作与发展组织 4113
不见 4112
偶然 4112
兴奋剂 4112
第一年 4112
功率 4111
听众 4111
垫 4111
存货 4111
竟然 4111
争辩 4109
历来 4109
汉语 4109
间隔 4109
陶@@ 4109
209 4108
ani 4108
比重 4108
电压 4107
肝@@ 4106
学到 4105
围 4103
谷@@ 4103
大鼠 4102
此人 4102
一款 4101
赛季 4101
产业@@ 4100
余下 4099
订购 4099
屋顶 4098
人心 4097
升值 4097
纯 4097
驶@@ 4097
悲@@ 4096
有机@@ 4096
擦 4095
跨境 4095
ana 4094
平方公里 4093
摆 4093
未曾 4093
亿人 4092
数百@@ 4092
机票 4092
议@@ 4091
饰 4091
Ali 4090
it 4090
南极 4090
聘 4089
狼 4088
驱@@ 4088
暖 4087
竞争对手 4087
何处 4086
始于 4086
执照 4086
青 4086
检察 4085
洲 4085
男生 4085
一头 4084
医 4084
瓦尔 4084
纺织品 4084
3.4 4083
考绩 4083
179 4082
萨米 4082
进化 4082
奥林匹克 4081
联合声明 4081
干部 4080
强加 4080
踏@@ 4080
漏洞 4079
现阶段 4079
竭尽全力 4078
佐@@ 4077
拘留所 4077
新生 4075
196 4074
所得税 4074
教科书 4074
人道 4073
积极@@ 4072
维生素 4072
转为 4072
市政府 4071
湿地 4070
喂 4069
符合国际 4069
点钟 4067
迫@@ 4066
所处 4064
采 4064
分支机构 4063
午餐 4063
游行 4063
调拨 4063
和平@@ 4062
跌@@ 4062
容纳 4061
帽 4061
就职 4059
面谈 4059
从来不 4058
即时 4057
嘉@@ 4057
运动@@ 4057
Ro@@ 4056
多余 4056
概@@ 4056
母语 4055
卸@@ 4054
候 4052
现时 4052
磅 4051
课堂 4051
海峡 4050
迈进 4050
处长 4049
压制 4047
奇迹 4047
SBI 4046
伤残 4045
AR@@ 4044
一整套 4044
涨 4044
马尔@@ 4044
友@@ 4043
壮@@ 4043
第四十八届 4042
Z 4041
均匀 4041
大城市 4041
序 4041
第十八条 4041
翻修 4041
预料 4041
喀土穆 4040
0.7 4039
原材料 4037
席@@ 4037
碱 4037
寡妇 4036
紫@@ 4036
还给 4036
氛围 4035
蓝 4035
外交官 4034
畅@@ 4032
迟到 4032
道德@@ 4032
教员 4031
根据上述 4030
葡萄酒 4028
善意 4027
孙@@ 4027
柯@@ 4027
for 4026
5.3 4025
一览表 4025
来信 4024
悬@@ 4022
无限期 4022
公正性 4021
勾@@ 4021
必将 4020
腺 4020
营运 4020
203 4018
大厅 4018
败@@ 4018
军用 4016
总协定 4016
染 4016
过后 4016
密切联系 4015
疏@@ 4015
频道 4015
极少 4014
终 4014
Le@@ 4011
摩 4011
不该 4010
千万 4010
延 4010
情报@@ 4010
持续增长 4009
表情 4009
留给 4008
原油 4007
有序 4006
不佳 4005
拒@@ 4005
纷纷 4004
见表 4003
部族 4003
280 4002
与否 4002
起因 4002
ES 4000
肩@@ 4000
阴影 4000
q@@ 3999
第十八届 3999
缘 3999
贵方 3997
事后 3996
五岁 3996
克莱@@ 3995
本土 3995
单纯 3994
敌军 3994
匠 3992
科研 3992
耗@@ 3992
检查和 3991
221 3990
＿ 3988
228 3987
橡@@ 3985
服兵役 3984
遍 3984
幼儿园 3983
弟弟 3983
界线 3983
根本原因 3980
橡胶 3980
邪恶 3980
武 3979
学业 3978
短语 3978
乐趣 3977
窃@@ 3977
诽谤 3977
分解 3976
彩 3975
条约法 3974
弥@@ 3970
法律咨询 3970
要说 3970
ul@@ 3969
稍 3969
昆@@ 3967
医务人员 3966
后期 3966
负荷 3966
＊ 3966
241 3965
姿态 3964
盯 3964
丙@@ 3963
水道 3962
窗@@ 3962
脂 3962
204 3960
两架 3960
玉@@ 3960
吸入 3959
渔船 3959
同盟 3958
骗 3958
旅 3956
洁 3956
总人口 3955
牢固 3955
绘制 3955
流向 3954
不去 3953
会计@@ 3953
角度看 3953
防空 3953
日趋 3952
负责管理 3952
国家机关 3951
晚些时候 3951
抵 3950
高峰 3950
多边条约 3946
空调 3946
翻 3945
主教 3944
三级 3943
株 3943
仰@@ 3942
开发@@ 3942
赚 3942
暴 3941
鼻子 3941
解放@@ 3940
不然 3939
答@@ 3939
样@@ 3937
阵@@ 3937
俄国 3936
亟需 3935
辈 3935
顾@@ 3934
休会 3933
患@@ 3933
挖@@ 3932
催化剂 3931
基金组织 3931
驾@@ 3931
布拉@@ 3930
识字 3930
记入 3928
该段 3927
挑衅 3926
IN@@ 3925
交流经验 3925
195 3924
捐@@ 3924
中向 3921
换句话说 3921
相连 3921
尔德 3920
递@@ 3920
大气层 3919
无线 3919
签@@ 3919
舞蹈 3919
覆盖率 3919
闹 3918
决 3915
景观 3915
柱@@ 3915
生活水准 3914
营养@@ 3914
上级 3913
否 3913
矿业 3913
持有人 3911
航运 3911
237 3910
谨向 3908
越过 3908
轮胎 3908
Ab@@ 3907
否决权 3907
轰@@ 3907
周二 3906
12.@@ 3904
赔偿金 3904
鼓掌 3904
一门 3903
选举法 3902
公共安全 3901
变暖 3900
淡 3900
票据 3899
关节 3898
大自然 3897
庇护所 3897
挑战性 3897
移民局 3897
那条 3897
钉 3897
领导层 3897
6.2 3895
容许 3894
蓄@@ 3894
非线性 3894
Me@@ 3893
一封信 3893
学历 3892
最快 3891
高等 3891
事务@@ 3889
纪@@ 3889
光明 3888
辩@@ 3888
堪@@ 3887
尺度 3887
拨出 3887
益@@ 3887
重大@@ 3887
DNA 3886
us@@ 3886
午@@ 3886
百慕大 3886
除名 3886
桌上 3884
铝 3884
产科 3883
电缆 3883
忧@@ 3882
力学 3880
尘@@ 3880
此刻 3880
殿 3879
铺@@ 3879
捍卫者 3878
洋 3878
流感 3877
野蛮 3876
卡拉 3874
安娜 3874
11.@@ 3873
CAT 3873
族@@ 3873
扶养 3872
承包 3872
磷 3871
弯@@ 3870
相等 3870
过高 3870
改革方案 3868
出国 3867
生于 3867
加州 3866
216 3865
向上 3865
大宗 3865
塑造 3864
法例 3862
2.7 3860
太平洋地区 3859
授@@ 3859
五月 3857
噪声 3857
玫瑰 3857
缅甸政府 3857
215 3856
暗杀 3856
血统 3856
疑 3855
鬼@@ 3855
or@@ 3854
海滩 3853
响@@ 3852
掌 3852
设计师 3852
一月 3850
兽 3850
遥@@ 3850
吐@@ 3849
抚@@ 3849
站@@ 3849
贪污 3849
Di@@ 3848
纳税人 3848
诗人 3847
ina 3845
伪@@ 3845
保护法 3845
骗@@ 3845
刑事案件 3844
可卡因 3844
行为人 3844
半岛 3843
广义 3843
肿 3842
烤 3841
us 3840
回避 3840
激素 3840
侵权 3839
改正 3839
消费@@ 3839
访问期间 3839
266 3838
斜@@ 3836
粒@@ 3836
碰撞 3835
MISC 3834
符 3834
施 3833
6.1 3832
安提瓜和巴布达 3832
第十四届 3832
烦恼 3831
赔偿额 3831
互补 3830
举动 3829
医疗@@ 3829
行政助理 3829
人质 3828
马拉@@ 3828
Sha@@ 3827
外资 3827
皆 3827
绳 3827
鞋@@ 3827
丘@@ 3826
共同利益 3824
保护主义 3823
炮弹 3823
生态@@ 3821
推销 3820
柄 3820
热爱 3819
散步 3818
查访 3818
微妙 3817
并发症 3816
绕@@ 3816
圣经 3815
无所@@ 3815
烈 3815
疲劳 3815
但须 3814
动乱 3814
劫持 3814
联合@@ 3813
已获 3812
起着 3811
四月 3810
察@@ 3810
小男孩 3810
查尔斯 3810
矩阵 3810
挽救 3809
易受 3809
这部分 3809
传统@@ 3808
总经理 3808
春 3808
牢 3808
磷@@ 3808
269 3807
197 3806
总体@@ 3806
众人 3805
形容 3805
敬意 3805
愚@@ 3804
厄@@ 3803
年度预算 3803
肥 3803
小小的 3802
洁净 3802
灰色 3801
狗@@ 3801
泰 3800
芝加哥 3800
信息中心 3799
日报 3798
浪漫 3798
所有者 3797
经济援助 3797
剥夺权利 3796
妇人 3796
标明 3795
覆@@ 3795
准入 3793
动力学 3793
替代性 3793
监测@@ 3793
而成 3793
定向 3792
原定 3791
备用 3791
早餐 3791
大为 3790
研究成果 3790
串@@ 3789
融@@ 3789
棉@@ 3788
碗 3788
而来 3788
肥胖 3788
学习@@ 3785
口袋 3784
备件 3781
赤@@ 3780
非法行为 3780
一刻 3779
一九九@@ 3778
交由 3776
当务之急 3776
宜@@ 3775
袭 3775
助 3774
尼斯 3774
明确指出 3772
绿 3772
锁@@ 3772
253 3771
水源 3771
阿拉木图 3770
International 3769
不良@@ 3767
根深蒂固 3767
通货膨胀率 3767
期刊 3766
押@@ 3765
id@@ 3764
物项 3764
航天 3764
出差 3763
办公厅 3763
坦 3763
各项政策 3762
简历 3762
金沙萨 3762
南美洲 3761
十三 3760
泥 3760
不止 3759
反对党 3759
所在国 3759
氟@@ 3759
um@@ 3758
厕所 3758
块@@ 3758
直辖市 3758
芬 3758
住区 3756
外长 3755
id 3754
om@@ 3753
化管 3753
阿克拉 3753
加热 3752
狮子 3752
不可逆转 3751
兑 3750
三月 3749
清真寺 3749
炸@@ 3749
变性 3748
野生动物 3748
反驳 3747
巨额 3747
带给 3747
言语 3747
基会 3745
废止 3745
硫 3745
联席会议 3745
功 3744
俄文 3743
增幅 3743
琼斯 3743
味@@ 3742
弯 3742
LA@@ 3741
司法部长 3741
人中 3740
家乡 3740
柏@@ 3740
法定@@ 3740
化石 3739
终结 3738
稳@@ 3736
蛋糕 3735
出口国 3734
每一项 3733
粒子 3733
反思 3732
气象@@ 3732
ICCD 3730
发展局 3730
33@@ 3727
按钮 3727
测试@@ 3727
感到高兴 3725
账目 3725
好几个 3724
星期天 3724
膏 3724
愿@@ 3723
棉花 3723
空前 3723
凯 3722
商用 3722
长期存在 3722
中旬 3721
制服 3721
休闲 3720
打印 3720
一分钟 3719
电话号码 3718
40@@ 3717
Am@@ 3717
帕劳 3717
报销 3717
著作 3717
海关@@ 3716
海湾 3716
减弱 3715
伟@@ 3714
光盘 3714
公海 3714
摄影 3714
百姓 3714
氮 3713
眠 3713
兴 3712
棘手 3712
专业@@ 3711
258 3710
sc 3710
失衡 3710
准予 3708
咖啡@@ 3708
缘@@ 3707
专业化 3706
拉姆 3706
撕@@ 3706
4.4 3705
发生冲突 3705
年纪 3705
忠实 3705
格林纳达 3705
梁 3705
异性 3704
礼拜 3704
联东 3704
贸易谈判 3704
担负 3702
解读 3702
交战 3700
途中 3700
恒@@ 3699
惊奇 3697
并行 3696
th@@ 3695
优良 3695
各政党 3694
私人@@ 3694
天体 3693
克隆 3692
早婚 3691
穿越 3691
人能 3690
安道尔 3690
序@@ 3690
热量 3690
iz@@ 3689
组织法 3689
谦@@ 3688
最终目标 3687
竟 3687
渗透 3686
la@@ 3685
令人不安 3684
欠@@ 3684
管理制 3684
代表权 3683
仲裁员 3683
合伙 3683
威廉 3683
价格上涨 3682
左 3682
瓜@@ 3682
白人 3680
开幕式 3679
排定 3679
激情 3679
无家可归 3677
反洗钱 3676
服用 3676
树脂 3676
高速公路 3676
巴厘 3675
砖 3675
枯@@ 3674
预订 3674
几分钟 3673
抵销 3673
三维 3671
写信 3669
尘 3669
社会工作者 3669
一眼 3668
毫克 3668
360 3667
变换 3667
周边 3667
就业@@ 3667
第一节 3667
结核 3667
一幅 3666
中型 3666
寒冷 3666
被动 3663
1948 3662
音乐@@ 3662
意向 3661
访@@ 3661
起初 3661
中毒 3659
善政 3659
进一步提高 3659
包裹 3658
时才 3658
有过 3658
陆军 3658
术@@ 3657
热点 3657
夸@@ 3656
宏观 3656
欠款 3656
硅@@ 3656
宁愿 3655
起源 3655
上课 3654
集体@@ 3654
仅为 3652
图书 3651
汤加 3650
砍@@ 3649
htm 3648
圣文森特 3647
中请 3646
冷静 3646
奔@@ 3646
主持会议 3645
表中 3644
发现自己 3643
语法 3643
麦克 3643
il 3642
密封 3642
旗@@ 3642
燃 3642
第一季度 3642
设计@@ 3642
.7 3641
收缴 3641
印尼 3640
两条 3639
氢@@ 3639
揭露 3638
联合国国际贸易法委员会 3638
女王 3637
注定 3637
积极支持 3637
绘画 3637
年里 3635
书面形式 3634
5.5 3633
合法化 3633
椅 3633
闹@@ 3633
不断@@ 3632
尔顿 3632
紧急行动 3632
调和 3632
ICEF 3631
捉@@ 3631
马舍尔 3631
保全 3630
查找 3630
亲密 3629
才@@ 3629
退还 3629
德黑兰 3628
亡 3627
场景 3626
马绍尔群岛 3626
~ 3625
接洽 3625
供应@@ 3623
君@@ 3622
集中@@ 3622
服务质量 3621
固体 3619
胜任 3619
南太平洋 3618
不出 3617
谋生 3617
迁 3617
乏 3616
相比之下 3616
警报 3616
带领 3613
桥@@ 3613
模仿 3613
诊@@ 3613
迟 3613
滴@@ 3612
避难 3612
齿 3612
四次 3611
语音 3611
吃惊 3610
多层面 3610
静止 3610
布莱@@ 3609
烦@@ 3609
空间科学 3609
精英 3609
264 3608
上将 3608
长达 3607
昂 3604
让步 3604
El 3603
外国投资 3601
悬而未决 3601
数次 3601
IT 3600
从此 3600
常任 3600
抵御 3600
桑 3600
罕见 3600
调查报告 3600
ou 3599
况 3598
动植物 3598
描绘 3598
旋@@ 3598
辩称 3598
遇见 3597
减小 3596
注册@@ 3596
CERD 3595
乍 3594
税款 3593
调查@@ 3593
w 3592
① 3592
圣诞 3592
应以 3592
集成 3592
布鲁@@ 3591
加以解决 3590
棒@@ 3590
真空 3590
垃圾@@ 3589
本章 3588
白天 3588
醉 3587
le@@ 3586
领导@@ 3586
上下 3585
备灾 3584
扇 3584
be@@ 3583
巨大@@ 3583
掉@@ 3583
卡拉巴赫 3582
IC@@ 3581
七月 3581
临时代办 3581
学术@@ 3581
过剩 3581
ap@@ 3580
演奏 3580
te 3579
发展趋势 3579
咨询@@ 3579
科菲 3578
标准@@ 3577
诚信 3577
建议书 3576
伸出 3575
水质 3575
金属@@ 3575
隔 3574
华尔街 3573
德拉 3573
数据处理 3573
第一期 3572
敏@@ 3571
焊接 3571
中是 3570
为准 3570
题@@ 3570
217 3568
三国 3568
二次 3568
吴@@ 3568
让@@ 3568
制图 3567
拉美 3567
阶级 3564
争夺 3563
妊娠 3563
工商 3563
账款 3563
垂直 3562
犯罪人 3562
医疗卫生 3561
国家有关 3561
稍后 3560
审计工作 3559
身心健康 3559
降到 3559
五十 3557
255 3556
第六章 3556
第十六条 3556
务必 3555
大街 3555
政变 3555
图案 3554
254 3553
归因于 3553
海洛因 3552
痕 3552
立法机关 3552
经营@@ 3552
选用 3552
丝毫 3551
滚 3551
252 3550
妇 3550
收缩 3550
免税 3549
珠 3549
用地 3548
跟进 3548
出口商 3547
北京@@ 3547
詹姆斯 3547
券 3546
赴 3545
格林纳丁斯 3544
狭窄 3544
姐妹 3543
仍旧 3542
236 3541
灭绝 3541
心理学 3540
战略伙伴 3540
衫 3540
276 3539
不容@@ 3539
为限 3538
住院 3538
全盘 3538
订阅 3538
遇 3538
受雇 3537
渥太华 3536
集群 3536
总体而言 3535
责成 3535
再见 3534
论证 3534
印制 3533
恐怖活动 3533
服刑 3533
柴@@ 3533
死者 3533
鸡蛋 3533
不堪 3532
尺 3531
东南欧 3530
办事 3530
差价 3530
创新性 3529
平面 3529
情事 3529
眼镜 3528
企业@@ 3527
另见 3527
专项 3526
非常任 3526
刊物 3525
态@@ 3525
科目 3525
球场 3524
运载工具 3524
旺@@ 3523
眼光 3523
223 3522
广为 3522
监督机制 3522
第四节 3522
尔特 3521
其为 3518
民族团结 3518
盗@@ 3518
偷 3517
大地 3517
大道 3517
制定者 3515
浴 3515
价值链 3514
外表 3514
屋子 3514
斯托@@ 3514
宿舍 3513
随便 3513
难度 3512
十分@@ 3511
忘@@ 3511
本月 3510
烈@@ 3510
珍贵 3510
去除 3509
开头 3509
非暴力 3509
参看 3508
低成本 3507
分在 3507
思想@@ 3507
总监 3506
265 3505
ba@@ 3505
不像 3505
意在 3504
核武库 3504
蒸@@ 3503
行人 3503
欲望 3502
永恒 3501
第二次世界大战 3501
腐蚀 3501
十九 3500
威慑 3500
改划 3500
磺酸 3500
不懈努力 3499
受访者 3499
大力@@ 3499
宿 3499
译成 3499
咬 3497
耕地 3496
两者之间 3495
计入 3495
来临 3492
特许权 3492
稳定@@ 3492
九月 3490
深海 3490
现存 3490
质量保证 3490
电源 3489
.8 3488
增加@@ 3488
游说 3488
移送 3488
雨水 3488
运载 3486
列于 3485
坚强 3485
增补 3484
川 3484
广播电台 3484
这套 3484
ko 3483
核爆炸 3483
捕获 3482
摩西 3482
普京 3482
第十三条 3481
军用飞机 3480
插 3480
禽流感 3479
代谢 3478
以内 3478
战场 3478
盆地 3478
联邦@@ 3478
乃是 3477
各次 3477
硝@@ 3476
讯息 3476
郎 3472
人发 3471
如上所述 3471
康 3471
有益于 3471
谘询 3471
删去 3470
接替 3469
相互尊重 3469
砂@@ 3469
豆 3469
可观 3468
引人注目 3468
退回 3468
期满 3467
淋@@ 3467
氧@@ 3466
纵向 3466
238 3465
全境 3464
理论@@ 3464
责任@@ 3463
借调 3462
出租 3462
摔@@ 3462
质素 3462
资深 3462
爱好 3461
车站 3461
获得成功 3460
醒@@ 3460
高频 3460
使馆 3459
偏远 3459
非核心 3459
凭借 3458
星球 3458
阿比让 3458
不易 3456
电力@@ 3456
夹 3455
di 3454
290 3452
唯@@ 3452
城市@@ 3452
沿岸 3452
财产权 3452
231 3451
232 3451
商讨 3451
跌 3451
函@@ 3450
宪@@ 3450
高度@@ 3449
交流@@ 3448
植物@@ 3448
沟 3447
高温 3447
不肯 3446
出具 3446
右 3446
车间 3446
几点 3445
持续性 3445
资本主义 3445
换言之 3444
希腊@@ 3443
涌 3443
这块 3443
邦@@ 3443
部份 3443
地铁 3442
笨@@ 3441
扑@@ 3440
摩尔多瓦 3440
若干@@ 3440
10.@@ 3439
紧急状况 3439
建模 3437
批准书 3437
牢房 3436
看不见 3436
〕 3435
掌@@ 3435
摄@@ 3435
va 3433
供电 3433
董事长 3433
连贯性 3433
郊区 3433
一是 3432
乎@@ 3432
应予以 3432
非常重视 3432
口译员 3431
岸@@ 3431
攻@@ 3430
扰乱 3429
萧条 3429
船员 3428
警察@@ 3428
辍学 3428
好事 3427
撰文 3427
纳税 3427
获胜 3427
224 3426
中所列 3426
打交道 3426
辞@@ 3426
娅 3425
偏远地区 3424
塑@@ 3422
政治化 3422
国旗 3421
复议 3421
悬挂 3421
敏 3421
显 3421
之用 3420
剧院 3420
归咎于 3420
演说 3420
稳固 3420
己 3419
公民投票 3418
栖@@ 3418
鹰 3418
出租车 3417
皮特 3417
哀@@ 3416
巡逻队 3416
无知 3416
欧洲理事会 3416
244 3415
合法权益 3415
恐怖袭击 3415
半年 3414
周三 3414
尼亚@@ 3414
Sal@@ 3413
体检 3413
刑期 3413
哨 3413
搜@@ 3413
这事 3413
2.8 3412
码@@ 3412
有无 3410
CCW 3409
1950 3408
例行 3408
普通@@ 3407
步行 3407
一时 3406
民间组织 3406
详述 3406
发射@@ 3405
生存@@ 3405
用户@@ 3403
努力提高 3402
底部 3402
经受 3402
1968 3401
刑警 3401
劳工法 3401
政客 3401
1966 3399
st@@ 3399
事实证明 3399
正常化 3399
达格 3399
逗留 3399
应享 3398
计划@@ 3398
拘@@ 3396
伞 3395
停滞 3395
威尔 3395
坠@@ 3394
葡萄@@ 3394
关怀 3393
卢萨卡 3393
心理健康 3393
作好 3392
缺失 3392
肩 3392
一律 3391
世上 3391
日渐 3390
津@@ 3390
藉 3390
清算 3389
总体目标 3388
郑@@ 3388
长者 3388
陷于 3388
徒@@ 3387
珊瑚礁 3387
荣 3387
不动 3386
辛烷 3386
246 3385
SBSTA 3385
不能@@ 3385
劣 3385
潘基文 3385
境地 3384
收藏 3384
方可 3384
清醒 3384
肌 3382
吩咐 3381
念@@ 3381
济@@ 3381
检察院 3380
述@@ 3380
15.@@ 3379
本署 3379
司法@@ 3378
表示同意 3378
ol@@ 3377
泡@@ 3377
看过 3377
247 3376
安全网 3376
丛 3375
图形 3375
欧盟委员会 3375
调控 3375
非法@@ 3375
门槛 3373
保险费 3372
冻 3372
示威者 3372
关爱 3371
箱子 3371
军事法庭 3370
平均数 3370
拜访 3370
马车 3370
GS 3369
战时 3369
连任 3369
泄漏 3367
深处 3367
定制 3366
生命周期 3366
电气 3366
et 3364
亏损 3364
该款 3364
下雨 3363
内务部 3363
现金@@ 3363
线索 3363
进修 3363
里约热内卢 3363
踢 3362
这段 3362
城里 3361
开火 3361
缩编 3361
节奏 3361
全环 3359
凸@@ 3358
架次 3358
表示@@ 3358
不及 3357
全职 3356
总值 3356
法则 3356
衬衫 3356
日止 3355
结社 3355
腰 3355
〔 3354
联布 3354
织@@ 3353
音乐会 3353
开展业务 3352
配件 3352
狂 3351
纱 3351
苯@@ 3351
战略部署 3350
触发 3350
重型 3350
1.6 3349
周四 3349
货物运输 3349
鸦片 3349
未满 3348
本合同 3348
火焰 3348
通报情况 3348
嘿 3347
气温 3347
秘 3347
外出 3346
女孩子 3345
诊 3345
输送 3345
多媒体 3344
门户 3344
付费 3343
大海 3343
责令 3343
呆@@ 3342
罪恶 3342
234 3341
感冒 3341
星期日 3339
行走 3338
看不到 3337
送往 3336
劫@@ 3335
盗窃 3335
计算方法 3335
贫困人口 3335
寻 3334
捷克 3333
3.6 3332
人事@@ 3330
幕@@ 3330
放下 3329
斯顿 3328
5.4 3327
周转 3327
馆@@ 3327
合伙人 3325
地产 3325
崛起 3325
二年 3324
局限性 3324
教育部门 3324
肖@@ 3324
议长 3324
善良 3323
性传播 3323
日益增长 3323
纪念活动 3323
非常高兴 3323
261 3322
联署 3322
肝 3320
脏 3320
分部 3319
多大 3318
不良影响 3317
求助 3317
遵行 3317
配套 3316
内涵 3315
构成犯罪 3315
火山 3315
伊丽莎白 3314
传说 3314
斯塔@@ 3314
里约集团 3314
朝鲜半岛 3312
残割 3312
ki 3311
主权国家 3311
投票@@ 3311
文莱达鲁萨兰国 3311
瑙鲁 3311
第四个 3311
伤心 3309
潮流 3309
败 3309
足额 3309
智 3308
漏 3308
葬 3308
第四十六届 3307
广播@@ 3306
陌生人 3306
不容 3305
视力 3305
饥荒 3305
一般而言 3304
光学 3303
典 3302
奥尔@@ 3302
胎儿 3301
雷曼 3301
275 3300
和平谈判 3300
幽默 3300
惠及 3300
受限制 3299
对冲 3299
750 3298
减损 3298
第三款 3298
冬@@ 3297
冻@@ 3296
悉 3296
益 3296
辩 3296
诱惑 3295
东北 3294
介质 3294
视作 3294
.9 3293
另一名 3292
萨尔 3292
率领 3291
航空@@ 3291
宣传@@ 3290
机能 3290
致辞 3290
格尔 3288
219 3287
嘛 3287
外汇@@ 3286
专家@@ 3285
款中 3285
每位 3285
320 3284
AN@@ 3284
台湾@@ 3284
斯坦 3284
周日 3283
激进 3283
谎言 3283
赦免 3283
远距离 3283
释@@ 3283
新近 3282
奏 3281
瓣 3281
逃跑 3281
预 3281
放宽 3280
同伴 3279
拔 3279
照射 3279
堂@@ 3278
早先 3278
统 3278
隙 3278
养育 3277
写道 3277
36@@ 3276
年鉴 3276
降解 3276
一股 3275
处分 3274
宪兵 3274
257 3272
可不 3272
脚注 3272
行之有效 3271
MA@@ 3270
忠@@ 3270
地理位置 3269
手臂 3269
桌@@ 3269
送回 3269
再说 3268
从根本上 3267
共存 3267
商界 3267
候补 3266
明确@@ 3266
说来 3266
尚无 3265
没错 3265
请洽 3265
来源于 3264
平稳 3263
当初 3262
亦可 3261
眼泪 3261
依旧 3260
系指 3260
index 3259
会同 3259
腺@@ 3259
闻@@ 3258
建设项目 3257
拥抱 3257
铸@@ 3257
墙@@ 3256
构架 3256
楼宇 3256
终端 3256
财政状况 3256
就读 3255
5000 3254
停下来 3254
国家统计局 3254
散布 3252
就是说 3250
栏@@ 3250
教养 3249
经纪人 3249
过滤 3249
领导者 3249
不断扩大 3248
五十周年 3248
环境退化 3248
盟 3248
好转 3247
浪@@ 3247
二者 3246
廊 3246
338 3245
主计长 3245
互相@@ 3245
姆斯 3245
实现目标 3245
高水平 3245
工作岗位 3244
le 3243
反射 3243
245 3242
参与方 3242
局局长 3242
本应 3242
Se@@ 3241
数月 3241
最低标准 3241
灾 3241
阴谋 3241
霜 3241
6.5 3240
Ad@@ 3239
不知@@ 3239
致意 3239
侧@@ 3238
信徒 3238
减去 3238
琴@@ 3238
二十 3237
公吨 3237
遗传@@ 3236
掩@@ 3235
而应 3235
海平面 3234
过失 3234
蒙受 3233
贷 3232
奥斯@@ 3231
抹 3231
月亮 3231
脾气 3231
一切@@ 3230
公共事务 3230
冷却 3230
水面 3230
肺 3229
自由贸易 3229
利用率 3228
囊@@ 3228
日本@@ 3228
杀戮 3228
试着 3228
叹 3227
温柔 3227
暖@@ 3226
未获 3226
电机 3226
达喀尔 3226
难过 3225
情况通报 3224
燃油 3224
第八次 3224
草地 3224
伤口 3223
决赛 3223
善治 3223
城市规划 3223
把@@ 3223
画面 3223
讽刺 3223
忍@@ 3222
文凭 3222
月间 3222
杀虫剂 3221
芯片 3221
送达 3221
宽带 3219
瘫痪 3219
驱逐出境 3219
带走 3218
疾@@ 3218
687 3217
上市公司 3216
听力 3216
潮@@ 3215
物业 3215
粮@@ 3215
招 3214
电影@@ 3214
hi@@ 3213
第二十二届 3213
统计@@ 3213
辰 3213
首脑 3213
克拉 3212
八国集团 3211
表现形式 3211
选区 3211
仙@@ 3210
典@@ 3210
驻扎 3210
紧紧 3209
线性 3209
一九@@ 3208
同类 3208
头部 3208
翻新 3208
多样 3207
推移 3207
搁置 3207
气味 3207
18.@@ 3206
切尔诺贝利 3206
宠物 3206
锌 3206
开端 3205
奥斯陆 3204
妮@@ 3204
重要@@ 3204
6.3 3203
ta 3203
乙烯 3203
柴 3203
达尔 3203
逆转录 3203
食品@@ 3203
开创 3202
收容所 3202
笔译 3202
过渡期 3202
1267 3200
偿 3198
农田 3197
航天局 3197
芭@@ 3197
测验 3196
混淆 3196
切断 3195
283 3193
亚共和国 3193
人均收入 3193
所获 3193
中东地区 3192
烷 3192
阻 3192
偶 3191
昆虫 3191
根本性 3191
至多 3191
鹿 3190
万个 3189
公立 3189
决策机构 3189
分化 3189
圣地亚哥 3189
油田 3189
荣耀 3189
Ko@@ 3188
aw@@ 3188
赚取 3188
身为 3188
手法 3187
指认 3187
队@@ 3187
安全区 3186
并用 3186
庆 3186
英寸 3186
警惕 3186
而言之 3185
些@@ 3184
人来 3184
动摇 3184
医师 3184
努 3183
同胞 3183
未缴 3183
准军事 3182
深受 3182
刮@@ 3181
酱 3180
卫 3179
革@@ 3179
东南亚国家联盟 3178
体积 3178
摊@@ 3178
著@@ 3178
停车场 3177
创办 3177
贼 3177
举例 3176
34@@ 3175
37@@ 3175
牢记 3175
57@@ 3174
泰勒 3174
大马士革 3173
掠夺 3173
简 3173
辱 3173
包围 3172
心态 3172
来源国 3172
童年 3172
就业率 3171
经济效益 3171
威尔士 3170
捕 3170
CCPR 3169
振 3169
案中 3169
轮流 3169
光线 3168
金融部门 3168
恐怖@@ 3167
一致同意 3166
匹@@ 3166
吉姆 3166
新娘 3166
篮球 3166
DVD 3165
专业人士 3164
娶 3164
圣马力诺 3163
Man@@ 3162
亚太地区 3161
反抗 3161
国在 3161
爆@@ 3161
289 3160
几百@@ 3160
嫁给 3160
第四十七届 3160
州长 3159
全身 3158
识@@ 3158
盒子 3157
躲@@ 3157
廉@@ 3156
资本@@ 3156
里亚 3156
镜子 3156
恐怖组织 3155
运气 3154
SA@@ 3153
宣扬 3153
留下来 3153
骨折 3153
El@@ 3152
击败 3152
速率 3151
上述情况 3150
第一位 3149
行驶 3149
重振 3149
闷 3149
在此之前 3148
年满 3147
能为 3147
接受国 3146
是否是 3146
渣 3146
聊天 3146
拒绝接受 3145
装有 3145
裸@@ 3145
贸 3145
张贴 3144
教导 3144
溜@@ 3144
纷@@ 3144
兼职 3143
数据中心 3143
提法 3142
柴油 3142
老龄化 3142
IMF 3141
影像 3141
逆转 3141
非传统 3141
额度 3140
埃厄 3137
布尔 3137
庄@@ 3137
弃@@ 3137
钠 3137
池@@ 3136
溢@@ 3136
电网 3136
畅 3135
不太可能 3134
中心@@ 3134
妇女儿童 3134
眼中 3134
邀 3134
Part 3133
蜂@@ 3133
装修 3133
视野 3133
陛下 3133
似宜 3132
迈向 3132
优先@@ 3131
Har@@ 3130
仿@@ 3130
新闻媒体 3130
繁殖 3130
芽 3130
全会 3129
祝@@ 3129
365 3128
em@@ 3128
斑 3128
舞弊 3128
放心 3127
管理信息系统 3127
企@@ 3125
贫 3125
天赋 3124
局限 3124
站点 3124
笑话 3124
乙 3123
任何一方 3123
后悔 3123
极限 3123
两只 3122
人性 3122
审判@@ 3122
涌入 3122
炭 3122
忙@@ 3121
成像 3121
绝不能 3121
逢 3121
停战 3120
海里 3120
侵@@ 3119
凉@@ 3119
培@@ 3119
细目 3119
供参考 3118
乞@@ 3115
姓 3115
祭 3115
福克兰群岛 3115
af@@ 3114
一语 3114
妙 3114
整整 3114
数字@@ 3113
研究院 3113
菜单 3113
各阶层 3112
挡 3112
涌@@ 3112
书写 3111
新界 3111
钢铁 3111
隐私权 3111
斯坦@@ 3110
步枪 3110
击中 3109
明亮 3109
纸张 3109
车子 3109
一员 3108
花钱 3108
第二类 3107
询 3106
赐 3106
多边合作 3105
领地 3105
产后 3104
兆 3104
远景 3104
创造力 3103
诗歌 3103
沉积 3102
Be@@ 3101
俄语 3101
竭力 3101
恋@@ 3100
镜@@ 3100
刷@@ 3099
发光 3099
令人震惊 3098
屋里 3098
^ 3097
几名 3097
彻@@ 3097
撞@@ 3097
Co@@ 3096
㈥ 3096
专职 3096
恭@@ 3096
凭@@ 3094
发言权 3094
尤 3094
归属 3094
何 3093
歇@@ 3093
应用@@ 3092
翁 3092
鉴别 3092
利用@@ 3091
喝酒 3091
国家级 3091
门户网站 3091
享用 3090
特殊教育 3090
麦克@@ 3090
感动 3089
杀伤性 3089
14.@@ 3088
天才 3088
材@@ 3088
闭 3088
ma 3087
勇@@ 3087
旅程 3087
胎 3087
共用 3086
赶上 3086
迈克 3086
海港 3085
不带 3084
宝贝 3084
激增 3084
饱@@ 3083
试行 3082
善于 3081
影子 3081
赞成票 3081
最终用户 3080
遣 3080
三人 3079
工资@@ 3079
肺@@ 3079
陪审团 3078
日为 3077
鉴于此 3077
膨胀 3075
分数 3074
检控 3074
洛杉矶 3074
看电视 3074
项目@@ 3074
裤 3073
孕 3072
涨@@ 3072
重新部署 3072
默认 3071
提出异议 3070
解体 3070
主观 3069
倾斜 3069
望远镜 3069
鞋子 3069
倒退 3068
整天 3068
裙 3068
购买力 3068
259 3067
秀 3067
室@@ 3066
候@@ 3064
地毯 3064
服役 3064
口径 3063
不足之处 3062
阿布 3062
38@@ 3061
酬 3061
厌恶 3060
归类 3060
恶意 3060
点儿 3060
照明 3060
在世界上 3059
控制器 3059
督察 3059
第四十届 3059
宝宝 3058
粮 3058
适于 3058
CA@@ 3057
抽样 3057
雅典 3057
特朗普 3056
适用性 3056
Ra@@ 3055
可予 3055
胃 3055
go 3054
书面@@ 3053
宽松 3053
布局 3053
水准 3053
生活费 3053
栋 3052
330 3051
三位 3051
口头报告 3051
带头 3051
扭@@ 3051
老挝 3051
握 3050
致电 3050
坐标 3049
居住地 3049
适度 3049
高压 3049
打印机 3048
挺@@ 3048
脂@@ 3048
跃@@ 3048
兴建 3047
小女孩 3047
履行义务 3047
融 3047
阿拉伯@@ 3047
Kar@@ 3046
筑 3046
临近 3045
争吵 3045
对联 3045
CO@@ 3044
施加压力 3044
识字率 3044
降落 3044
巴士 3043
扰 3043
本信 3043
艾 3043
琴 3042
航天@@ 3042
安全局 3041
az@@ 3040
南斯拉夫联邦 3040
核技术 3040
消息来源 3040
科技委 3040
丸 3039
捷@@ 3039
探访 3039
破碎 3038
第十次 3038
不懈 3037
次要 3037
NPT 3036
宴会 3036
冰箱 3035
凝聚力 3035
生产国 3035
脉冲 3035
296 3034
停车 3034
劝 3034
沿线 3034
流产 3034
猜测 3034
硕士 3033
训练@@ 3033
银行家 3033
体会 3032
排序 3032
睡着 3032
第一天 3032
侦察 3031
元件 3031
残 3031
皇帝 3031
男女@@ 3030
天上 3029
悠久 3029
虽@@ 3029
凌@@ 3028
加利 3028
奈 3028
挖 3028
精彩 3028
证明书 3028
财政部长 3028
650 3027
he@@ 3027
京@@ 3027
十二月 3027
唱歌 3027
协理 3026
良 3026
Gu@@ 3025
int 3025
共产党 3025
导则 3025
惯@@ 3025
窝 3025
茎 3025
国贸 3024
甜 3024
真主党 3024
圆形 3023
扎伊尔 3023
敬 3023
Ber@@ 3022
人力资本 3022
寒 3022
脑袋 3022
249 3021
以防 3021
正当理由 3021
安圭拉 3020
就任 3020
有钱 3020
涂 3020
逆 3020
239 3019
剪 3019
西斯 3019
1958 3018
相对@@ 3018
金牌 3018
哪怕 3017
沿海地区 3017
法学院 3017
缸 3017
搭配 3016
So@@ 3015
可望 3015
第一类 3015
秋天 3014
净化 3013
新任 3013
第九次 3013
上届 3012
4.6 3011
国民@@ 3011
实验@@ 3011
物料 3011
老化 3011
赚钱 3011
世界杯 3010
律@@ 3010
放大 3010
民间团体 3010
猜@@ 3009
亏 3008
待命 3008
束缚 3008
番@@ 3008
公共利益 3007
圈@@ 3007
好多 3007
更长 3007
第二十五条 3007
7.1 3006
富人 3006
拨给 3006
喜悦 3005
民族主义 3005
工商业 3004
意味 3004
污染@@ 3004
震 3004
229 3003
尼科西亚 3003
改建 3003
犯罪集团 3003
综合@@ 3003
艺@@ 3003
废弃 3002
搭 3002
摩擦 3002
来访 3002
纪念@@ 3002
第二十一条 3001
288 3000
克什米尔 3000
瞬间 3000
竹@@ 3000
html 2999
理智 2999
迷人 2999
偏低 2998
技术培训 2997
本协定 2997
格林 2997
伯特 2996
嘉莉 2996
扫 2995
负债表 2995
践踏 2995
坚定不移 2994
征服 2994
核销 2994
第二十条 2994
缓冲区 2994
6.4 2993
Ba@@ 2993
ha 2993
卑@@ 2992
微小 2992
培训@@ 2991
时会 2991
倘若 2990
离去 2990
卡塔赫纳 2989
机动 2989
筹集资金 2989
情势 2988
掌控 2988
国防部长 2987
万亿美元 2986
启发 2985
海报 2985
荷兰@@ 2985
国际海事组织 2984
始终@@ 2984
宝石 2984
看守 2984
第二轮 2984
饮@@ 2984
Ru@@ 2983
专利@@ 2983
判决书 2983
规例 2983
多种多样 2982
祭司 2982
司法人员 2981
工商@@ 2981
把手 2981
谷物 2981
一副 2980
印度政府 2980
当日 2980
特里 2979
Abu 2978
固定@@ 2978
并不一定 2978
第一轮 2978
旱灾 2976
操作系统 2975
灯光 2975
五项 2973
危险性 2973
厂@@ 2973
厉害 2973
矿产 2973
罂粟 2973
痕迹 2972
私营企业 2972
av@@ 2971
抗击 2971
翻译成 2971
人民代表大会 2970
拳@@ 2970
群组 2969
39@@ 2967
前瞻性 2967
口语 2967
大事 2967
新闻记者 2967
272 2966
巫@@ 2966
每隔 2966
310 2965
SS 2965
贾 2965
公爵 2964
备案 2964
得多 2964
详@@ 2964
VI 2963
自力更生 2963
中起 2962
列车 2962
天文台 2962
开玩笑 2962
性关系 2962
摩托车 2962
组织者 2962
西北 2962
结案 2961
路易斯 2961
酗酒 2961
奉献 2960
挣扎 2960
1.8 2959
詹@@ 2959
锅 2959
困惑 2958
彼@@ 2956
晶 2956
国有企业 2955
植被 2955
酸盐 2954
享@@ 2953
0.5 2952
我家 2952
临时性 2951
抽烟 2951
营业@@ 2951
责@@ 2951
战斗机 2950
打断 2949
轿车 2948
ard 2947
德国@@ 2947
氏@@ 2947
炼 2947
价值观念 2946
决不能 2946
叔叔 2946
塑料@@ 2946
日益严重 2946
烃 2946
RA@@ 2945
互补性 2945
焚烧 2945
受众 2943
国际贸易中心 2943
第二十四条 2943
红新月会 2943
中级 2942
选举权 2942
48@@ 2940
小企业 2940
景象 2940
550 2939
主导作用 2939
列名 2939
微观 2939
日于 2939
楼梯 2939
吸毒者 2938
托马斯 2937
身分 2937
停火协定 2936
地形 2936
归纳 2936
关键@@ 2935
烦 2935
蒙特塞 2935
演示 2934
典范 2933
凯恩 2933
6.6 2932
ine 2932
参考资料 2932
1964 2931
兴起 2931
取得@@ 2931
二十世纪 2930
天线 2930
赏@@ 2930
份@@ 2928
族人 2928
会议记录 2927
可行性研究 2927
寿@@ 2927
社群 2927
积极主动 2927
忽然 2926
恢复正常 2926
渡@@ 2926
PDF 2925
个案研究 2925
对立 2925
新德里 2925
占领区 2924
ME@@ 2923
大大增加 2923
数十年 2923
鸣 2923
抬头 2922
资金@@ 2922
却@@ 2921
扣留 2921
收支 2921
遴选 2921
光谱 2920
南共体 2920
国际刑警组织 2920
岁月 2920
弗朗@@ 2919
球迷 2919
簿 2919
平时 2918
维斯 2918
重新分配 2918
存量 2917
投机 2917
避孕药 2917
非法活动 2917
亲戚 2916
环保@@ 2916
倾倒 2915
准时 2915
型号 2915
宗教@@ 2915
用处 2915
申请表 2915
伴@@ 2913
出生@@ 2913
回事 2913
春季 2913
解放运动 2913
衍@@ 2912
运往 2912
远处 2912
Ham@@ 2911
做事 2911
转而 2911
262 2910
推理 2910
微波 2909
力争 2908
时间@@ 2908
祷告 2908
钙 2908
Na@@ 2907
代表作 2907
号召 2907
尔森 2907
布宜诺斯艾利斯 2907
做成 2906
悟 2906
按计划 2906
政治犯 2906
数十@@ 2906
记录@@ 2906
受让人 2905
罚 2905
分泌 2904
十四 2904
年期 2904
引述 2904
未必 2904
老婆 2904
杜绝 2903
眉@@ 2903
东北部 2902
子公司 2902
渐@@ 2902
市值 2901
溶液 2901
co 2900
武装集团 2900
零零 2900
欣慰 2899
比如说 2899
豁免权 2899
部际 2899
4.7 2898
弯曲 2898
态势 2898
民事诉讼 2897
鉴@@ 2897
保持联系 2895
卧室 2895
上游 2894
告诫 2894
罚金 2894
教派 2893
法学家 2893
矮@@ 2893
阶 2892
UN@@ 2891
偶@@ 2891
POPS 2890
不用说 2890
示例 2889
先知 2888
轮调 2888
情愿 2887
房价 2887
1.7 2886
John 2886
区域@@ 2886
好消息 2886
痴@@ 2886
可可 2885
枝@@ 2885
财产损失 2885
礼品 2884
第二十三条 2884
超声 2884
妇女@@ 2883
纽约市 2883
减肥 2882
杂项收入 2882
测量@@ 2882
256 2881
底下 2881
恐慌 2881
歌手 2881
钩 2881
切合实际 2880
妥 2880
监核 2880
自动@@ 2880
恤 2879
揭@@ 2879
没事 2879
耀 2879
话语 2879
7.5 2878
惟一 2878
指向 2878
水分 2878
趣 2878
380 2877
CH@@ 2877
严 2877
有意思 2876
每种 2876
生殖器官 2876
赞美 2876
主导地位 2875
潘@@ 2875
263 2874
五次 2874
信赖 2874
阿卜杜拉 2874
字符 2873
茨@@ 2873
使本 2872
可预测性 2872
失误 2872
澳大利亚政府 2872
位数 2871
基础@@ 2871
结局 2871
公安机关 2870
周转基金 2870
巢 2870
新闻自由 2870
鹅 2870
2.9 2869
内为 2869
晚会 2869
de@@ 2868
婆 2868
辆车 2868
平常 2867
征募 2867
印第安人 2866
利息收入 2865
发病 2865
递送 2865
革命@@ 2865
另行 2864
帐篷 2864
开口 2864
边防 2864
埃尔@@ 2863
直接参与 2862
加勒比海 2861
对外贸易 2861
用法 2861
能效 2861
人才@@ 2860
今天上午 2860
付诸实施 2860
垫@@ 2860
生涯 2860
发誓 2859
约瑟夫 2859
 2859
丹尼尔 2858
合法权利 2858
存活 2858
滥@@ 2858
醒来 2858
初中 2857
十分重视 2857
雾@@ 2857
Con@@ 2856
遭@@ 2856
烂 2855
通讯@@ 2855
鞭@@ 2855
285 2854
愈 2854
第九@@ 2854
缔造 2854
292 2853
60@@ 2853
助手 2853
服务台 2853
走路 2853
边际 2853
Sh@@ 2852
te@@ 2852
俯@@ 2852
正当@@ 2852
债权 2851
圣多美和普林西比 2851
阿卜杜勒 2851
一双 2850
四处 2850
委派 2850
爽 2849
遵从 2849
Bu@@ 2848
同文信 2848
想着 2848
腔@@ 2847
两岸 2845
夺取 2845
鸟@@ 2844
一带 2843
合作@@ 2843
约翰逊 2843
受灾 2842
推测 2842
仁@@ 2841
劳力 2841
术后 2841
盟友 2841
胳膊 2841
世人 2840
县@@ 2840
害@@ 2840
数字化 2840
艾哈迈德 2840
首领 2840
科医生 2839
年届会 2838
演讲@@ 2838
雄心勃勃 2838
写入 2837
出血 2837
格拉 2837
虾 2837
分辨率 2836
深入研究 2836
称作 2836
翅膀 2836
珍惜 2835
功效 2834
损@@ 2834
旱地 2834
阿布贾 2834
体制改革 2833
祖先 2833
两届 2832
主旨 2832
他于 2832
惜 2832
be 2831
三倍 2831
不合@@ 2831
滥杀 2831
理应 2831
病假 2831
篇幅 2831
蓝图 2831
桃@@ 2830
专委 2828
人有 2828
大有 2828
迈 2828
传授 2827
跟随 2827
中东问题 2826
看成 2826
交通工具 2825
请参阅 2825
风景 2825
1701 2824
严重后果 2824
职业生涯 2824
Lu@@ 2823
传单 2823
其间 2823
饰@@ 2823
半个 2822
国有@@ 2822
来往 2822
雷区 2822
316 2821
公路@@ 2821
宗教团体 2821
平安 2821
亚非 2820
敲定 2819
狼@@ 2818
双边协定 2817
宣誓 2817
检查员 2817
碰 2817
人以 2816
八月 2816
呼声 2816
履行任务 2816
郡 2816
均等 2815
泄 2815
欧空局 2814
商业活动 2812
密集型 2812
登上 2812
祸害 2812
经济合作组织 2812
蓝线 2812
za 2811
丘 2811
养殖 2811
当事国 2810
敌@@ 2810
衷 2810
剖@@ 2809
有名 2809
受惠 2808
时数 2808
橄榄@@ 2808
电视机 2808
AP@@ 2807
冬 2807
厄 2807
市中心 2807
汀 2807
脖子 2807
可比 2806
岭 2806
草原 2806
挡@@ 2805
控件 2805
踢@@ 2805
ec@@ 2804
天生 2804
拦截 2803
熊@@ 2803
手上 2802
和平共处 2801
求解 2801
换取 2800
酷 2800
不致 2799
不遗余力 2799
印度@@ 2799
点燃 2799
知名人士 2799
稍微 2799
使团 2798
分销 2798
工作效率 2798
披@@ 2798
诉求 2798
财政政策 2798
责任感 2798
The 2797
尴尬 2797
十月 2796
浇@@ 2796
电梯 2796
剧烈 2795
努力@@ 2795
忽@@ 2795
无误 2795
管理司 2795
箱@@ 2795
任务区 2794
萨拉 2794
警员 2794
UN 2793
积极性 2793
协力 2792
真诚地 2792
非洲开发银行 2792
域外 2791
已久 2791
缘故 2791
镜头 2791
破产法 2789
16.@@ 2788
一点点 2788
一顿 2788
困@@ 2788
精心 2788
互惠 2787
播 2787
研 2787
该厅 2787
非常感谢 2787
弥合 2786
煮 2786
环境法 2786
空袭 2786
视委 2786
房产 2785
自营 2785
辍学率 2785
钢琴 2785
洁@@ 2784
诉讼@@ 2784
归于 2783
时有 2783
每名 2783
编程 2783
逃犯 2783
001 2782
ud@@ 2782
第三十八届 2782
双重标准 2781
土壤@@ 2781
墨 2781
狂热 2781
佐证 2780
两国政府 2779
第二十六届 2779
304 2778
泪@@ 2778
矿产资源 2778
苗 2778
十八 2777
超支 2777
失业者 2776
来文方 2776
克尔 2775
布雷 2775
章@@ 2775
广泛应用 2774
眼下 2774
穆 2774
第四十三届 2773
缠@@ 2773
邻 2773
着力 2772
绩 2772
试试 2772
进口国 2772
公立学校 2771
周六 2770
3.7 2769
优雅 2769
违规 2769
冲动 2768
开拓 2768
配方 2768
举止 2767
传统习俗 2767
直线 2767
通向 2767
吵@@ 2766
困 2764
地质@@ 2764
抽象 2764
Mohamed 2763
布置 2762
星星 2762
有史以来 2762
醉@@ 2762
人工@@ 2761
工作进展 2761
波利萨 2761
奶奶 2760
娃 2760
物价 2760
论及 2760
贸@@ 2760
带动 2759
陈旧 2759
预算内 2758
ir@@ 2756
三十 2756
第二份 2756
我爱你 2755
推断 2755
即应 2754
文盲率 2753
火星 2753
率先 2753
盖茨 2753
陆 2753
案文见 2752
Co 2751
文第 2751
快速反应 2750
蒙古@@ 2750
厘米 2749
学期 2749
滤@@ 2749
碟 2749
系统对 2749
飞行员 2748
ER@@ 2747
长官 2747
剩 2746
名人 2746
所犯 2746
母乳喂养 2746
致死 2746
轻型 2746
利马 2745
文学@@ 2745
核扩散 2745
正直 2745
商务@@ 2744
操作@@ 2744
敌意 2744
没能 2744
冲突地区 2743
ari 2742
磁 2742
不成 2741
前线 2741
第三十九届 2741
吸 2740
基督徒 2740
终生 2740
网球 2740
战后 2739
物质@@ 2739
盾 2739
领养 2739
367 2738
辖区 2738
避开 2738
仁 2737
第二十七届 2737
议事 2737
分类@@ 2736
恢复@@ 2736
狄@@ 2736
ke 2735
居然 2735
旗帜 2735
一小部分 2734
单证 2734
国土 2734
中小学 2733
壁垒 2733
腐 2733
鸟类 2733
一经 2732
公益 2732
嘉宾 2732
科学院 2732
肩膀 2732
肺结核 2732
财物 2732
ren@@ 2731
鲜 2731
do@@ 2730
注释 2730
剥@@ 2729
动物园 2729
布隆迪政府 2729
腾@@ 2729
267 2728
概率 2728
第二十七条 2728
非凡 2728
大都 2727
美妙 2727
仓 2725
几何 2725
广播公司 2725
无聊 2725
科学界 2725
欧洲央行 2724
行为准则 2724
岁@@ 2723
营企业 2723
饲料 2723
女朋友 2722
登录 2722
第二号 2722
被盗 2722
边境地区 2722
锥@@ 2722
一点儿 2721
不曾 2721
强烈@@ 2721
核心作用 2721
盛行 2721
贫困线 2721
305 2720
凯科 2720
增长速度 2720
治愈 2720
二月 2719
可信度 2719
密切协作 2719
跃 2719
隐瞒 2719
个省 2718
你方 2718
保障@@ 2718
外观 2718
归功于 2718
抑@@ 2718
辅@@ 2718
佣金 2717
消化 2717
今年@@ 2716
硫丹 2716
第二十五届 2716
买家 2715
袖@@ 2715
人文 2714
秋 2714
载体 2714
查出 2713
放入 2712
服务员 2712
沾@@ 2712
算是 2712
辨@@ 2712
预付款 2712
奔 2711
庄 2711
开曼群岛 2710
档案@@ 2710
sh@@ 2709
句@@ 2709
混 2709
男女之间 2709
综合症 2709
抬@@ 2708
羞@@ 2708
坦率 2707
1514 2706
不太@@ 2706
就让 2706
敲 2706
灾@@ 2706
一侧 2704
周五 2704
篮 2704
一会 2703
接入 2703
法兰@@ 2703
神奇 2703
ja 2702
合资 2702
安第斯 2702
生态环境 2702
触犯 2702
青春 2702
下周 2701
反倾销 2701
工商企业 2701
更能 2701
筋 2701
47@@ 2700
ma@@ 2700
海洋@@ 2700
厅@@ 2699
联络@@ 2699
国际化 2698
环己烷 2698
规章制度 2698
角落 2698
全球战略 2697
内有 2697
sa 2695
哭泣 2695
妆 2695
碱@@ 2695
苯丙胺 2695
ES@@ 2694
各部委 2694
带上 2694
篇文章 2694
聘@@ 2694
286 2693
同日 2693
疏忽 2693
第四十二届 2693
过期 2693
农作物 2692
商会 2692
胡 2692
5.6 2691
事关 2691
损害赔偿 2691
这话 2691
洪 2690
价钱 2688
公安@@ 2688
巾 2688
援用 2688
获利 2688
蔽 2688
询@@ 2688
尤为重要 2687
航空器 2687
Sch@@ 2686
恪守 2686
更为重要 2686
规划@@ 2686
辉煌 2686
邮寄 2686
清偿 2685
7.2 2684
北美洲 2684
大体上 2683
梯@@ 2683
民选 2683
这本 2683
延至 2682
米兰 2682
运河 2682
阿塞拜疆共和国 2681
对非 2680
开除 2680
李 2680
短时间 2680
触及 2680
赶 2680
me@@ 2679
乐于 2679
坊 2678
外科 2678
虎@@ 2678
出发点 2677
制药 2677
单据 2677
婴 2677
通盘 2677
Sam@@ 2676
斯科@@ 2676
杖 2676
格陵兰 2676
私有 2676
1965 2675
pdf 2675
永不 2675
猪@@ 2675
福利@@ 2675
具体步骤 2674
溶剂 2674
秋季 2674
六氯 2673
萨拉热窝 2673
逃脱 2673
器材 2672
国务卿 2672
助益 2671
椎@@ 2671
渡 2671
疲软 2671
第二年 2671
vi@@ 2670
厂商 2670
厚度 2670
毗邻 2670
又@@ 2669
日益@@ 2669
经纪 2669
逍遥法外 2669
静态 2669
不在乎 2668
广州 2668
灾区 2668
微不足道 2667
牛肉 2667
航天器 2667
贵族 2667
投票权 2666
19.@@ 2665
玩家 2665
躲 2665
gov 2664
五天 2664
格兰@@ 2664
下调 2663
同工同酬 2663
落入 2663
障 2663
崇拜 2662
巴拉克 2662
猎 2662
筹款 2661
Her@@ 2660
沉积物 2660
面上 2659
方括号 2658
谈及 2658
外贸 2657
现正 2657
纳米 2657
纳粹 2656
一千@@ 2655
填 2655
锐@@ 2655
340 2654
li@@ 2654
不善 2654
分析方法 2654
发生@@ 2654
盆 2654
适应性 2654
农户 2653
可为 2653
可比性 2653
报刊 2653
em 2652
团结一致 2652
消防 2652
超市 2652
输 2652
1945 2651
债@@ 2651
没法 2651
美国国会 2651
脉 2651
宁静 2650
导游 2650
电报 2649
287 2648
丑闻 2648
内存 2648
苹果@@ 2648
金枪鱼 2648
各段 2647
往年 2647
船旗国 2647
足球@@ 2647
酷@@ 2647
兆@@ 2646
克里 2646
水量 2646
现实意义 2646
结清 2646
舱@@ 2646
贩 2646
临床@@ 2645
十七 2645
协调会议 2645
很强 2645
表示祝贺 2645
长老 2645
二是 2644
交互 2644
任何理由 2644
周岁 2643
杰夫 2643
艾伦 2643
产品质量 2642
人口比例 2641
佛教 2641
促@@ 2641
私立 2641
幻 2640
疲@@ 2640
兼容 2639
获取信息 2639
一时期 2638
废弃物 2638
恋爱 2638
福音 2638
预言 2638
去过 2637
战机 2637
疗 2637
细胞@@ 2637
途@@ 2637
升温 2636
密克罗尼西亚联邦 2636
斯蒂@@ 2636
黎@@ 2636
电信@@ 2635
268 2634
一至 2634
数个 2634
断裂 2634
替@@ 2634
羞辱 2634
加班 2633
实证 2633
阿尔及尔 2633
零售商 2633
颠覆 2632
ed@@ 2631
休息@@ 2631
无线@@ 2631
覆盖范围 2631
诚 2631
嫌疑犯 2630
小于 2630
整套 2630
纳米@@ 2630
诚挚 2630
一口 2629
硬币 2628
2030 2627
升至 2627
行程 2627
迦@@ 2627
Bank 2626
中所作 2626
祖 2626
鲜明 2626
城堡 2625
宽恕 2625
未知 2625
疫情 2624
蒸汽 2624
油气 2623
被忽视 2623
较少 2623
乳腺癌 2622
山上 2622
山脉 2622
自由权 2622
281 2621
癌@@ 2621
纽约联合国总部 2621
顽固 2621
器具 2620
有期徒刑 2620
流行@@ 2619
祸 2619
上方 2616
医学@@ 2616
患病 2616
扑 2616
新设 2616
无偿 2616
物理学 2616
相机 2616
神话 2616
As@@ 2615
嘲笑 2615
ve@@ 2614
初审 2613
情报局 2613
粗 2613
舞会 2613
躁 2613
得分 2612
满意度 2612
口号 2610
完工 2610
并不@@ 2610
有所提高 2610
较长 2610
壮 2609
梁@@ 2609
解析 2609
逮捕令 2609
地缘 2608
425 2606
今天下午 2606
天天 2606
SO@@ 2605
出版社 2605
挤 2605
不许 2604
丛@@ 2604
介 2604
偿债 2604
光纤 2604
公用事业 2604
听证 2604
滥伤 2604
竖@@ 2604
FAO 2603
全面实施 2603
小孩子 2603
居住@@ 2603
焊@@ 2603
纤维@@ 2603
吉尔 2602
商学院 2602
贯@@ 2602
转到 2602
高血压 2602
固 2601
国际事务 2601
COM 2600
乌兹别克斯坦共和国 2600
勃@@ 2600
收据 2600
核燃料 2600
煤矿 2600
全面解决 2599
四分之三 2599
年龄段 2599
涂料 2599
濒危 2598
合规 2597
案文@@ 2597
氨@@ 2597
严重@@ 2596
健 2596
劝@@ 2596
应邀 2596
心理学家 2596
独一无二 2596
自助 2596
逼 2596
骚乱 2596
十六 2595
斯克 2595
训@@ 2595
1962 2594
信奉 2593
夜里 2593
平均水平 2593
当成 2593
13.@@ 2592
赔偿@@ 2592
Ne@@ 2591
收音机 2591
漆 2591
打造 2590
根本@@ 2590
编拟 2590
薄膜 2590
时要 2589
经管 2589
不相@@ 2588
维修@@ 2588
就象 2587
打扰 2587
模糊@@ 2587
油漆 2587
自由选择 2587
快速增长 2586
旺 2586
ong 2585
传来 2585
地理@@ 2585
家禽 2585
红外 2585
销量 2585
随即 2585
导演 2584
汉堡 2584
一共 2583
极力 2583
茂@@ 2583
远见 2583
陶瓷 2583
Jo@@ 2581
塞尔维亚共和国 2581
参谋 2580
犹如 2580
辩解 2580
四种 2579
梯 2579
沦为 2579
润 2579
高管 2579
勿 2578
桃 2578
虐 2578
轴承 2578
大众@@ 2577
讯问 2577
St@@ 2576
多国部队 2576
小镇 2576
年限 2576
衍生 2576
手枪 2575
断言 2575
行使@@ 2574
非营利 2574
前提条件 2573
豪华 2573
预约 2573
骨头 2573
挨@@ 2572
向下 2571
壳@@ 2571
实用@@ 2571
屏 2571
载明 2570
杠杆 2569
含糊 2568
并购 2568
起床 2568
之路 2567
备份 2567
外交关系 2567
裁研 2567
通风 2567
277 2566
免疫@@ 2565
前夕 2565
可乐 2565
斟酌 2565
盈@@ 2565
覆 2565
SP 2564
中以 2564
哈里 2564
小鼠 2564
网播 2564
贪@@ 2564
yah 2563
安全部 2563
愤@@ 2563
架飞机 2563
返还 2563
工具包 2562
方法学 2562
麻疹 2561
3000 2560
埃尔 2560
意大利@@ 2560
撞击 2560
未清 2560
欧安会 2560
商事 2559
假装 2558
反对票 2558
场址 2558
平等@@ 2558
歇 2558
艺术品 2558
3.8 2557
任职者 2557
柬 2557
留意 2557
颠@@ 2557
Pe@@ 2556
ot@@ 2556
六方会谈 2556
推动力 2556
留住 2556
票数 2556
蛋@@ 2556
衷心 2556
责备 2556
非歧视 2556
以为@@ 2555
地被 2555
引爆 2555
款下 2555
不负责任 2554
十年代 2553
瓶@@ 2553
虚拟@@ 2553
头痛 2552
疯 2552
赌@@ 2552
澳门特别行政区 2551
物理@@ 2551
诺言 2550
寡@@ 2549
不高 2548
可不是 2548
栓 2548
讯@@ 2548
近几个月 2548
抱@@ 2547
个州 2546
优惠@@ 2546
猫@@ 2546
考生 2546
俱@@ 2545
卫队 2545
耕作 2545
鸟儿 2545
无情 2544
泛 2544
不已 2543
人人平等 2543
必定 2543
后备 2542
座谈会 2542
万吨 2541
卵 2541
在政治上 2541
有利条件 2541
澳洲 2541
爱国 2541
瓷@@ 2541
盲@@ 2541
笑容 2541
边界@@ 2541
预示 2541
饱受 2541
〉 2540
不具 2540
严密 2540
停顿 2540
名声 2540
数以千计 2540
派对 2540
279 2539
我用 2539
理查德 2539
训练有素 2539
友好关系 2538
尸 2538
猛烈 2538
监 2538
览 2538
评判 2538
挪@@ 2536
显现 2536
结婚年龄 2536
见图 2536
运营商 2536
逸 2536
食品安全 2536
借用 2535
加权 2535
午饭 2535
更快 2535
祂 2535
评述 2535
铃 2535
件事 2534
擅长 2534
这片 2534
减低 2532
五分钟 2531
帝@@ 2531
蔑视 2531
防备 2531
勉强 2530
狱@@ 2530
美好@@ 2530
试验@@ 2530
人向 2529
变化@@ 2529
存档 2529
整体@@ 2529
等同于 2529
镀@@ 2529
阶@@ 2529
棍 2528
舟 2528
责任人 2528
全国人民代表大会 2527
省长 2527
调研 2527
估@@ 2526
电厂 2526
集会自由 2526
零售@@ 2526
人民检察院 2525
半球 2525
1946 2524
侍@@ 2524
坟墓 2524
犯罪分子 2524
紧急@@ 2524
舰@@ 2524
认出 2524
核动力 2523
赠@@ 2523
国际电联 2522
瑟@@ 2522
纺织 2522
验 2522
嗣后 2521
检方 2521
特克斯 2521
生动 2521
如果说 2520
有所@@ 2520
欠缺 2520
僵@@ 2519
邮局 2519
一职 2518
崇@@ 2518
圣保罗 2517
居所 2517
疗@@ 2517
耗费 2517
耦合 2517
耻辱 2517
该局 2516
概 2515
水管 2515
解答 2515
始 2514
帐目 2514
总统令 2514
加拿大政府 2513
卓@@ 2513
无比 2513
深入@@ 2512
湖泊 2512
福特 2511
往返 2510
白俄罗斯共和国 2510
莱斯 2510
外交使团 2509
残留 2509
赔@@ 2509
黏@@ 2509
受权 2508
快点 2508
瘦@@ 2508
应得 2507
总表 2507
描@@ 2507
新一代 2507
梳@@ 2507
织物 2507
递给 2507
前期 2506
四川 2506
想像 2506
队长 2506
五分之一 2505
制造@@ 2505
氯化石蜡 2505
295 2504
激起 2504
令人信服 2502
飞往 2502
香烟 2502
地步 2501
接收@@ 2501
集结 2501
魔法 2501
一个多 2500
收拾 2500
礁 2500
蜡烛 2500
郊@@ 2500
PA@@ 2499
不远 2499
严重破坏 2499
处处长 2499
山谷 2499
4.8 2498
以人为本 2498
带薪 2498
晕 2498
谈会 2498
农业部 2497
医疗机构 2497
毕@@ 2497
社会群体 2497
第八章 2497
遵@@ 2497
下称 2496
公署 2496
开放@@ 2496
成见 2496
波罗的海 2496
魔鬼 2496
亲人 2495
教育法 2495
爸 2495
瓶颈 2495
第三十七届 2495
中华@@ 2494
妓女 2494
讨 2494
赫勒拿 2494
饲养 2494
一行 2493
及时性 2493
外包 2493
活产 2493
会为 2492
喀@@ 2492
强硬 2492
汇票 2492
贮@@ 2492
首位 2492
写信给 2491
浮 2491
装配 2491
前沿 2490
参阅 2490
存入 2490
本期 2490
报告@@ 2489
第三阶段 2489
不便 2488
文件@@ 2488
鼓 2488
广泛支持 2487
晓 2487
珠宝 2487
反弹 2486
彩色 2486
救护车 2486
水下 2486
绳子 2486
青年党 2486
不大可能 2485
激活 2485
274 2484
出卖 2484
削 2484
大师 2484
应变 2484
蓄 2484
专题组 2483
丢@@ 2483
做过 2483
客户@@ 2483
开门 2483
法域 2483
爱人 2483
li 2482
优美 2482
ST@@ 2481
双边合作 2481
同居 2481
起诉书 2481
IC 2480
处理器 2480
弟兄 2480
抢 2480
尼古@@ 2479
斯基 2479
藐视 2479
凭证 2478
转载 2478
der 2477
宽泛 2477
敦 2477
胖@@ 2476
阅@@ 2476
ri 2475
砍伐 2475
克罗地亚共和国 2474
私下 2474
AS@@ 2473
SA 2473
泄露 2473
行长 2473
收益率 2472
攻 2472
绝大部分 2472
误导 2471
ge@@ 2470
共同市场 2470
武装人员 2470
特等 2470
发电@@ 2469
蕴@@ 2469
静脉 2469
上年 2468
库克群岛 2468
玛丽亚 2468
练@@ 2468
综@@ 2468
召@@ 2467
扩建 2467
日元 2467
现行@@ 2467
急救 2466
恰恰 2466
责任制 2466
273 2465
转动 2465
Ha@@ 2464
ton 2464
从没 2464
便会 2464
几十@@ 2464
妥当 2464
氯苯 2464
法院院长 2464
疼 2464
裙子 2464
趋于 2464
可惜 2463
布斯 2463
联合国@@ 2463
日内 2462
ke@@ 2461
繁忙 2461
轻轻 2461
长得 2461
企 2460
可供 2460
外流 2460
高科技 2459
管局 2458
偏 2456
因数 2456
尼克 2456
格外 2456
业务流程 2455
优于 2455
树枝 2455
海盗行为 2455
se@@ 2454
〈 2454
跟上 2454
启示 2453
胡子 2453
训 2453
20.@@ 2452
上司 2452
尚有 2452
ur@@ 2451
了不起 2451
基加利 2451
广泛传播 2451
党员 2450
取出 2450
圣基茨 2450
尼维斯 2450
颈 2450
惩教 2449
预付 2449
坚固 2448
平原 2448
无法控制 2448
流体 2448
信息安全 2447
公共场所 2447
第一百 2447
配有 2447
灵感 2446
克鲁@@ 2445
逼@@ 2445
矫正 2444
绞@@ 2444
58@@ 2443
67@@ 2443
模具 2443
消费品 2443
贫困者 2443
载荷 2443
420 2442
ale 2442
护送 2442
无人@@ 2442
充满活力 2441
兔子 2441
性侵犯 2441
矩 2441
军营 2440
同志 2440
缴费 2440
定额 2439
目标群体 2439
秒钟 2439
纪 2439
〇 2438
加以@@ 2437
岛@@ 2437
水电 2437
证明文件 2437
17.@@ 2436
CT 2436
各区 2436
圣诞@@ 2436
方框 2436
近几年 2436
植 2435
鸣@@ 2435
加斯 2434
工业部门 2434
渗@@ 2434
伙计 2433
受灾国 2433
呈@@ 2433
巴拉 2433
水文 2433
走访 2433
难得 2433
古怪 2432
避难所 2432
院子 2432
馀 2432
La@@ 2431
不算 2431
幸 2431
社会活动 2431
筹划 2431
内所 2430
圣地 2430
姿势 2430
恩德培 2430
ang 2429
听从 2429
快捷 2429
投标书 2429
迫 2429
op@@ 2428
审问 2428
有赖于 2428
辽@@ 2428
不大 2427
卜 2427
基薪 2427
特殊@@ 2427
粗暴 2427
估 2426
大片 2426
尾巴 2426
ak 2425
有损 2425
每项 2425
调配 2425
身体健康 2425
嘴@@ 2424
普里什蒂纳 2423
画家 2423
胖 2423
轮换 2423
进驻 2423
黛@@ 2423
放射 2422
某事 2422
爷爷 2422
Lo@@ 2421
谱@@ 2421
飙升 2421
何塞 2420
漆@@ 2420
二人 2418
仓@@ 2418
佩 2418
联安 2418
飞船 2418
282 2417
RE@@ 2417
惯常 2417
萎缩 2417
EA 2416
巨头 2416
第三十六届 2416
蓬@@ 2416
财 2416
酋长 2416
隔绝 2416
十二个 2415
好奇 2415
歌唱 2415
一如既往 2414
严格执行 2414
大笔 2414
检察机关 2414
狭隘 2414
赔 2414
近几年来 2414
颜@@ 2414
货车 2413
基本要素 2412
需求量 2412
电站 2411
370 2410
事实@@ 2410
克兰 2410
全时 2410
更强 2410
求职 2410
淫@@ 2410
渔民 2410
侦@@ 2409
小伙子 2409
懒@@ 2409
身后 2409
闻名 2409
血清 2408
io 2407
奴 2407
快要 2407
箭 2407
之时 2406
数千 2406
旋 2406
树上 2406
炸 2406
遗址 2406
交通事故 2405
减量 2405
移民法 2405
适用法律 2405
发作 2404
圆满 2404
期货 2404
犯罪@@ 2404
盘子 2404
不服 2403
公信力 2403
酰@@ 2403
问候 2403
第七十三 2402
苯 2402
近日 2402
失踪者 2401
情人 2401
阻力 2401
非洲之角 2401
存储@@ 2400
诸 2400
1954 2399
302 2399
催化 2399
协助执行 2399
夺 2398
一堂 2397
咬@@ 2397
篮@@ 2397
裤子 2397
跑步 2397
En@@ 2396
PBC 2396
半小时 2396
和睦 2396
性化 2396
抄@@ 2396
祭@@ 2396
喊@@ 2395
海洋资源 2395
视图 2395
迪拜 2395
销售额 2395
bi 2394
伙 2394
祖母 2394
和善 2393
图里 2393
仆 2392
好莱坞 2392
明显@@ 2392
五十@@ 2391
屏@@ 2391
更替 2391
科研@@ 2391
规避 2391
re 2390
借此 2390
喧@@ 2390
或者说 2390
303 2389
FPA 2389
两点 2389
适时 2389
道义 2389
创始人 2388
总支出 2387
6.7 2386
850 2386
Go@@ 2386
今 2386
受到@@ 2386
硅 2386
装载 2386
赠 2386
一整天 2385
创造@@ 2385
总统@@ 2385
转给 2385
切除 2384
加工@@ 2384
磨损 2384
经济损失 2384
加密 2383
热带@@ 2383
相互合作 2383
gh@@ 2382
份子 2382
老虎 2381
诱导 2381
谈判@@ 2381
车上 2381
鲸 2381
国立 2380
妙@@ 2380
汗@@ 2380
潮湿 2380
东南 2379
纳德 2379
语言@@ 2379
301 2378
Inc 2378
万国宫 2378
怀着 2378
拨付 2378
励@@ 2377
发掘 2377
末尾 2377
胸 2377
优越 2376
卧@@ 2375
紧迫性 2375
高盛 2375
兰政府 2374
时向 2374
比起 2374
照会 2374
特殊性 2374
疑虑 2374
聆听 2374
荡@@ 2374
门外 2374
一路 2373
危险@@ 2373
变异 2373
国主义 2373
屑 2373
泛滥 2373
68@@ 2372
下班 2372
住处 2372
帅 2372
涡@@ 2372
英国政府 2372
虫@@ 2372
遗忘 2372
ig@@ 2371
趣@@ 2371
里昂 2371
han@@ 2370
su@@ 2370
出自 2370
扯 2370
晴@@ 2370
没想到 2370
赌博 2370
不力 2369
坚持不懈 2369
番 2369
许诺 2369
UNA0@@ 2368
入伍 2368
合理性 2368
外语 2368
如能 2368
税收@@ 2368
词典 2368
49@@ 2367
⑴ 2367
照看 2367
镍 2367
倡导者 2366
合乎 2366
浩@@ 2366
面孔 2366
叶子 2365
开出 2365
找个 2365
试用 2365
TA@@ 2364
嫩 2364
锋@@ 2363
小学生 2362
总能 2362
杯@@ 2362
下一代 2361
主机 2361
全日制 2361
副作用 2361
战俘 2361
残暴 2361
烹饪 2361
祖父 2361
简述 2361
维尔京群岛 2361
肉类 2361
寓@@ 2360
牧民 2360
SGB 2359
人造 2359
伸张正义 2359
公允 2359
卡片 2359
发酵 2359
墙壁 2359
本款 2359
IN 2358
不可思议 2358
化解 2358
论据 2358
ID 2357
不久前 2357
世界性 2357
四大 2357
戈马 2357
欧亚 2357
离境 2357
十一月 2356
性犯罪 2356
圆桌 2355
友善 2354
哺乳动物 2354
瞄准 2354
细致 2354
肉体 2354
出门 2353
莎@@ 2353
保障制度 2352
叠@@ 2352
哀悼 2352
岗 2352
播出 2352
间谍 2352
1244 2351
嫌犯 2351
扼要 2351
身材 2351
1.9 2350
克减 2350
固定翼 2350
多米尼克 2350
完备 2350
核计划 2350
社会工作 2350
圆满成功 2349
库拉 2349
联赛 2349
肘 2349
麦凯恩 2349
271 2348
国债 2348
个人身份 2347
书面通知 2347
最大化 2347
胚胎 2347
278 2346
作文 2346
子孙 2346
巴尔 2346
手套 2346
本能 2346
纪念日 2346
誉 2346
53@@ 2345
伯格 2345
安曼 2345
而作 2345
髓 2345
岗@@ 2344
巨人 2344
悲痛 2344
亚洲开发银行 2343
传给 2343
居高不下 2343
民主联盟 2343
自然环境 2343
阳性 2343
高地 2343
齿@@ 2343
六名 2342
成份 2342
列示 2341
受控 2341
热烈欢迎 2341
醚 2341
哈瓦那 2340
锦@@ 2340
Group 2339
几率 2339
无形 2339
暴风雨 2339
修订本 2338
好看 2338
拉尔 2338
款人 2338
ai 2337
宾馆 2337
深圳 2337
程式 2337
百分@@ 2336
塘 2335
开庭 2335
珊瑚 2335
资历 2335
招待会 2334
犹大 2334
疏散 2334
瘦 2334
一视同仁 2333
太好了 2333
盲人 2333
称呼 2333
非裔 2333
愁 2332
棕色 2332
牧场 2332
猴子 2332
纪念碑 2332
贡 2332
笼统 2331
颈@@ 2331
亦@@ 2330
嗨 2330
贸易中心 2330
不宜 2329
受审 2329
富有成效 2329
顺便 2329
关键词 2328
想象力 2328
投资银行 2328
自给自足 2328
迅@@ 2328
青年@@ 2328
润滑油 2327
利政府 2326
王后 2326
民主政体 2325
账单 2325
奎@@ 2324
第三十四届 2324
结盟 2324
59@@ 2323
ay 2323
联络官 2323
少数几个 2322
特种 2322
例证 2321
化学物质 2321
定期存款 2321
日增 2321
活动@@ 2321
凹@@ 2320
液压 2320
第一句 2320
裁员 2320
起码 2320
重力 2320
匿名 2319
国界 2319
幼 2319
苗@@ 2319
虚 2319
辱@@ 2319
周期性 2318
拐 2318
看似 2318
繁重 2318
西南 2318
二百@@ 2317
前款 2317
巴里 2317
520 2316
双性恋 2316
法国人 2316
网格 2316
三份 2315
中产阶级 2315
戈尔 2315
秉@@ 2315
争执 2314
化验 2314
遗嘱 2314
直径 2313
通行证 2313
在经济上 2312
一连串 2311
字典 2311
果实 2311
简便 2311
在短期内 2310
己@@ 2310
打败 2310
耗氧 2310
坎帕拉 2309
意料 2309
海面 2309
维亚 2309
饮酒 2309
键盘 2308
同一天 2307
嘴唇 2307
塔尔 2306
串 2305
利亚@@ 2305
剩@@ 2305
原型 2305
哈利@@ 2305
恐@@ 2305
to@@ 2304
二战 2304
侨民 2304
促销 2304
加元 2304
塞尔 2304
多长时间 2304
太大 2304
崭新 2304
择@@ 2304
斯科 2304
朴@@ 2304
渐进 2304
掩饰 2303
为首 2302
分会 2302
奖项 2302
景色 2302
紧急措施 2302
耽搁 2302
说是 2302
转身 2302
辣@@ 2302
ari@@ 2301
方在 2301
两用 2300
分析表明 2300
卫生系统 2300
才干 2300
毛病 2300
葡萄 2300
过量 2300
卡罗@@ 2299
显出 2299
SE@@ 2298
私人资本 2298
安援 2297
戒指 2297
晋@@ 2297
勒斯 2296
悔 2296
新疆 2296
滞 2296
Si@@ 2295
壶 2295
放进 2295
呈现出 2294
蒙罗维亚 2294
难以置信 2294
鼓吹 2294
吉普@@ 2293
浸 2293
这起 2293
顶部 2293
仪@@ 2292
刑事@@ 2292
法学 2292
辨认 2292
隶属 2292
呼叫 2291
所设 2291
照管 2291
苏珊 2291
藻 2291
佣 2290
戈尔诺 2290
所长 2290
丰 2289
庭审 2289
感染率 2289
残余 2289
砂 2289
自发 2289
劳务 2288
卡特 2288
商务部 2288
慰问 2288
横 2288
短信 2287
遣@@ 2287
抑郁 2286
旅行社 2286
有助 2286
辛 2286
传唤 2285
各有 2285
知晓 2285
鲜花 2285
大米 2284
干活 2284
要件 2284
一流 2283
土地@@ 2283
本节 2283
添@@ 2283
米歇尔 2283
直接@@ 2282
糊@@ 2282
继承权 2282
集体行动 2282
MO@@ 2281
No 2281
出任 2281
简洁 2281
粮食@@ 2281
蚀 2281
观者 2281
帝 2280
惟@@ 2280
第二十二条 2280
身子 2280
IP@@ 2279
IS 2279
Gar@@ 2278
书店 2278
浴@@ 2278
誉@@ 2278
这为 2278
黑海 2278
歪曲 2277
酌处 2277
齿轮 2277
200@@ 2276
空间站 2276
纹@@ 2276
霍乱 2276
家政 2275
中国共产党 2274
关上 2274
妄@@ 2274
教皇 2274
毁林 2274
法律责任 2274
补给 2274
探测器 2273
福利部 2273
284 2272
呼 2272
十八@@ 2271
多数票 2271
学前教育 2271
现实情况 2271
佣工 2270
字样 2270
三十年 2269
下游 2269
凯瑟琳 2269
协商会 2269
取样 2269
这批 2269
917 2268
尝 2268
柜台 2268
滞后 2268
目击者 2268
不向 2267
单击 2267
辛格 2267
技 2266
稻@@ 2266
提出@@ 2265
谘 2265
2018 2264
吸附 2264
赶到 2264
金色 2264
上任 2263
充分就业 2263
专门@@ 2262
嫁@@ 2262
摄入 2262
朱巴 2262
结尾 2262
mo@@ 2261
冰淇淋 2261
微额 2261
甲烷 2261
维拉 2261
雇@@ 2261
CHW 2260
演化 2260
瑞士法郎 2260
竟@@ 2260
锋 2260
健身 2259
稀少 2259
躲避 2259
恼@@ 2258
赤道 2258
交际 2257
分派 2257
行为@@ 2257
遗弃 2257
亡@@ 2256
儿女 2256
内载 2256
斯拉@@ 2256
走开 2256
普通法 2255
霍 2255
口岸 2254
嗓@@ 2254
对受 2254
澳@@ 2254
火炬 2254
股本 2254
弗兰克 2253
校正 2253
瓦斯 2253
组办 2253
耶夫 2253
攀升 2252
肿@@ 2252
5.7 2251
疆@@ 2251
证券公司 2251
轨迹 2251
代人 2250
手提@@ 2250
环境部 2250
相关联 2250
记录在案 2250
基因@@ 2249
大大减少 2249
磁场 2249
第二十八届 2249
节约@@ 2249
Web 2248
低温 2248
豪 2248
ati@@ 2247
地狱 2247
强壮 2247
监察@@ 2247
精密 2247
哨所 2246
现今 2246
美军 2246
阻挡 2246
受害国 2245
所持 2245
拉德 2245
清晨 2245
唱片 2244
布莱尔 2244
截然不同 2244
接获 2244
范本 2244
Mon@@ 2243
叹@@ 2243
强奸@@ 2243
手表 2243
联卢 2243
弦 2242
未作 2242
欧洲议会 2242
组装 2242
价格指数 2241
积金 2241
第二季度 2241
以补 2240
真实性 2240
郁@@ 2240
陆上 2240
双边@@ 2239
440 2238
国籍法 2238
指挥@@ 2238
遗失 2238
之道 2237
惹@@ 2237
291 2236
一审 2236
为数 2236
原产地 2236
叛乱分子 2236
展览会 2236
南南 2235
安德@@ 2235
客观性 2235
聊 2235
Michael 2234
国营 2234
掌管 2234
求职者 2234
过得 2234
2050 2233
sa@@ 2232
已故 2232
46@@ 2231
人次 2231
7.3 2230
卡特尔 2230
毫无意义 2230
燕@@ 2230
瓶子 2230
衬@@ 2230
饿 2230
依法追究 2229
兼并 2229
发展前景 2229
悲观 2229
改革开放 2229
病情 2229
附加值 2229
军警 2228
浪潮 2228
脚步 2228
担当 2227
无核@@ 2227
尿 2226
禽@@ 2226
退役 2226
311 2225
480 2225
因应 2225
普遍@@ 2225
最易 2225
问问 2225
ne@@ 2224
剑@@ 2224
底层 2224
肚子 2224
首歌 2224
劫 2223
嫉妒 2223
砸 2223
减税 2222
朝向 2222
眼里 2222
第三十五届 2222
两起 2221
各派 2221
大火 2221
棚 2221
毕业@@ 2221
笼 2221
通信@@ 2221
集中精力 2221
Mc@@ 2220
德里 2220
理所当然 2220
见过 2220
酿@@ 2220
人间 2219
仔细@@ 2219
国防@@ 2219
感知 2219
ber@@ 2218
古巴政府 2218
贝克 2218
陷阱 2218
今世 2217
展出 2217
年头 2217
技术开发 2217
晶体 2217
美味 2217
采购@@ 2217
乐器 2216
抗体 2216
经销商 2216
56@@ 2215
节省@@ 2215
谓 2215
难者 2215
偶像 2214
因果关系 2214
充分认识 2213
军事装备 2213
危 2213
坦诚 2213
堤 2213
就座 2213
现金流量 2213
邮政局 2213
雅加达 2213
Hu@@ 2212
adi 2212
优 2212
尔多 2212
由该 2212
赛事 2212
转变成 2212
主办@@ 2211
冈 2211
国会议员 2211
富国 2211
着陆 2211
肢体 2211
区别对待 2210
多米尼加 2210
归入 2210
操 2210
改叙为 2210
少年犯 2209
廉正 2209
投了 2209
火山@@ 2209
纳斯 2209
医治 2208
图象 2208
样式 2208
运动会 2208
中长期 2207
澳门@@ 2207
玩耍 2207
表扬 2207
前方 2206
沙发 2206
私立学校 2206
联接 2206
』 2205
初稿 2205
敦@@ 2205
一读 2204
历程 2204
经合 2204
过早 2204
事务部长 2203
瞩目 2203
第三十三届 2203
考核 2203
资料库 2203
上调 2202
分包 2202
爆炸性 2202
锁定 2202
回报率 2201
继承人 2201
高级@@ 2201
已登记 2200
路面 2200
重新安排 2200
夕@@ 2199
多种形式 2199
大豆 2199
映@@ 2199
401 2198
JIU 2198
一首 2198
很棒 2198
社会学 2198
尸@@ 2197
汇总表 2197
CE@@ 2196
诈 2196
嘴里 2195
退休年龄 2195
召 2194
大人 2194
蔑 2194
贪婪 2194
430 2193
吐 2193
在意 2193
小型企业 2193
打发 2193
畜 2193
各种因素 2192
外围 2192
比照 2192
毫无根据 2192
股长 2192
钱包 2192
公会 2191
哈萨克斯坦共和国 2191
多种@@ 2191
悠@@ 2191
楚 2191
激 2191
瓦加杜古 2191
降临 2191
七日 2190
数据交换 2190
VII 2189
离岸 2189
外套 2188
平均值 2188
拘捕 2188
虎 2188
贮存 2188
国际电信联盟 2187
幽@@ 2187
必需品 2187
行政拘留 2187
高涨 2187
名录 2186
水灾 2186
消毒 2186
遇到困难 2186
工商界 2185
幢 2185
Ahmed 2184
空中@@ 2184
贿 2184
70@@ 2183
中学生 2183
伍 2183
六次 2183
售价 2183
申请@@ 2183
详见 2183
告别 2182
氟氯烃 2182
行为能力 2182
Li@@ 2181
Ms 2181
储备@@ 2181
智能@@ 2181
绝不会 2181
299 2180
全是 2180
卡扎菲 2180
奏@@ 2180
螺旋 2180
297 2179
公升 2179
危急 2179
好运 2179
漠@@ 2179
美德 2179
香蕉 2179
DC 2178
宏@@ 2178
宽度 2178
编排 2178
苍白 2178
但愿 2177
山顶 2177
投保 2177
消 2177
细分 2177
胜过 2177
裂缝 2177
XX 2176
不分@@ 2176
促进作用 2176
信息化 2176
傻@@ 2176
大笑 2176
工业界 2176
独裁@@ 2176
视察员 2176
予@@ 2175
巴尔干 2175
柔软 2175
罢了 2175
294 2174
证据规则 2174
权衡 2173
看护 2173
科尔 2173
营利 2173
460 2172
厉@@ 2172
安全感 2172
成形 2172
溢 2172
红利 2172
苏维埃 2172
较差 2172
大大提高 2171
打扮 2171
英属维尔京群岛 2171
信息网 2170
处方 2170
独立@@ 2170
IP 2169
商业化 2169
恶性循环 2169
昂@@ 2169
蜜@@ 2169
外汇储备 2168
睦邻@@ 2168
递延 2168
非正常 2168
面貌 2168
一下子 2167
中性 2167
富翁 2167
并非如此 2167
爱德华 2167
第五节 2167
解决@@ 2167
使用寿命 2166
昭@@ 2166
福利金 2166
长短 2166
青春期 2166
物件 2165
男士 2165
而出 2165
ama 2164
ii 2164
变迁 2164
器件 2164
荒谬 2163
高尚 2163
and@@ 2162
鸭 2162
har@@ 2161
主管人员 2161
墨西哥@@ 2161
娱乐@@ 2161
所受 2161
问及 2161
飞行器 2161
托运人 2160
映射 2160
欢迎@@ 2160
流血 2159
滥用权力 2159
AT@@ 2158
上一年 2158
发觉 2158
墓 2158
墨西哥政府 2158
摒弃 2158
信封 2157
公共财政 2157
合资企业 2157
惹 2157
拆毁 2157
极好 2157
订于 2157
认罪 2157
部将 2157
完全@@ 2156
身体@@ 2156
不间断 2155
填充 2155
man@@ 2154
崩@@ 2154
杯子 2154
盼望 2154
聚合物 2154
咸@@ 2153
备有 2153
干细胞 2152
更是如此 2152
氮@@ 2152
勃 2151
赎@@ 2151
衔 2150
议院 2150
访问@@ 2150
儒@@ 2149
第二种 2148
铺平道路 2148
单边 2147
安宁 2147
窄 2147
维护和平 2147
鲨鱼 2147
并会 2146
悲哀 2146
Ho@@ 2145
兰德 2145
彼得@@ 2145
印度尼西亚政府 2144
全民教育 2143
分手 2143
勒索 2143
商场 2143
立足于 2143
肝脏 2143
茄 2143
香港特区 2143
克莱 2142
加固 2142
淹没 2142
膝@@ 2142
菲尔德 2142
journal 2141
丑@@ 2141
复杂化 2141
流亡 2141
腹泻 2141
葡萄牙语 2141
负载 2141
便携式 2140
留存 2140
镑 2140
火车站 2139
ed 2138
杆@@ 2138
第二句 2138
胆 2138
藉@@ 2138
受训 2137
孙 2137
聚焦 2137
自尊 2137
养成 2136
多氯联苯 2136
椒 2136
遣散 2136
高加索 2136
共同点 2135
抹@@ 2135
正当程序 2135
监委 2135
充作 2134
最迟 2134
说谎 2134
匆匆 2133
备受 2133
开展调查 2132
文件系统 2132
柜@@ 2132
检察@@ 2132
琳@@ 2132
踪@@ 2132
一辈子 2131
书中 2131
口味 2131
牙科 2131
统治者 2131
这边 2131
切尔 2130
前一天 2130
钻 2130
饱和 2130
5.8 2129
勤奋 2129
叛军 2129
染@@ 2129
棵 2129
第三十二届 2129
葛@@ 2129
边远地区 2129
厌倦 2128
蜜蜂 2128
企业界 2127
北欧国家 2127
教育工作者 2127
爵 2127
au@@ 2126
三类 2126
些年来 2126
巧妙 2126
成因 2126
擅自 2126
极具 2126
流行病学 2126
譬如 2126
by 2125
恢复性 2125
慈@@ 2125
环卫 2125
耀@@ 2125
衡 2125
高潮 2125
发明@@ 2124
激进@@ 2124
太高 2123
字符串 2123
实话 2123
役@@ 2123
积极开展 2123
管制@@ 2123
赶走 2123
克里斯 2122
分隔 2122
建筑业 2122
旧金山 2122
未付 2122
管控 2122
组长 2122
除去 2122
na 2121
东道 2121
交通管制 2121
大体 2121
承包人 2121
窃 2121
聊@@ 2121
自私 2121
说服力 2121
家用 2120
男朋友 2120
姓氏 2119
指挥部 2119
普尔 2119
流浪 2119
维持@@ 2119
膝盖 2119
面向@@ 2119
哲学家 2118
缀 2118
事儿 2117
互信 2117
修缮 2117
坡@@ 2117
契 2117
投资人 2117
该届 2117
质量标准 2117
面部 2117
借以 2116
官僚 2116
座标 2116
棕@@ 2116
观察站 2116
雅各 2116
人手 2115
兔 2115
再次发生 2115
司令 2115
平方@@ 2115
短链 2115
西尔 2115
po@@ 2114
全方位 2114
冗长 2114
杰克逊 2114
追溯 2114
MA 2113
● 2113
会长 2113
保护性 2113
年末 2113
当量 2113
新颖 2113
朝鲜@@ 2113
段次 2113
澳 2113
运到 2113
魂 2113
与众不同 2112
总和 2112
PS 2111
投掷 2111
航空安全 2111
市政当局 2110
慎重 2110
皆@@ 2110
侯赛因 2109
双方同意 2109
基里巴斯 2109
灿烂 2109
焦 2109
财产@@ 2109
载述 2109
Ta@@ 2108
不得@@ 2108
发电厂 2108
媒体报道 2108
弗雷@@ 2108
无遗 2108
泉@@ 2108
滴滴涕 2108
犹@@ 2108
HIV 2107
执法机关 2107
授课 2107
政治局势 2107
械 2107
烘@@ 2107
门徒 2107
改叙 2106
柳@@ 2106
负起 2106
这辆 2106
政局 2105
盆@@ 2105
住房@@ 2104
加大力度 2104
安定 2104
谐@@ 2104
身处 2104
阿拉@@ 2104
293 2103
中国人民银行 2103
交换@@ 2103
低迷 2103
布里 2103
棍@@ 2103
济 2103
脏@@ 2103
vi 2102
会后 2102
保持稳定 2102
杀人@@ 2102
浪费时间 2102
滨 2102
身份证件 2102
一分 2101
偏向 2101
傻 2101
州政府 2101
当地人 2101
律师@@ 2101
标的 2101
410 2100
wa 2100
一小 2100
模拟@@ 2100
震动 2100
有损于 2099
核电站 2099
渗透@@ 2099
盘存 2099
社会科学 2099
该市 2099
驳 2099
全家 2098
跨文化 2098
出价 2096
录取 2096
搅@@ 2096
摩根 2096
放慢 2096
新闻报道 2096
第三十届 2096
壮大 2095
娜@@ 2095
重伤 2095
北朝鲜 2094
拉克 2094
枢纽 2094
柠@@ 2094
迟于 2094
上下文 2093
大意 2093
Vi@@ 2092
新能源 2092
贫民 2092
ai@@ 2091
ev 2091
匆忙 2091
扇@@ 2091
主角 2090
泄@@ 2090
踩 2090
面对面 2090
学说 2089
斯塔 2089
浆@@ 2089
皇 2089
豹 2089
REP 2088
之初 2088
地表 2088
布拉 2088
确定性 2088
软弱 2088
高原 2088
315 2087
IX 2087
上作 2087
亲切 2087
坝 2087
复合材料 2087
寄宿 2087
更糟 2087
范 2087
及第 2086
抗生素 2086
普森 2086
衣物 2086
金融公司 2086
第十一次 2085
动画 2084
各大 2084
氟碳 2084
立足 2084
固体废物 2083
课本 2083
312 2082
OL 2082
夸大 2082
花园里 2082
贫困家庭 2082
举证责任 2081
从句 2081
右边 2081
低廉 2080
推导 2080
双边关系 2079
在校 2079
坚称 2079
突发 2079
羽@@ 2079
行者 2079
回头 2078
客厅 2078
左边 2078
性感 2078
立方米 2078
轮廓 2078
⑵ 2077
交织 2077
卫生署 2077
反击 2077
安非他明 2077
弗拉@@ 2077
率高 2077
电极 2077
ji 2076
五年期 2076
内政部长 2076
农夫 2076
工地 2076
起步 2076
牵涉到 2075
誓@@ 2075
详细信息 2075
贯彻执行 2075
撤退 2074
直觉 2074
总面积 2073
碑 2073
答道 2073
庸 2072
立法者 2072
交出 2071
念头 2071
约旦@@ 2071
谨此 2071
反应@@ 2070
条目 2070
欣 2070
民盟 2070
骑士 2070
一般@@ 2069
值得一提的是 2069
太子港 2069
宠@@ 2069
建筑材料 2069
晓@@ 2069
杆菌 2069
求助于 2069
肌肤 2069
307 2068
修订案 2068
近地 2068
1500 2067
全体成员 2067
电影院 2067
航线 2067
路边 2067
希拉里 2066
波特 2066
ano 2065
以至 2065
建筑师 2065
最优 2065
源泉 2065
298 2064
390 2064
AL@@ 2064
停滞不前 2064
傲慢 2064
大夫 2064
选取 2064
之情 2063
匪@@ 2063
徽@@ 2063
木头 2063
Par@@ 2062
哺乳 2062
成人教育 2062
摩根士丹利 2062
旷日持久 2062
水流 2062
盲目 2062
触 2062
义务@@ 2061
出路 2061
放映 2061
旗下 2061
而后 2061
门诊 2061
阿富汗人 2061
外侨 2060
情报机构 2060
权威性 2060
伐@@ 2059
持续时间 2059
祥 2059
EM 2058
娘 2058
干嘛 2058
直升飞机 2058
一一 2057
几家 2057
匀@@ 2057
建筑工程 2057
疫 2057
积分 2057
能源安全 2057
ur 2056
不锈钢 2056
夏威夷 2056
聚合 2056
褐色 2056
姑@@ 2055
开销 2055
晚饭 2055
滩 2055
病变 2055
膳食 2055
Ben@@ 2054
IM@@ 2054
del 2054
lo@@ 2054
法国政府 2054
妻@@ 2053
攻击@@ 2053
新一轮 2053
浙@@ 2053
献给 2052
葬礼 2052
阿布@@ 2052
储 2051
凯特 2051
受人 2051
开放式 2051
特尔 2051
诺夫 2051
驻留 2051
下级 2050
温度@@ 2050
烟雾 2050
耸@@ 2050
自称 2050
良好@@ 2050
颊 2050
偷窃 2049
公共交通 2049
平息 2049
招待 2049
行政法院 2049
1955 2048
ez 2048
北欧 2048
土地改革 2048
失调 2048
出生率 2047
科学知识 2047
金融资产 2047
麻醉 2047
使者 2046
医学院 2046
第十 2046
臭 2046
血压 2046
规程 2046
阀门 2046
San@@ 2045
在此@@ 2045
完全同意 2045
牙医 2045
积极行动 2045
茫 2045
贸易壁垒 2045
上星期 2044
双向 2044
市场份额 2044
政体 2044
熊猫 2044
赫尔辛基 2044
随身@@ 2044
MI@@ 2043
乃 2043
人民解放军 2043
使用率 2043
皮埃尔 2043
第三世界 2043
避孕套 2043
Or@@ 2042
一堆 2042
体力 2042
公共信息 2042
刑院 2042
包装@@ 2042
新闻处 2042
社区服务 2042
轨@@ 2042
转送 2042
XL@@ 2041
成套 2041
公民权 2040
助产士 2040
实用性 2040
起义 2040
政治处 2039
狮 2039
终点 2039
绳@@ 2039
陌生 2039
偏差 2038
拿走 2038
村子 2038
歧@@ 2038
追究责任 2038
驾车 2038
一页 2037
候选 2037
我看来 2037
濒@@ 2037
行进 2037
警卫队 2037
这台 2037
连带 2037
数学模型 2036
讲解 2036
货币@@ 2036
选拔 2036
上以 2035
假释 2035
循证 2035
第四季度 2035
贫困地区 2035
重心 2035
6.8 2034
之久 2034
哲@@ 2034
家庭收入 2034
环境污染 2034
利物浦 2033
季节性 2033
愤 2033
接受@@ 2033
留出 2033
语气 2033
go@@ 2032
压倒@@ 2032
城区 2032
恶心 2032
户外 2032
海员 2032
虚弱 2032
项目表 2032
VIII 2031
『 2031
新来 2031
漫 2031
积极合作 2031
职守 2031
306 2030
EC@@ 2030
只得 2030
国对 2030
整编 2030
有幸 2030
欢 2030
Vol 2029
ñ 2029
叶片 2029
年青人 2029
德国政府 2029
成型 2029
海洋学 2029
石油价格 2029
EN@@ 2028
ff@@ 2028
伺@@ 2028
升起 2028
查理 2028
苯酚 2028
部厅 2028
哇 2027
天数 2027
差别待遇 2027
讲台 2027
David 2026
合同规定 2026
呼吸@@ 2026
拟设 2026
提高@@ 2026
水库 2026
跑道 2026
560 2025
不禁 2025
就绪 2025
构 2025
爱心 2025
瞬@@ 2025
Ku@@ 2024
ob@@ 2024
电子邮箱 2024
航空航天 2024
这支 2024
偏好 2023
公平@@ 2023
融化 2023
公国 2022
文人 2022
世界气象组织 2021
亵渎 2021
付诸@@ 2021
挣@@ 2021
钓鱼 2021
专题@@ 2020
为生 2020
倒闭 2020
毋@@ 2020
特区政府 2020
递解 2020
雨量 2020
313 2019
4.9 2019
三日 2019
力气 2019
小偷 2019
攀@@ 2019
气管 2019
知悉 2019
自觉 2019
表达式 2019
评分 2019
高危 2019
一丝 2018
修饰 2018
惊喜 2018
摇 2018
更进一步 2018
绘图 2018
别处 2017
民主选举 2017
议席 2017
人工流产 2016
唯有 2016
在上文 2016
尝@@ 2016
房租 2016
肯尼迪 2016
蚊帐 2016
ce@@ 2015
尖锐 2015
水稻 2015
社区@@ 2015
表彰 2015
依赖性 2014
增拨 2014
存有 2014
普里 2014
经验丰富 2014
上岗 2013
确有 2013
离散 2013
金斯 2013
长期@@ 2013
NA@@ 2012
兄 2012
厨师 2012
德语 2012
敞开 2012
水手 2012
炭@@ 2012
可用性 2011
康复中心 2011
措 2011
编撰 2011
贺卡 2011
309 2010
Qu@@ 2010
与会代表 2010
专属 2010
前走 2010
十九@@ 2010
凶手 2009
厂家 2009
应适当 2009
浴室 2009
滞留 2009
生日@@ 2009
砖@@ 2009
规管 2009
固然 2008
忧 2008
执业 2008
秀@@ 2008
赐@@ 2008
连接@@ 2008
店@@ 2007
贯彻落实 2007
造就 2007
共产主义 2006
紫色 2006
逐 2006
银行业务 2006
首选 2006
寸 2005
珍妮 2005
箭@@ 2005
越南@@ 2005
造型 2005
饱 2005
伊拉克人 2004
候选国 2004
口气 2004
堵 2004
诈@@ 2004
ESCAP 2003
慎@@ 2003
任一 2001
里夫 2001
1959 2000
卫星@@ 2000
宣判 2000
所欠 2000
矿床 2000
第三期 2000
肃@@ 2000
龄@@ 2000
Du@@ 1999
E4 1999
不好@@ 1999
两地 1999
信守 1999
冈@@ 1999
四十 1999
领海 1999
多家 1998
摊 1998
矮 1998
轮值 1998
遍@@ 1998
雀@@ 1998
非洲地区 1998
复活 1997
忙碌 1997
排队 1997
探视 1997
森林资源 1997
欢呼 1997
获知 1997
希德 1996
确凿 1996
致敬 1996
公诉 1995
技术员 1995
抗拒 1995
昧 1995
机枪 1995
民防 1995
时段 1994
gi@@ 1993
搜索引擎 1993
班级 1993
听听 1992
征用 1992
机组 1992
司令部 1991
特勒 1991
维持费 1991
万一 1990
万英镑 1990
枢@@ 1990
80@@ 1989
上海@@ 1989
举例@@ 1989
官僚@@ 1989
梅尔 1989
炮击 1989
腹 1989
ne 1988
明文规定 1988
服务费 1988
泛美 1988
身旁 1988
验收 1988
To@@ 1987
之手 1987
调试 1987
辛苦 1987
颂 1987
7.4 1986
拆 1986
现实@@ 1986
职人员 1986
主宰 1985
堵@@ 1985
鸭@@ 1985
sen 1984
病理 1984
第三十一条 1984
供应国 1983
克林 1983
再循环 1983
彭@@ 1983
报告期 1983
招收 1983
新华社 1983
民法典 1983
理会 1983
空间@@ 1983
老是 1983
起始 1983
驾驶员 1983
同性 1982
吸取@@ 1982
一到 1981
乏味 1981
昏 1981
篮子 1981
博拉 1980
各司 1980
层级 1980
门前 1980
全国@@ 1979
国民大会 1979
映 1979
梗@@ 1979
蕾@@ 1979
阿里@@ 1979
潜艇 1978
绘@@ 1978
货品 1978
326 1977
够@@ 1977
两侧 1976
两国之间 1976
以北 1976
Cor@@ 1975
NO@@ 1975
um 1975
充斥 1975
巴萨 1975
文件夹 1975
沟@@ 1975
熟练@@ 1975
糖果 1975
首批 1975
Mi@@ 1974
临界 1974
借给 1974
构件 1974
温家宝 1974
签约 1974
卓有成效 1973
咒@@ 1973
大象 1973
头衔 1973
微弱 1973
泊@@ 1973
督@@ 1973
第三季度 1973
股票@@ 1973
顽@@ 1973
凸显 1972
打扫 1972
抗议者 1972
杨 1972
自愿性 1972
运输系统 1972
内部@@ 1971
墓@@ 1971
好人 1971
滨@@ 1971
芯 1971
追 1971
审美 1970
寺 1970
希亚 1970
希伯@@ 1970
拓宽 1970
效仿 1970
斯洛伐克共和国 1970
无记名 1970
林肯 1970
维多利亚 1970
诉状 1970
这篇 1970
ing@@ 1969
ner 1969
固定资产 1969
外阴 1969
导师 1969
较强 1969
308 1968
仲裁@@ 1968
抽 1968
转发 1968
辣 1968
雷尔 1968
不能不 1967
抑郁症 1967
暴雨 1967
用力 1967
野心 1967
饮用 1967
马路 1967
四日 1966
巴西@@ 1966
朴 1966
高得 1966
储蓄@@ 1965
分从 1965
呼吸道 1965
橙@@ 1965
第七十@@ 1965
进口商 1965
8.1 1964
分权 1964
卑 1964
印刷@@ 1964
想念 1964
暴力犯罪 1964
第五号 1964
该署 1964
居民区 1963
应使 1963
战斗员 1963
烧毁 1963
街区 1963
诠释 1963
314 1962
Atlas 1962
ie@@ 1962
有效@@ 1962
克族 1961
况@@ 1961
当地政府 1961
迟迟 1961
纬@@ 1960
裨益 1960
保有 1959
兽医 1959
字体 1959
桌面 1959
臭@@ 1959
舌 1959
1874 1958
亚历山大 1958
应聘 1958
打击犯罪 1958
花朵 1958
资料@@ 1958
Jean 1957
悔@@ 1957
报警 1957
按摩 1957
特拉特 1957
空间数据 1957
乳 1956
所含 1956
拥有者 1956
毛利人 1956
It 1955
se 1955
条对 1955
管辖区 1955
雀 1955
之多 1954
全局 1954
山羊 1954
服务处 1954
赶快 1954
强力 1953
抛 1953
部在 1953
雇 1953
顶级 1953
bo@@ 1952
嵌@@ 1952
必然@@ 1952
日记 1952
气息 1952
滚动 1952
防务 1952
外商投资 1951
海边 1950
硫化物 1950
竭@@ 1950
各处 1949
折旧 1949
损耗 1949
据点 1949
掠@@ 1949
认真@@ 1949
青蛙 1949
所订 1948
扔@@ 1948
椭@@ 1948
洒 1948
洛尔科 1948
知名度 1948
穴 1948
来回 1947
浓 1947
环境监测 1947
系统化 1947
衡@@ 1947
十天 1946
囚 1946
天下 1946
巴塞罗那 1946
泥土 1946
用具 1946
着重强调 1946
怎 1945
授 1945
纪要 1945
防灾 1945
颇为 1945
van 1944
卖掉 1944
ti 1943
保证金 1943
租约 1943
能以 1943
趋向 1943
历届 1942
批判 1942
沙滩 1942
说明书 1942
中文@@ 1941
325 1940
亏@@ 1940
刚果共和国 1940
卢比 1940
囚禁 1940
有偿 1940
轧@@ 1940
伟 1939
参加国 1939
投降 1939
流出 1939
浮动 1939
绵@@ 1939
联想 1939
1956 1938
停下 1938
劣@@ 1938
开业 1938
神经网络 1938
离任 1938
笔者 1938
试验性 1938
ata 1937
国际收支 1937
并列 1937
恫吓 1937
水生 1937
第三项 1937
防守 1937
领水 1937
Cha@@ 1936
DA@@ 1936
IR@@ 1936
ie 1936
七名 1936
奸 1936
待定 1936
孕产 1935
小船 1935
月度 1935
氧气 1935
转账 1935
逐年 1935
遍布 1935
子宫 1934
开通 1934
征求意见 1934
淋巴@@ 1934
保健@@ 1933
华丽 1933
参与率 1933
款次 1933
毁@@ 1933
兵役 1932
清偿债务 1932
清洁@@ 1932
耗 1932
饮 1932
世俗 1931
伊斯兰共和国 1931
叉 1931
咽 1931
按规定 1931
挪用 1931
支架 1931
舌头 1931
迎来 1931
Po@@ 1930
两组 1930
产前 1930
加薪 1930
囚@@ 1930
捕捉 1930
芒 1930
吻合 1929
场上 1929
安德烈 1929
浏览器 1929
蝴蝶 1929
怎么回事 1928
资金不足 1928
队部 1928
333 1927
主席国 1927
厄尔尼诺 1927
墓地 1927
正视 1927
渴 1927
伊科 1926
匹 1926
管怎样 1926
纽带 1926
闪电 1926
470 1925
埋葬 1925
履@@ 1925
忌 1925
绑 1925
胎@@ 1925
错误@@ 1925
戴维 1924
政治部 1924
文化部 1924
69@@ 1923
凑 1923
并不认为 1923
建设@@ 1923
激光@@ 1923
环境治理 1923
竞争者 1923
楚@@ 1922
溪@@ 1922
韩 1922
卫生条件 1921
斜 1921
著作权 1921
非军事化 1921
Sar@@ 1920
参谋长 1920
尽头 1920
库尔德 1920
百万@@ 1920
肮脏 1920
旅途 1919
枯竭 1919
比喻 1919
1957 1918
318 1918
帖 1918
很差 1918
撒谎 1918
约瑟 1918
垂 1917
婚姻@@ 1917
尼亚人 1917
顺应 1917
驰 1917
东南部 1916
减速 1916
墨西哥城 1916
废墟 1916
怨 1916
猛 1916
编辑@@ 1916
羊毛 1916
大雨 1915
工艺品 1915
注射@@ 1915
班吉 1915
课程@@ 1915
ler 1914
下设 1914
做生意 1914
堵塞 1914
担 1914
海伦 1914
皮革 1914
胸部 1914
专属经济区 1913
戒烟 1913
旋风 1913
United 1912
未婚 1912
不言@@ 1911
专辑 1911
绒 1911
自由贸易区 1911
貌@@ 1911
质量@@ 1911
面粉 1911
Ka@@ 1910
吸纳 1910
安妮 1910
流动@@ 1910
淀粉 1909
驳斥 1909
ash@@ 1908
婚姻状况 1908
烂@@ 1908
面具 1908
Do@@ 1907
储量 1907
克朗 1907
劫持人质 1907
可笑 1907
感谢您 1907
未遂 1907
港元 1907
缉@@ 1907
那座 1907
世界旅游组织 1906
人际关系 1906
岛国 1906
最起码 1906
框@@ 1906
物价@@ 1906
转基因 1906
陷@@ 1906
ada 1905
参政 1905
慈善机构 1905
招呼 1905
沸@@ 1905
满足@@ 1905
经济制裁 1905
起身 1905
PA 1904
其下 1904
放牧 1904
新生力量 1904
纠@@ 1904
分配资源 1903
削@@ 1903
射线 1903
潘 1903
诉讼法 1903
迄今已 1903
修补 1902
决不会 1902
奶酪 1902
实际行动 1902
股票市场 1902
诡@@ 1902
不合 1901
先驱 1901
入狱 1901
幸福@@ 1901
拉斯@@ 1901
迫击炮 1901
ev@@ 1900
巡回 1900
马尼拉 1900
Morgan 1899
下车 1899
不复存在 1899
优异 1899
体外 1899
拳 1899
第二十九届 1899
使用暴力 1898
加倍 1898
哪些@@ 1898
排出 1898
腹部 1898
虫害 1898
行政区 1898
相互了解 1897
里斯本 1897
嘲@@ 1896
居民@@ 1896
深深地 1896
玛格丽特 1896
衔接 1896
Ay@@ 1895
出租@@ 1895
战略武器 1895
更广 1895
本年度 1895
水产 1895
测绘 1895
附文 1895
驯鹿 1895
君 1894
自备 1894
节制 1894
讲授 1894
we 1893
充分反映 1893
域名 1893
忠告 1893
涵@@ 1893
灌输 1893
瘾 1893
背叛 1893
膜@@ 1893
访客 1893
首尔 1893
产能 1892
地方性 1892
民族自治 1892
礼服 1892
铅@@ 1892
黎 1892
ry 1891
十多年 1891
源头 1891
风力 1891
支持@@ 1890
十分钟 1889
在下文 1889
面包@@ 1889
切尔西 1888
肝炎 1888
莱特 1888
铁路@@ 1888
但应 1887
冷漠 1887
吕@@ 1887
布琼布拉 1887
料到 1887
未交 1887
派系 1887
Muhammad 1886
该死 1886
AC@@ 1885
du@@ 1885
嚼 1885
大洋 1885
消化@@ 1885
瓦解 1885
金融体制 1885
3.9 1884
两族 1884
之日 1884
偿@@ 1884
恩斯 1884
晕@@ 1884
棒球 1884
移居 1884
露天 1884
人要 1883
卖出 1883
散会 1883
魔 1883
夸张 1882
强国 1882
猛虎 1882
若有 1882
近似 1882
上层 1881
专案 1881
创纪录 1881
在发言中 1881
士气 1881
抚 1881
整顿 1881
畜牧业 1881
英文版 1881
饥@@ 1881
ang@@ 1880
按揭 1880
时分 1880
电动 1880
羽毛 1880
迟交 1880
no@@ 1879
拦@@ 1879
探究 1879
有条@@ 1879
来得 1879
男孩子 1879
耕种 1879
重罪 1879
咳嗽 1878
常务委员会 1878
年均 1878
酚 1878
Ak@@ 1877
兵库 1877
分配情况 1877
基数 1877
深层 1877
申 1877
吸收@@ 1876
天主@@ 1876
明示 1876
谢赫 1876
国际协会 1875
往常 1875
这才 1875
鼻 1875
540 1874
亚斯 1874
器械 1874
惧怕 1874
水事 1874
肺癌 1874
脚本 1874
该省 1874
ung 1873
一棵 1873
亚美尼亚共和国 1873
旱 1873
有限元 1873
格雷 1872
登陆 1872
讲师 1872
辊 1872
ye@@ 1871
不公 1871
女友 1871
子孙后代 1871
德罗 1871
背道而驰 1871
该区 1871
辐射@@ 1871
des 1870
帐单 1870
泪 1870
涉 1870
狐狸 1870
芳 1870
半导体 1869
暖和 1869
保释 1868
储藏 1868
巴西政府 1868
监督制度 1868
相邻 1868
紫外线 1868
芋 1868
违规行为 1868
项中 1868
Col@@ 1867
使用@@ 1867
密切关系 1867
小农 1867
敦请 1867
管理科 1867
脚下 1867
mi@@ 1866
埃及@@ 1866
特罗 1866
联运 1866
胡锦涛 1866
芳@@ 1866
锯@@ 1866
创始 1865
割礼 1865
流传 1865
犹豫 1865
美的 1865
ö 1864
保持沉默 1864
混合@@ 1864
爷 1864
美洲开发银行 1864
诋毁 1864
小事 1863
hi 1862
加利福尼亚 1862
洗衣@@ 1862
系统管理 1862
肥料 1862
过错 1862
近代 1862
鼠标 1862
21.@@ 1861
全面落实 1861
加班费 1861
惯 1861
抨击 1861
猖獗 1861
窗外 1861
蒸发 1861
身穿 1861
近乎 1861
首个 1861
香味 1861
凶 1860
娃娃 1860
晒 1860
第一种 1860
雌@@ 1860
ish@@ 1859
劲@@ 1859
围栏 1859
氰@@ 1859
绅士 1859
无期徒刑 1858
西北部 1858
译员 1858
Per@@ 1857
ko@@ 1857
复会 1857
折衷 1857
罢 1857
780 1856
ker 1856
国产 1856
增值税 1856
游览 1856
磁盘 1856
8.2 1855
亟@@ 1855
佩林 1855
全面性 1855
布兰@@ 1855
拒绝@@ 1855
树叶 1855
涂层 1855
电离@@ 1855
人身自由 1854
傻瓜 1854
契@@ 1854
小儿麻痹症 1854
棋 1854
殷@@ 1854
物力 1854
硬化 1854
颁@@ 1854
入账 1853
每桶 1853
追溯到 1853
邦特 1853
彼此之间 1852
患上 1852
罢@@ 1852
金矿 1852
MS 1851
急于 1851
阿根廷共和国 1851
旦 1850
运载火箭 1850
高技术 1850
PR@@ 1849
下向 1849
功能@@ 1849
哥伦比亚政府 1849
宇航员 1849
滥用职权 1849
稳健 1849
脊 1849
ley 1848
年轻@@ 1848
制冷 1847
听询 1847
复杂@@ 1847
学生@@ 1847
滑雪 1847
霸@@ 1847
下个月 1846
具体地说 1846
右翼 1846
学童 1846
客户服务 1846
转让技术 1846
还原 1846
郁 1846
酵@@ 1846
55@@ 1845
分居 1845
创下 1845
国应 1845
手下 1845
概念@@ 1845
绝对@@ 1845
行政事务 1845
钴 1845
关键时刻 1844
哨@@ 1844
复核 1844
死于 1844
监督@@ 1844
China 1843
Mohammed 1843
五氯 1843
工程项目 1843
最高级别 1843
颇@@ 1843
der@@ 1842
征询 1842
证券@@ 1842
不偏不倚 1841
化肥 1841
工序 1841
搬运 1841
肾 1841
那场 1841
技术创新 1840
挣 1840
摘 1840
77@@ 1839
CD@@ 1839
一无@@ 1839
中药 1839
亭 1839
保守@@ 1839
小岛 1839
Peter 1838
ge 1838
两边 1838
写出 1838
午夜 1838
年终 1838
怎样才能 1838
提具 1838
沈@@ 1838
综合征 1838
ü 1836
比索 1836
海军@@ 1836
相互信任 1836
㈦ 1835
中未 1835
仿效 1835
右手 1835
同性恋者 1835
灰尘 1835
锅炉 1835
房委会 1834
拥护 1834
拼命 1834
敏捷 1834
毫@@ 1834
生产线 1834
秘@@ 1834
纲 1834
经贸 1834
赫尔@@ 1834
23.@@ 1833
取向 1833
服饰 1833
电子地图 1833
经贸@@ 1833
象是 1833
闷@@ 1833
化工 1832
国务秘书 1832
土豆 1832
枪击 1832
氧化物 1832
阐释 1832
全国人民代表大会常务委员会 1831
棱@@ 1831
郊 1831
光辉 1830
十五日 1830
发出通知 1830
宣传教育 1830
没人 1830
焚@@ 1830
钢铁@@ 1830
台阶 1829
多国 1829
提早 1829
显微镜 1829
晒@@ 1829
照亮 1829
铃@@ 1829
音频 1829
领事馆 1829
He@@ 1828
XX@@ 1828
描写 1828
qu@@ 1827
好吃 1827
米亚 1827
维权 1827
航海 1827
辜@@ 1827
雕刻 1827
Bi@@ 1826
几份 1826
加油 1826
总有 1826
确 1826
茅@@ 1826
调停 1826
一夜 1825
土地权 1825
在座 1825
世界知识产权组织 1824
极端分子 1824
硕士学位 1824
迫击炮弹 1824
一端 1823
尼尔 1823
用到 1823
苏尔 1823
Ahmad 1822
幼儿@@ 1822
筑@@ 1822
位移 1821
入手 1821
出生日期 1821
分析@@ 1821
口腔 1821
商谈 1821
渊源 1821
麻管局 1821
虑 1820
宴 1819
弃权票 1819
此项工作 1819
管理工具 1819
迁往 1819
阔@@ 1819
Mat@@ 1818
代行 1818
公用 1818
有别于 1818
桂@@ 1818
溴@@ 1818
马尔维纳斯群岛 1818
冷冻 1817
分公司 1817
挫败 1817
极高 1817
特质 1817
相互理解 1817
保安@@ 1816
叙@@ 1816
相适应 1816
ara 1815
不均 1815
中华人民共和@@ 1815
扫除 1815
投标人 1815
明斯克 1815
萨姆 1815
雄 1815
六日 1814
恒星 1814
最低@@ 1814
活性@@ 1814
热心 1814
相继 1814
英文@@ 1814
0.1 1813
1952 1813
im 1813
分配@@ 1813
确度 1813
转折点 1813
过重 1813
高额 1813
319 1812
507 1812
好坏 1812
时地 1812
沥青 1812
溪 1812
究 1812
织 1812
胀 1812
马里@@ 1812
一看 1811
光芒 1811
区域开发 1811
各异 1811
完成@@ 1811
马其顿 1811
位居 1810
同侪 1810
场面 1810
开发新 1810
握手 1810
普及教育 1810
降雨 1810
one 1809
奏效 1809
持有者 1809
猎人 1809
畸形 1809
跨学科 1809
侵占 1808
二十五 1807
心血管 1807
方方面面 1807
极有 1807
诈骗 1807
all@@ 1806
so@@ 1806
发音 1806
召唤 1806
巧@@ 1806
帝力 1806
无理 1806
谢意 1806
Fa@@ 1805
世界市场 1805
捣@@ 1805
视频会议 1805
钱财 1805
锻@@ 1805
CO2 1804
分机 1804
拱@@ 1804
无私 1804
监护权 1804
长途@@ 1804
军事力量 1803
口服 1803
屋子里 1803
港币 1803
之旅 1802
其能 1802
宏伟 1802
对话者 1802
就学 1802
掺@@ 1802
杀手 1802
伍@@ 1801
可信性 1801
萘 1801
重新启动 1801
寄给 1800
网络安全 1800
禁用 1799
警觉 1799
近年 1799
隶属于 1799
高中@@ 1799
一无所知 1798
同意书 1798
模特 1798
赋@@ 1798
青睐 1798
什叶派 1797
逐步@@ 1797
Mal@@ 1796
人因 1796
仇视 1796
向导 1796
引诱 1796
武器弹药 1796
脂肪@@ 1796
人身保护 1795
玉 1795
等同 1795
自立 1795
贪污@@ 1795
边界地区 1795
加载 1794
努力争取 1794
各界 1794
文化背景 1794
标示 1794
洄游 1794
洛克 1794
苏丹共和国 1794
莲 1794
530 1793
ho@@ 1793
而论 1793
Ltd 1792
任满 1792
写下 1792
劳动部 1792
期盼 1792
武装@@ 1792
皇后 1792
突显 1792
阈值 1792
IT@@ 1791
不成比例 1791
专业培训 1791
以利 1791
克利 1791
哈桑 1791
宪 1791
德国人 1791
耗尽 1791
交互式 1790
伤害力 1790
割 1790
学士 1790
峰@@ 1790
州市 1790
摄像机 1790
OEWG 1789
asp 1789
会儿 1789
发售 1789
委托人 1789
对准 1789
忙于 1789
拉尼 1789
机油 1789
狩猎 1789
环绕 1789
祥@@ 1789
美学 1789
耕@@ 1789
赐给 1789
高等@@ 1789
9.1 1788
亚伯拉罕 1788
双眼 1788
微克 1788
排水 1788
正确@@ 1788
爆炸事件 1788
谜 1788
阿拉 1788
预支 1788
MC 1787
Mor@@ 1787
个人电脑 1787
商标@@ 1787
尽职 1787
引人@@ 1787
炸死 1787
精灵 1787
长期投资 1787
台风 1786
烫 1786
22@@ 1785
千名 1785
友好@@ 1785
坎 1785
1718 1784
Th@@ 1784
业余 1784
兄弟姐妹 1784
增长@@ 1784
马尔维纳斯 1784
1947 1783
MSP 1783
上演 1782
亲眼@@ 1782
压缩@@ 1782
团结起来 1782
土耳其共和国 1782
外壳 1782
掠 1782
澳大利@@ 1782
社会各界 1782
第五十 1782
aya 1781
求偿 1781
车道 1781
一百一十 1780
准备@@ 1780
电气@@ 1780
编制工作 1780
畏 1779
难民@@ 1779
Ni@@ 1778
三角洲 1778
叉@@ 1778
喂养 1778
对性 1778
猜想 1778
美食 1778
膝 1778
饼干 1778
HRI 1777
塑 1777
et@@ 1776
孩@@ 1776
怜悯 1776
抚恤金 1776
捐 1776
柬埔寨政府 1776
窝@@ 1776
No@@ 1775
减半 1775
客户端 1775
开立 1775
民事责任 1775
筛查 1775
道路交通 1775
ala 1774
没关系 1774
这有 1774
323 1773
城市论坛 1773
施用 1773
棉 1773
电线 1773
蠢@@ 1773
增速 1772
政令 1772
税务局 1772
SC@@ 1771
愧 1771
稿@@ 1771
调查小组 1771
黑夜 1771
950 1770
个性化 1770
入境@@ 1770
坎昆 1770
更为严重 1770
源代码 1770
竭 1770
许多年 1770
赛人 1770
387 1769
克劳@@ 1769
南美 1769
活泼 1769
一百零@@ 1768
历年 1768
行业@@ 1768
出版@@ 1767
司法官员 1767
抗辩 1767
政治性 1767
研讨 1767
钞票 1767
ter 1766
侵略者 1766
本专题 1766
勘查 1765
受阻 1765
慌@@ 1765
腿@@ 1765
近海 1765
660 1764
之三 1764
公平竞争 1764
微粒 1764
未予 1764
梭 1764
直播 1764
会场 1763
作风 1763
喂@@ 1763
喉 1763
寂寞 1763
晚期 1763
爱好者 1763
疹 1763
盗 1763
迟延 1763
oo@@ 1762
伤亡@@ 1762
充沛 1762
各个部门 1762
境@@ 1762
Mer@@ 1761
三角@@ 1761
不详 1761
乃@@ 1761
搅拌 1761
显示器 1761
泳@@ 1761
礼宾 1761
粉碎 1761
掏@@ 1760
睁@@ 1760
窒息 1760
简明 1760
ach@@ 1759
一则 1759
不至于 1759
传播媒介 1759
做饭 1759
制成品 1759
本科 1759
添加剂 1759
甜蜜 1759
知识分子 1759
详细@@ 1759
广东 1758
惩罚性 1758
无助于 1758
通过培训 1758
鼠@@ 1758
会话 1757
借款人 1757
冒犯 1757
化为 1757
呵 1757
派往 1757
流利 1757
古典 1756
恶性 1756
观测@@ 1756
赫斯 1756
透彻 1756
镶@@ 1756
非关税壁垒 1756
期末 1755
板块 1755
此地 1755
联系人 1755
金融业 1755
闯入 1755
24.@@ 1754
Ste@@ 1754
入睡 1754
凤@@ 1754
加特 1754
拷贝 1754
深入分析 1754
电子政务 1754
增加额 1753
学士学位 1753
恳求 1753
恶魔 1753
情人节 1753
撤军 1753
湾仔 1753
疲倦 1753
礼仪 1753
自杀@@ 1753
钚 1753
错综复杂 1753
马克思主义 1753
ID@@ 1752
不切实际 1752
全国人大常委会 1752
峡谷 1752
弧@@ 1752
猩猩 1752
瞧@@ 1752
蒂斯 1752
车祸 1752
雅虎 1752
个子 1751
突变 1751
关联性 1750
十足 1750
暴乱 1750
瑞士@@ 1750
阿斯@@ 1750
预留 1750
gu@@ 1749
卡斯 1749
哭@@ 1749
指纹 1749
最受 1749
润@@ 1749
线程 1749
遗体 1749
ic 1748
堡@@ 1748
建国 1748
精算师 1748
铺设 1748
长寿 1748
ISO 1747
Is@@ 1747
KP 1747
不法 1747
光滑 1747
凌晨 1747
分辨 1747
劳工市场 1747
去掉 1747
乔治@@ 1746
组在 1746
缓冲 1746
中作 1745
亚当 1745
彬@@ 1745
晨@@ 1745
沼@@ 1745
长长的 1745
障碍@@ 1745
顺差 1745
Fed 1744
Ram@@ 1744
一时间 1744
正要 1744
缺乏@@ 1744
象征性 1744
赶紧 1744
铸 1744
时髦 1743
西藏@@ 1743
° 1742
副产品 1742
南极洲 1742
510 1741
专心 1741
制宪 1741
媒体@@ 1741
旅行@@ 1741
电文 1741
笔记 1741
统计学 1741
田野 1740
饶@@ 1740
Te@@ 1739
ane 1739
ci@@ 1739
依次 1739
国务@@ 1739
律法 1739
提要 1739
每季度 1739
税法 1739
视线 1739
讲习会 1739
当场 1738
斥@@ 1738
曝光 1738
河水 1738
背离 1738
回升 1737
已使 1737
气球 1737
石块 1737
矿山 1737
选举@@ 1737
me 1736
人员@@ 1736
归化 1736
管教 1736
聋@@ 1736
肺炎 1736
金融交易 1736
预备@@ 1736
一例 1735
向本 1735
宣传材料 1735
意大利政府 1735
拆卸 1735
政策性 1735
教士 1735
普选 1735
缩写 1735
迪克 1735
高级法院 1735
奥斯卡 1734
对口 1734
武器@@ 1734
瓦利 1734
甘 1734
连结 1734
鸦 1734
奇妙 1733
海岸线 1733
荧光 1733
补充@@ 1733
该组 1733
语句 1733
通用@@ 1733
﹐ 1733
640 1732
刚好 1732
化妆品 1732
法国@@ 1732
笑声 1732
317 1731
335 1731
凝聚 1731
发援会 1731
巴德 1731
巴拿马@@ 1731
UR@@ 1730
以下内容 1730
使用费 1730
景点 1730
绵 1730
脸色 1730
合法@@ 1729
减刑 1728
周边地区 1728
嘉 1728
童婚 1728
训练班 1728
能源供应 1727
CC 1726
Pro@@ 1726
亚尔 1726
毛派 1726
河谷 1726
漫画 1726
煤气 1726
资料袋 1726
～ 1726
375 1725
Sect 1725
三周 1725
二十周年 1725
以东 1725
别国 1725
工人@@ 1725
平价 1725
热门 1725
这样的话 1725
随之而来 1725
DE@@ 1724
东正教 1724
唤醒 1724
拉萨 1724
接壤 1724
狭@@ 1724
珀 1724
瑞士政府 1724
西班牙政府 1724
WG@@ 1723
res 1723
水系统 1723
汇聚 1723
重复@@ 1723
共处 1722
哈尔 1722
执政党 1722
步入 1722
美分 1722
语义 1722
转播 1722
化物 1721
北大西洋公约组织 1721
小鸟 1721
相遇 1721
誓 1721
过渡性 1721
Da@@ 1720
不列颠 1720
型飞机 1720
外交人员 1720
夫斯基 1720
捞 1720
涨幅 1720
Wal@@ 1719
一代人 1719
各族人民 1719
大面积 1719
离不开 1719
邮政@@ 1719
齐全 1719
CC@@ 1718
一等 1718
乙醇 1718
反腐 1718
古迹 1718
楼上 1718
重大意义 1718
5935 1717
佐 1717
寄养 1717
工艺@@ 1717
并不需要 1717
日程表 1717
爸@@ 1717
诚然 1717
驱使 1717
rez 1716
兰人 1716
川@@ 1716
年长 1716
度量 1716
来文@@ 1716
特拉@@ 1716
电磁 1716
符合国家 1716
领导力 1716
为人知 1715
加入书 1715
最先 1715
精通 1715
达到@@ 1715
中等@@ 1714
倒塌 1714
悖 1714
敌对@@ 1714
死因 1714
CR@@ 1713
太过 1713
性生活 1713
第十二 1713
蟹 1713
5.9 1712
共振 1712
十大 1712
相当@@ 1712
铁矿石 1712
骨骼 1712
出手 1711
多半 1711
密切@@ 1711
情况@@ 1711
珀@@ 1711
简单@@ 1711
触摸 1711
National 1710
our 1710
圣城 1710
搏 1710
方人 1710
米勒 1710
经验交流 1710
雕像 1710
静下来 1710
发射器 1709
补偿金 1709
这时候 1709
银河 1709
非洲@@ 1709
五十年 1708
住房问题 1708
军控 1708
劳工部 1708
孟@@ 1708
改性 1708
活动家 1708
研究进展 1708
致残 1708
国家标准 1707
地处 1707
天气@@ 1707
宰@@ 1707
悉尼 1707
括号 1707
挽回 1707
摇摇@@ 1707
广播节目 1706
特别@@ 1706
背上 1706
良知 1706
人则 1705
内陆国 1705
基亚 1705
帝国主义 1705
新鲜@@ 1705
旨@@ 1705
沙龙 1705
的黎波里 1705
要花 1705
难受 1705
饮食@@ 1705
全港 1704
别无选择 1704
史蒂@@ 1704
施以 1704
紧张@@ 1704
选中 1704
递增 1704
举起 1703
乙方 1703
利性 1703
参赛 1703
吉尔吉斯共和国 1703
淘@@ 1703
琐@@ 1703
矿工 1703
祸@@ 1703
袋@@ 1703
阿巴斯 1703
Ge@@ 1702
僧@@ 1702
劣势 1702
水晶 1702
陆运 1702
AM@@ 1701
利斯 1701
勃勃 1701
喜剧 1701
困苦 1701
破坏@@ 1701
起伏 1701
起源于 1701
运算 1701
327 1700
so 1700
分遣队 1700
大院 1700
投票站 1700
挑 1700
牧 1700
MI 1699
作贡献 1699
可谓 1699
围墙 1699
秦@@ 1699
驱回 1699
490 1698
中来 1698
警戒 1698
8.5 1697
ing 1697
中间人 1697
修女 1697
关键所在 1696
巴马科 1696
斥 1696
私隐 1696
领带 1696
技术厅 1695
捐献 1695
未经许可 1695
样一来 1695
赖斯 1695
追逐 1695
逾@@ 1695
han 1694
即审 1694
纯洁 1694
纽约@@ 1694
该党 1694
过敏 1694
驾驶@@ 1694
世代 1693
丰厚 1693
劳工@@ 1693
感应 1693
最低水平 1693
泪水 1693
35@@ 1692
头来 1692
滋生 1692
管理条例 1692
高空 1692
帆 1691
无常 1691
有效途径 1691
歉@@ 1691
照相机 1691
确保安全 1691
踪 1691
阿根廷政府 1691
berg 1690
放射性物质 1690
逛 1690
难忘 1690
龟 1690
Ri@@ 1689
人类@@ 1689
渺@@ 1689
珍视 1689
罗马@@ 1689
艰@@ 1689
付清 1688
初级@@ 1688
四天 1688
多彩 1688
安东尼奥 1688
挑起 1688
焊 1688
用量 1688
自然界 1688
致以 1688
1737 1687
同等@@ 1687
布里@@ 1687
爱滋病 1687
人口老龄化 1686
仁慈 1686
偿金 1686
关键在于 1686
抽签 1686
柔和 1686
窗子 1686
身高 1686
隔离区 1686
720 1685
战役 1685
铐 1685
铸造 1685
预先@@ 1685
328 1684
榜 1684
高等学校 1684
万物 1683
信号@@ 1683
安哥拉政府 1683
实习生 1683
慕@@ 1683
操作性 1683
次日 1683
粗糙 1683
羡慕 1683
轻轻地 1683
Sim@@ 1682
供词 1682
新加坡@@ 1682
点头 1682
矫@@ 1682
自有 1682
ab 1681
esa 1681
嫌疑 1681
居留证 1681
指着 1681
旱@@ 1681
煎@@ 1681
缅@@ 1681
莎士比亚 1681
扫描@@ 1680
曾多次 1680
清新 1680
若干次 1680
迷惑 1680
逐出 1680
髓@@ 1680
321 1679
š 1679
汇辑 1679
烹@@ 1679
礼堂 1679
罗伯@@ 1679
非人 1679
620 1678
AP 1678
式化 1678
萌@@ 1678
朱 1677
种姓 1677
老朋友 1677
逐一 1677
闪烁 1677
中西部 1676
出名 1676
整洁 1676
症@@ 1676
磁带 1676
高大 1676
傍晚 1675
推向 1675
摄影@@ 1675
独有 1675
自由主义 1675
逃走 1675
千人 1674
抗灾 1674
流逝 1674
专制 1673
在乎 1673
奢侈品 1673
投入使用 1673
睦@@ 1673
肆@@ 1673
6.9 1672
关掉 1672
卜@@ 1672
定律 1672
疲力@@ 1672
而异 1672
请求书 1672
POPRC 1671
安卡拉 1671
官方语言 1671
荷兰政府 1671
该行 1671
BO@@ 1670
台上 1670
哈里@@ 1670
屋宇 1670
无益 1670
盟国 1670
菲尔 1670
Gi@@ 1669
ski 1669
中小 1669
屁股 1669
浓缩铀 1669
生产量 1669
硕@@ 1669
解放阵线 1669
辑 1669
一如 1668
封面 1668
特工 1668
眼神 1668
萨利@@ 1668
诉人 1668
law 1667
侧重点 1667
分散@@ 1667
园艺 1667
复印件 1667
小屋 1667
成功经验 1667
手续费 1667
海湾合作委员会 1667
钾 1667
AI 1666
ira 1666
人员伤亡 1666
各点 1666
小狗 1666
痒 1666
矿区 1666
︰ 1666
Far@@ 1665
end@@ 1665
别忘了 1665
剧本 1665
常识 1665
并存 1665
技术标准 1665
晓得 1665
火箭弹 1665
盲 1665
称职 1665
衰老 1665
览@@ 1665
身于 1665
卡洛斯 1664
境界 1664
声望 1664
奴@@ 1664
官兵 1664
第@@ 1664
给定 1664
迟缓 1664
遍及 1664
ali 1663
归档 1663
打伤 1663
甲方 1663
若能 1663
萨科@@ 1662
不吃 1661
健康@@ 1661
吞 1661
期中 1661
白皮书 1661
处所 1660
察觉 1660
所在@@ 1660
拟于 1660
染色体 1660
楼房 1660
相互之间 1660
魏@@ 1660
中均 1659
投放 1659
新世纪 1659
湿度 1659
迫切@@ 1659
成品 1658
托尼 1658
援助@@ 1658
符合条件 1658
精美 1658
长城 1658
346 1657
ah@@ 1657
人应 1657
兵营 1657
基尔 1657
年老 1657
林业@@ 1657
继任 1657
翔 1657
322 1656
一口气 1656
丢弃 1656
仅次于 1656
喘@@ 1656
失控 1656
山地 1656
徐@@ 1656
葱 1656
调入 1656
伪 1655
动手 1655
同位素 1655
开发商 1655
独裁 1655
职业病 1655
Che@@ 1654
不胜@@ 1654
余时间 1654
历次 1654
叫声 1654
嚷 1654
常务副 1654
并作 1654
当前@@ 1654
法老 1654
洞穴 1654
进行性 1654
Ger@@ 1653
变通 1653
巴勒斯坦解放组织 1653
彻底@@ 1653
昌@@ 1653
林地 1653
海豚 1653
水土@@ 1652
钻井 1652
345 1651
丙 1651
体育馆 1651
在押 1651
新闻媒介 1651
暴力行动 1651
一律平等 1650
军事基地 1650
协调@@ 1650
取而代之 1650
献 1650
BC 1649
养人 1649
弄清 1649
引信 1649
拿来 1649
最新进展 1649
窥@@ 1649
临到 1648
地以 1648
普斯卡 1648
条至 1648
粘 1648
喉@@ 1647
家庭环境 1647
真实@@ 1646
眠@@ 1646
罚@@ 1646
职业道德 1646
金字塔 1646
面板 1646
上期 1645
介于 1645
富有成果 1645
打下 1645
抽屉 1645
裂纹 1645
身份@@ 1645
逝 1645
ca 1644
分量 1644
大衣 1644
太久 1644
奥林匹克运动会 1644
拍卖@@ 1644
捷 1644
斐@@ 1644
正确性 1644
邓@@ 1644
驴 1644
7.7 1643
动向 1643
小时候 1643
扼杀 1643
抬起 1643
时速 1643
订定 1643
谎@@ 1643
足迹 1643
324 1642
奇异 1642
弟 1642
戒 1642
稠@@ 1642
闪 1642
伐木 1641
各项任务 1641
循 1641
握@@ 1641
竞标 1641
能见度 1641
颤抖 1641
上周五 1640
冰川 1640
掩护 1640
比勒陀利亚 1640
种植@@ 1640
策@@ 1640
置疑 1640
葡萄牙@@ 1640
间隙 1640
337 1639
University 1639
顾问@@ 1639
bi@@ 1638
全球定位系统 1638
唐 1638
地基 1638
实施者 1638
懒惰 1638
橱@@ 1638
电磁@@ 1638
蓬勃发展 1638
转用 1638
852 1637
寥@@ 1637
成瘾 1637
方言 1637
实实在在 1636
庙 1636
愈合 1636
甚么 1636
老实 1636
Abdul@@ 1635
先行 1635
养老@@ 1635
内部事务 1635
多位 1635
曼联 1635
梅托 1635
过长 1635
SPLOS 1634
丛林 1634
亲吻 1634
人格@@ 1634
外资企业 1634
天地 1634
妹 1634
宋@@ 1634
家庭事务 1634
放射源 1634
决议案 1633
本分 1633
知识@@ 1633
进球 1633
选择@@ 1633
顺着 1633
Pro 1632
一瓶 1632
主页 1632
后方 1632
屏障 1632
数据分析 1632
最坏 1632
游戏@@ 1632
现成 1632
8.3 1631
扁@@ 1631
拓@@ 1631
无异议 1631
款式 1631
矿石 1631
竣工 1631
婆@@ 1630
带回 1630
怀有 1630
溺@@ 1630
盈 1630
装满 1630
调查组 1630
退学 1630
邪@@ 1630
马克思 1630
专题报告 1629
交替 1629
从小 1629
募@@ 1629
北极@@ 1629
界人士 1629
精致 1629
结转 1629
观光 1629
防御@@ 1629
阵营 1629
专有 1628
侨@@ 1628
凋@@ 1628
受损害 1628
婴幼儿 1628
整修 1628
施暴 1628
部级 1628
重启 1628
Fer@@ 1627
乐园 1627
太小 1627
奶油 1627
实践@@ 1627
人生@@ 1626
关键技术 1626
各方对 1626
多份 1626
日间 1626
珍珠 1626
疫@@ 1626
联会 1626
计算机设备 1626
辉 1626
辩方 1626
隐含 1626
329 1625
二个 1625
加仑 1625
可悲 1625
地层 1625
春节 1625
果汁 1625
治罪 1625
还好 1625
分子@@ 1624
南奥塞梯 1624
国集团 1624
普通人 1624
洪灾 1624
环球 1624
袍 1624
eg@@ 1623
上报 1623
多功能 1623
无尽 1623
栅栏 1623
联合国安理会 1623
贷项 1623
产地 1622
任何@@ 1622
侵略@@ 1622
纬 1622
行政处罚 1622
袋子 1622
违犯 1622
举出 1621
二零零六年 1621
哈佛大学 1621
垮 1621
性别差异 1621
教学大纲 1621
留言 1621
纤@@ 1621
路障 1621
不介意 1620
买下 1620
吊销 1620
呈交 1620
品尝 1620
巴克 1620
歌声 1620
爱上 1620
严格@@ 1619
互动式 1619
人权@@ 1619
人种 1619
分级 1619
司法独立 1619
已达 1619
抵押@@ 1619
佩戴 1618
服务提供商 1618
胶囊 1618
表达@@ 1618
趋 1618
这一@@ 1618
AD@@ 1617
不休 1617
六项 1617
地使 1617
地去 1617
屠@@ 1617
币@@ 1617
补充性 1617
大叫 1616
怀特 1616
时钟 1616
狡@@ 1616
绝育 1616
oc@@ 1615
与日俱增 1615
康乐 1615
论者 1615
WTO 1614
光荣 1614
受托人 1614
实际意义 1614
射入 1614
登载 1614
粮食价格 1614
运输工具 1614
采样 1613
Ash@@ 1612
RO@@ 1612
三届 1612
恳@@ 1612
本级 1612
读取 1612
风俗 1612
双胞胎 1611
年时 1611
玩笑 1611
美国公司 1611
芦@@ 1611
装卸 1611
予以考虑 1610
伦斯 1610
复查 1610
想过 1610
慰@@ 1610
贝尔@@ 1610
406 1609
业经 1609
未有 1609
讲坛 1609
陆路 1609
大洲 1608
根基 1608
主人@@ 1607
五大 1607
受体 1607
寂 1607
批发 1607
渠 1607
见于 1607
因果 1606
旅行者 1606
本性 1606
群落 1606
下个 1605
住院@@ 1605
客车 1605
屡@@ 1605
提供方便 1605
施压 1605
无能为力 1605
紊乱 1605
肥沃 1605
66@@ 1604
一号 1604
上衣 1604
坏事 1604
审计长 1604
岛民 1604
峰值 1604
敏锐 1604
蚂蚁 1604
354 1603
和准 1603
星系 1603
联机 1603
金子 1603
Mil@@ 1602
一切都是 1602
五日 1602
压抑 1602
向来 1602
嵌 1602
接待@@ 1602
晃@@ 1602
管理费用 1602
预算赤字 1602
Corp 1601
信用@@ 1601
全面@@ 1601
半天 1601
围困 1601
地下@@ 1601
客气 1601
联系@@ 1601
评为 1601
课税 1601
习惯@@ 1600
保佑 1600
摩洛哥王国 1600
樱@@ 1600
欧佩克 1600
波及 1600
能源价格 1600
辨别 1600
饿@@ 1600
免得 1599
挪威政府 1599
精明 1599
过大 1599
EP 1598
Mad@@ 1598
PO@@ 1598
不难 1598
参与权 1598
拿破仑 1598
校舍 1598
科长 1598
美洲@@ 1598
逝世 1598
③ 1597
之声 1597
会议纪要 1597
全权代表 1597
关头 1597
抽出 1597
拍照 1597
管理体系 1597
而生 1597
腻 1597
通话 1597
雨季 1597
Chi@@ 1596
fi@@ 1596
中世纪 1596
中介@@ 1596
外币 1596
天花板 1596
战斗@@ 1596
批发@@ 1596
改编 1596
服务部 1596
构思 1596
炎热 1596
药性 1596
336 1595
体育场 1595
受制于 1595
口中 1595
大区 1595
奇特 1595
女士们 1595
毛坯 1595
氨酸 1595
考古 1595
长处 1595
页@@ 1595
合力 1594
呃 1594
档@@ 1594
棵树 1594
继而 1594
几届 1593
土耳其政府 1593
无阻 1593
殿下 1593
电阻 1593
第十二次 1593
中风 1592
僻 1592
心思 1592
相差 1592
缺损 1592
退款 1592
逗@@ 1592
闲 1592
阻塞 1592
培养@@ 1591
密切注意 1591
就行了 1591
应邀@@ 1591
don 1590
坪 1590
当下 1590
掘@@ 1590
提供数据 1590
椎 1590
螺旋@@ 1590
库克 1589
筹办 1589
糊 1589
获奖 1589
该地 1589
谣言 1589
TC 1588
判罪 1588
审计@@ 1588
崇 1588
核心内容 1588
• 1587
国名 1587
地下室 1587
弧 1587
控制中心 1587
敢@@ 1587
630 1586
七十@@ 1586
加尔@@ 1586
同其 1586
得来 1586
慰 1586
菲利普 1586
行动@@ 1586
44@@ 1585
书目 1585
匙 1585
怪物 1585
王室 1585
追赶 1585
销售量 1585
防火 1585
64@@ 1584
两张 1584
前列 1584
千百万 1584
司在 1584
尼泊尔政府 1584
蜂 1584
谚语 1584
走到 1584
滔@@ 1583
稳妥 1583
违禁 1583
马拉喀什 1583
GA 1582
推选 1582
数百名 1582
租户 1582
自制 1582
霍尔 1582
泳 1581
社会关系 1581
量刑 1581
住宅@@ 1580
侦测 1580
充满@@ 1580
南非洲 1580
您@@ 1580
招生 1580
绪 1580
这门 1580
331 1579
挤压 1579
控股 1579
梯度 1579
罗斯福 1579
修订版 1578
全力以赴 1578
布达佩斯 1578
添 1578
渥 1578
燃料@@ 1578
爱国@@ 1578
国际商会 1577
新人 1577
第十三 1577
钟头 1577
AIG 1576
博览会 1576
定论 1576
来函 1576
臣@@ 1576
落到 1576
钦@@ 1576
国境 1575
头顶 1575
孟买 1575
无故 1575
暨 1575
疾 1575
盎@@ 1575
保护局 1574
反对者 1574
发交 1574
蜂蜜 1574
7.9 1573
XVII 1573
人于 1573
参选 1573
女议员 1573
婚姻关系 1573
尼奥 1573
数学@@ 1573
有否 1573
滑坡 1573
走近 1573
ro 1572
不理 1572
习惯于 1572
募集 1572
最惠国 1572
电费 1572
不怕 1571
健身@@ 1571
共和党人 1571
水体 1571
神情 1571
莎拉 1571
被称作 1571
贬低 1571
348 1570
7.8 1570
二十四 1570
便捷 1570
医务@@ 1570
屈 1570
核军备 1570
表二 1570
过滤器 1570
阵列 1570
降低成本 1570
塌 1569
广东省 1569
推进@@ 1569
乾@@ 1568
各款 1568
贺@@ 1568
351 1567
一线 1567
弗吉@@ 1567
搏@@ 1567
灾民 1567
Abdel@@ 1566
XML 1566
卫星通信 1566
氟化 1566
热器 1566
纪律@@ 1566
绿化 1566
订货 1566
走势 1566
con@@ 1565
不觉 1565
失业问题 1565
奢@@ 1565
庞@@ 1565
总括 1565
格雷@@ 1565
犯罪率 1565
禁区 1565
衰 1565
请拨 1565
连通 1565
连锁 1565
骇@@ 1565
guez 1564
一百 1564
卡纳克 1564
国际奥委会 1564
实施方案 1564
托运 1564
阀@@ 1564
隐 1564
Windows 1563
为时过早 1563
传奇 1563
克拉克 1563
区域环境 1563
发扬 1563
发送给 1563
呵@@ 1563
性工作者 1563
感恩节 1563
有限责任 1563
载人 1563
俄罗斯@@ 1562
保险业 1562
哈德 1562
圣诞老人 1562
349 1561
ver@@ 1561
十字架 1561
幽灵 1561
得起 1561
收款 1561
数码@@ 1561
期权 1561
染料 1561
母乳 1561
高高@@ 1561
代理商 1560
迫在眉睫 1560
0.6 1559
1612 1559
th 1559
促进@@ 1559
实施@@ 1559
抉择 1559
暇 1559
来时 1559
水坝 1559
解脱 1559
通力合作 1559
Mohammad 1558
基因组 1558
忧郁 1558
悦@@ 1558
数以百万计 1558
萝卜 1558
730 1557
堕落 1557
契机 1557
形容词 1557
连续@@ 1557
603 1556
亨@@ 1556
原住民 1556
园区 1556
审计师 1556
平凡 1556
并视 1556
惩 1556
海滨 1556
猪肉 1556
证据不足 1556
贯 1556
路易@@ 1556
变压器 1555
大桥 1555
夺走 1555
安理@@ 1555
宏 1555
所作所为 1555
用意 1555
绸@@ 1555
享 1554
司将 1554
哥伦比亚特区 1554
学徒 1554
意见分歧 1554
手语 1554
盟军 1554
迭代 1554
580 1553
AL 1553
主语 1553
切换 1553
匪 1553
孵@@ 1553
暑假 1553
转换成 1553
Bel@@ 1552
OzL 1552
发起@@ 1552
复制@@ 1552
换成 1552
第五个 1552
进食 1552
Paul 1551
ich 1551
仗 1551
以向 1551
收入水平 1551
校准 1551
篡@@ 1551
自定义 1551
誓言 1551
越发 1551
43@@ 1550
三明治 1550
代表@@ 1550
勋章 1550
喇@@ 1550
少将 1550
所有制 1550
教学方法 1550
服务供应商 1550
雕@@ 1550
570 1549
Ser@@ 1549
寸@@ 1549
店里 1549
强加于 1549
激怒 1549
高贵 1549
FA@@ 1548
伊尔 1548
偷走 1548
地人 1548
暴跌 1548
更深 1548
甲型 1548
第十一 1548
偏高 1547
养活 1547
北韩 1547
打着 1547
托儿所 1547
独 1547
用药 1547
繁琐 1547
萨达姆 1547
行政法 1547
西班牙@@ 1547
规矩 1547
言辞 1547
顺利进行 1547
预制 1547
叠 1546
巴基斯坦政府 1546
年幼 1546
征兵 1546
植入 1546
正文 1546
水井 1546
灶 1546
瑞典政府 1546
野外 1546
仿 1545
六十 1545
哩 1545
奢侈 1545
放大@@ 1545
秘诀 1545
进攻性 1545
劝告 1544
大气@@ 1544
手头 1544
联苯 1544
不感兴趣 1543
引力 1543
手无@@ 1543
426 1542
Jos 1542
交叉@@ 1542
技经 1542
甲板 1542
相互依赖 1542
肩上 1542
资质 1542
RA 1541
两国人民 1541
交易成本 1541
厨@@ 1541
和表 1541
城市居民 1541
所要 1541
损毁 1541
相爱 1541
重重@@ 1541
出入境 1540
撇@@ 1540
返 1540
难点 1540
龙头 1540
4000 1539
互不 1539
其余部分 1539
出访 1539
刊@@ 1539
尼克@@ 1539
携@@ 1539
教义 1539
第三类 1539
管理程序 1539
高新技术 1539
hu@@ 1538
一阵@@ 1538
以西 1538
好友 1538
晚间 1538
表达意见 1538
那件事 1538
1353 1537
LE@@ 1537
bo 1537
动产 1537
店铺 1537
消逝 1537
环境因素 1537
罗夫 1537
wa@@ 1536
与其@@ 1536
专责 1536
卡塔尔国 1536
可达 1536
妨害 1536
姨@@ 1536
嫁 1536
百分之 1536
银行贷款 1536
阿拉法特 1536
SAT 1535
下旬 1535
仓储 1535
依法@@ 1535
发型 1535
复发 1535
慕 1535
捏@@ 1535
皱 1535
Richard 1534
劳资关系 1534
巴尔@@ 1534
举例说明 1533
也@@ 1533
孙子 1533
小额贷款 1533
庄稼 1533
应用软件 1533
武断 1533
疯@@ 1533
编织 1533
里亚尔 1533
马尔 1533
334 1532
不全 1532
曼德拉 1532
结实 1532
非军事区 1532
22.@@ 1531
366 1531
伊比利亚 1531
少数@@ 1531
手动 1531
损失@@ 1531
莱德 1531
营业执照 1531
路程 1531
三点 1530
中间@@ 1530
人文@@ 1530
减除 1530
战线 1530
普惠@@ 1530
棚@@ 1530
煮@@ 1530
熟知 1530
电子产品 1530
粉末 1530
车厢 1530
遏止 1530
颗@@ 1530
高尔夫球 1530
347 1529
亲近 1529
先是 1529
冤@@ 1529
宇 1529
弹头 1529
片段 1529
生子 1529
耕 1529
辖下 1529
遗漏 1529
兜@@ 1528
埃塞俄比亚政府 1528
总结@@ 1528
正值 1528
正向 1528
污水处理 1528
养老 1527
卡拉@@ 1527
强烈建议 1527
片刻 1527
相近 1527
胰岛素 1527
赎 1527
从未@@ 1526
传播@@ 1526
沙田 1526
霉素 1526
AB 1525
Ibrahim 1525
TP 1525
are@@ 1525
net 1525
两套 1525
亚特兰@@ 1525
本会 1525
疵 1525
统计调查 1525
键@@ 1525
ce 1524
一大批 1524
加强@@ 1524
可口@@ 1524
喔 1524
团体@@ 1524
威廉@@ 1524
宇@@ 1524
巴博 1524
弟@@ 1524
散播 1524
标志@@ 1524
经济体制 1524
聪明@@ 1524
自在 1524
装甲 1524
鲍勃 1524
bu@@ 1523
入籍 1523
文摘 1523
斯堡 1523
船队 1523
详细分析 1523
om 1522
专利权 1522
宫殿 1522
热水 1522
特里@@ 1522
留学 1522
病房 1522
筋@@ 1522
耐 1522
博士学位 1521
成败 1521
捐赠者 1521
溶 1521
笼@@ 1521
索要 1521
腐败问题 1521
记录员 1521
货币联盟 1521
辅导@@ 1521
马诺河 1521
Ex@@ 1520
La 1520
we@@ 1520
下定决心 1520
帆@@ 1520
撑@@ 1520
敬畏 1520
水泵 1520
紧要 1520
供应量 1519
办学 1519
匿 1519
含糊@@ 1519
脑子里 1519
重演 1519
高等院校 1519
＋ 1519
661 1518
为数不多 1518
信息网络 1518
别墅 1518
奥地@@ 1518
岂 1518
探矿 1518
政见 1518
水位 1518
琼 1518
膀@@ 1518
踏上 1518
Bou@@ 1517
OP@@ 1517
供选择 1517
参 1517
哈拉@@ 1517
收支@@ 1517
狱 1517
知识库 1517
严谨 1516
几句 1516
振奋 1516
政府军 1516
方形 1516
灾祸 1516
用人单位 1516
百年 1516
粗鲁 1516
维和部队 1516
Shi@@ 1515
俊 1515
南海 1515
发件人 1515
外展 1515
婚内 1515
投机@@ 1515
招致 1515
栅 1515
肚@@ 1515
阿勒@@ 1515
9.2 1514
数最多 1514
无一@@ 1514
用电 1514
轮椅 1514
通信卫星 1514
先令 1513
全心全意 1513
化武 1513
捧 1513
疲惫 1513
碧@@ 1513
虚伪 1513
诅咒 1513
钦佩 1513
陡@@ 1513
骤@@ 1513
初等 1512
大坝 1512
森纳 1512
繁多 1512
结晶 1512
人命 1511
吃掉 1511
复习 1511
尽全力 1511
居住区 1511
届@@ 1511
常委会 1511
拟将 1511
改善生活 1511
溶解 1511
生命力 1511
英勇 1511
调解员 1511
陷入困境 1511
临时政府 1510
如实 1510
尊 1510
文法 1510
旨 1510
浦@@ 1510
盗版 1510
胰@@ 1510
黎明 1510
乡下 1509
公共关系 1509
忍 1509
所附 1509
顾虑 1509
We@@ 1508
低价 1508
公共开支 1508
凑@@ 1508
南非政府 1508
唇 1508
奥林匹克@@ 1508
总预算 1508
批量 1508
时性 1508
第十四次 1508
边上 1508
金融中心 1508
钦 1508
驱散 1508
ISBA 1507
ye 1507
兄@@ 1507
凄@@ 1507
嗜@@ 1507
地段 1507
扣减 1507
无人驾驶 1507
最能 1507
沙漠化 1507
电动@@ 1507
竞选活动 1507
缓刑 1507
证券交易 1507
680 1506
ass@@ 1506
匀 1506
堪 1506
奥马尔 1506
波士顿 1506
由此@@ 1506
许许多多 1506
购买@@ 1506
Nations 1505
劳动合同 1505
历时 1505
日托 1505
显著@@ 1505
看望 1505
莲@@ 1505
衰落 1505
零星 1505
体育部 1504
公益@@ 1504
圣灵 1504
强盗 1504
旅游者 1504
知觉 1504
雨林 1504
首要任务 1504
100@@ 1503
CER 1503
一夫多妻制 1503
买主 1503
公务人员 1503
引领 1503
循序渐进 1503
报案 1503
拢 1503
极化 1503
格林@@ 1503
功夫 1502
咨委 1502
情节严重 1502
杜夫 1502
畏惧 1502
高山 1502
放射@@ 1501
服装@@ 1501
流落 1501
这人 1501
Ban@@ 1500
NGO 1500
不下 1500
凝 1500
向往 1500
周年纪念 1500
建构 1500
思索 1500
灌 1500
狱中 1500
用心 1500
这届 1500
首府 1500
前所述 1499
合成@@ 1499
塔拉 1499
大有@@ 1499
天文@@ 1499
文号 1499
第九十@@ 1499
阿什 1499
Ac@@ 1498
冲洗 1498
太晚 1498
神父 1498
竹 1498
组织协调 1498
绿色@@ 1498
葡@@ 1498
谢您 1498
590 1497
九名 1497
二世 1497
以利于 1497
后于 1497
失灵 1497
威力 1497
恒 1497
核弹头 1497
犯罪现场 1497
藤 1497
轻而易举 1497
355 1496
中途 1496
体操 1496
协调局 1496
回顾@@ 1496
德意志联邦共和国 1496
心目 1496
无助 1496
机床 1496
考试@@ 1496
631 1495
co@@ 1495
优惠待遇 1495
哈佛 1495
每星期 1495
略微 1495
美术@@ 1495
费尔南@@ 1495
这么@@ 1495
顺利完成 1495
374 1494
432 1494
史蒂夫 1494
同级 1494
坏消息 1494
改写 1494
敌视 1494
派出所 1494
牺牲@@ 1494
革 1494
一宗 1493
从头@@ 1493
兼任 1493
卸任 1493
每份 1493
苦恼 1493
东北亚 1492
会议@@ 1492
分立 1492
无损 1492
牛津 1492
籽 1492
联席 1492
雕塑 1492
ph@@ 1491
承租人 1491
本金 1491
父母亲 1491
讲究 1491
估量 1490
国民军 1490
尼斯@@ 1490
师资 1490
应同 1490
悄悄 1490
斯勒 1490
核生化 1490
露面 1490
骗子 1490
一大堆 1489
前后@@ 1489
塞尔@@ 1489
极易 1489
栽@@ 1489
深刻@@ 1489
溢出 1489
稀缺 1489
程序法 1489
窗帘 1489
色素 1489
西区 1489
贸易条件 1489
题材 1489
0.8 1488
中载列 1488
交所 1488
侵袭 1488
历史学家 1488
国际公法 1488
增加一倍 1488
拼写 1488
比勒 1488
海拔 1488
片剂 1488
若干项 1488
马吕斯 1488
上尉 1487
伊拉克共和国 1487
厌@@ 1487
如对 1487
无用 1487
经济繁荣 1487
绕过 1487
332 1486
不快 1486
分队 1486
厌烦 1486
可得 1486
后退 1486
告终 1486
和谐社会 1486
美元@@ 1486
说起 1486
铅笔 1486
难于 1486
再有 1485
副总裁 1485
年收入 1485
有所改进 1485
水池 1485
活动分子 1485
游泳池 1485
被遗弃 1485
谁@@ 1485
默默@@ 1485
Mac 1484
一身 1484
主妇 1484
分层 1484
前几次 1484
原始@@ 1484
安全法 1484
徵@@ 1484
海牙公约 1484
评论家 1484
金融工具 1484
陪@@ 1484
90@@ 1483
埃拉 1483
学习者 1483
安全形势 1483
手持 1483
清点 1483
缺水 1483
497 1482
不相称 1482
为的是 1482
坦白 1482
大得多 1482
奸@@ 1482
好玩 1482
很漂亮 1482
机械化 1482
比利 1482
纵容 1482
肽 1482
血糖 1482
隐蔽 1482
不在 1481
打字@@ 1481
摊派 1481
无关紧要 1481
服务项目 1481
海中 1481
社会化 1481
立陶宛共和国 1481
笼罩 1481
集邮 1481
人民军 1480
威尔逊 1480
收紧 1480
漫步 1480
第二卷 1480
附加@@ 1480
ER 1479
印机 1479
可变 1479
名列 1479
弗里@@ 1479
张力 1479
有害物质 1479
标书 1479
标界 1479
油价格 1479
瀑布 1479
贝卡 1479
五种 1478
厂房 1478
塑性 1478
恰恰相反 1478
特拉 1478
留用 1478
瞎@@ 1478
笛 1478
遣送 1478
障@@ 1478
XVI 1477
仍会 1477
他国 1477
克萨@@ 1477
各人 1477
得意 1477
步兵 1477
比前 1477
闭幕@@ 1477
Google 1476
侧面 1476
吉米 1476
寄生@@ 1476
甚微 1476
舰队 1476
趁@@ 1476
黄油 1476
394 1475
侦探 1475
受不了 1475
外部@@ 1475
帮派 1475
年增长率 1475
情报部门 1475
整齐 1475
替代@@ 1475
有意识 1475
痛惜 1475
碍 1475
立案 1475
联手 1475
贫困率 1475
通过@@ 1475
努美阿 1474
华盛顿@@ 1474
牟@@ 1474
特罗斯 1474
皱@@ 1474
直属 1474
组分 1474
说完 1474
509 1473
AB@@ 1473
全套 1473
小子 1473
有空 1473
求得 1473
雅克 1473
99@@ 1472
℃ 1472
不起@@ 1472
伙@@ 1472
协会@@ 1472
啥 1472
屈服 1472
挨饿 1472
生长@@ 1472
看一看 1472
祈求 1472
胜地 1472
酸性 1472
1200 1471
Ver@@ 1471
三家 1471
丰田 1471
人力@@ 1471
句话 1471
史无前例 1471
小队 1471
尼亚共和国 1471
未用 1471
特征@@ 1471
肴 1471
财政危机 1471
金银 1471
一年一度 1470
功课 1470
发行@@ 1470
图标 1470
天文学 1470
工党 1470
性命 1470
怯 1470
看得@@ 1470
解剖 1470
0.2 1469
Mas@@ 1469
tu@@ 1469
很多年 1469
恰好 1469
爵夫人 1469
的说来 1469
雄性 1469
非常复杂 1469
马格里布 1469
七天 1468
充电 1468
对峙 1468
尽情 1468
恐龙 1468
水污染 1468
移除 1468
醋 1468
可言 1467
地盘 1467
基本原理 1467
年青 1467
期为 1467
模样 1467
猴 1467
纳克 1467
虔诚 1467
互联@@ 1466
劝说 1466
好几@@ 1466
婚前 1466
寄送 1466
技合 1466
暗淡 1466
秃@@ 1466
莓 1466
还同 1466
还须 1466
au 1465
五国 1465
写给 1465
外籍@@ 1465
盾@@ 1465
考虑一下 1465
茄@@ 1465
贫血 1465
量子 1465
多式 1464
从纳 1463
只用 1463
尖叫 1463
延缓 1463
看不出 1463
肤@@ 1463
诱发 1463
轮船 1463
采掘业 1463
驱动器 1463
仇敌 1462
先锋 1462
嗅@@ 1462
怨@@ 1462
糟@@ 1462
364 1461
8.7 1461
XXI 1461
中度 1461
保持@@ 1461
商量 1461
基桑加尼 1461
当做 1461
改成 1461
柬埔寨@@ 1461
炒@@ 1461
翰 1461
额外@@ 1461
卡尔@@ 1460
合用 1460
周边@@ 1460
放开 1460
sky 1459
一岁 1459
严酷 1459
兽@@ 1459
售出 1459
气旋 1459
热切 1459
相吻合 1459
矩@@ 1459
骑马 1459
341 1458
南京 1458
室外 1458
平衡@@ 1458
所负 1458
改装 1458
票价 1458
腾出 1458
SD@@ 1457
ita 1457
千万@@ 1457
处理厂 1457
格斯 1457
稿件 1457
言之 1457
8.8 1456
干脆 1456
拓 1456
血腥 1456
Nor@@ 1455
不断加强 1455
产阶级 1455
双边条约 1455
敞@@ 1455
方对 1455
更佳 1455
莫斯 1455
迈阿密 1455
78@@ 1454
下落不明 1454
于本 1454
夸 1454
普罗@@ 1454
计算机系统 1454
闯@@ 1454
阿马 1454
356 1453
45@@ 1453
Mun@@ 1453
会以 1453
光灯 1453
南省 1453
才华 1453
沿用 1453
盟@@ 1453
国际舞台 1452
潜水 1452
空气质量 1452
争斗 1451
做梦 1451
地方法院 1451
塔吉克 1451
复印 1451
无家可归者 1451
无线电台 1451
货人 1451
鼓动 1451
伸展 1450
信息管理系统 1450
境遇 1450
外衣 1450
滞@@ 1450
胆固醇 1450
覆盖@@ 1450
解开 1450
343 1449
国为 1449
宣布@@ 1449
开发利用 1449
现实生活 1449
腐败现象 1449
03@@ 1448
下才 1448
互联网安全 1448
保持警惕 1448
召集人 1448
嘴巴 1448
国度 1448
履行@@ 1448
嵌入 1448
应负 1448
蕾 1448
赛尔 1448
ju@@ 1447
事由 1447
平民百姓 1447
挫 1447
沙拉 1447
相片 1447
科科长 1447
身着 1447
Bur@@ 1446
梵@@ 1446
爆破 1446
用餐 1446
精细 1446
说得@@ 1446
ill@@ 1445
唤起 1445
模范 1445
爱因斯坦 1445
砍 1445
蒙特 1445
陀@@ 1445
颤@@ 1445
城镇@@ 1444
有点儿 1444
比亚 1444
组别 1444
传真@@ 1443
伸手 1443
分析员 1443
摄影师 1443
时为 1443
本世纪 1443
栽培 1443
流浪@@ 1443
跌幅 1443
重现 1443
分期 1442
垮@@ 1442
天后 1442
工业生产 1442
弹簧 1442
拷@@ 1442
数千名 1442
破灭 1442
稽@@ 1442
邮戳 1442
751 1441
助学金 1441
喊道 1441
圣战 1441
坚持@@ 1441
珍 1441
1929 1440
IBM 1440
zi 1440
不可抗力 1440
十字路口 1440
引致 1440
权主义 1440
热衷于 1440
现役 1440
系列@@ 1440
外形 1439
奖赏 1439
组和 1439
肾脏 1439
vo 1438
中立@@ 1438
互换 1438
代表处 1438
传动 1438
大通 1438
敷@@ 1438
液化 1438
结婚@@ 1438
酬金 1438
台式 1437
权责 1437
沙巴 1437
迦 1437
遇害 1437
顶端 1437
吉隆坡 1436
桨 1436
联系国 1436
逮捕证 1436
图画 1435
大赛 1435
就是指 1435
开发人员 1435
抱负 1435
津 1435
考量 1435
蜘蛛 1435
越界 1435
三十日 1434
不小 1434
传到 1434
利益集团 1434
哈尔@@ 1434
打工 1434
断层 1434
茫@@ 1434
送入 1434
1624 1433
353 1433
CP@@ 1433
Er@@ 1433
ly 1433
mdash 1433
men@@ 1433
凌辱 1433
跳跃 1433
合作部 1432
妖@@ 1432
清晰@@ 1432
牵连 1432
肥皂 1432
衰竭 1432
钓@@ 1432
驯@@ 1432
默许 1432
415 1431
不着 1431
参差不齐 1431
在技术上 1431
普及率 1431
爪@@ 1431
耻 1431
致词 1431
轻重缓急 1431
锚@@ 1431
fa@@ 1430
交涉 1430
伊斯兰堡 1430
可喜 1430
天性 1430
执行长 1430
炫耀 1430
经济区 1430
轮机 1430
雕 1430
人意 1429
伊斯 1429
供应品 1429
奶粉 1429
服务公司 1429
联络人 1429
茜 1429
mar 1428
旷野 1428
逊尼派 1428
重重 1428
不道德 1427
伊斯@@ 1427
催化@@ 1427
同情心 1427
民族解放 1427
牛仔裤 1427
相互间 1427
352 1426
760 1426
Ag@@ 1426
XIX 1426
专题会议 1426
买进 1426
五位 1426
亲身 1426
共谋 1426
媚 1426
忧伤 1426
昨@@ 1426
烧伤 1426
秽 1426
第六节 1426
给付 1426
IL@@ 1425
中共 1425
力所能及 1425
名片 1425
在册 1425
基建 1425
帕特@@ 1425
开着 1425
打个 1425
特纳 1425
铺平 1425
385 1424
412 1424
不怎么 1424
专用@@ 1424
伤员 1424
刑事警察 1424
各种类型 1424
差点 1424
灼@@ 1424
若干年 1424
趟 1424
迁离 1424
ant@@ 1423
伪装 1423
司法权 1423
哈龙 1423
山坡 1423
文本@@ 1423
生活费用 1423
生物量 1423
纯属 1423
高棉 1423
475 1422
Com@@ 1422
世间 1422
笨 1422
绒@@ 1422
给与 1422
蹂躏 1422
重大成就 1422
IA@@ 1421
一家人 1421
下方 1421
区议会 1421
带入 1421
年薪 1421
急切 1421
提前@@ 1421
畅销 1421
乳房 1420
前南 1420
发烧 1420
天津 1420
拉巴@@ 1420
科托努 1420
第七十届 1420
344 1419
je@@ 1419
主审 1419
五百 1419
出处 1419
国与国 1419
并不知道 1419
签订合同 1419
调制 1419
之以 1418
小型@@ 1418
心想 1418
战争@@ 1418
研所 1418
老年@@ 1418
苛刻 1418
6000 1417
处理程序 1417
纱@@ 1417
装饰@@ 1417
国际私法 1416
机体 1416
没用 1416
研究组 1416
补偿@@ 1416
迪亚@@ 1416
闪光 1416
举足轻重 1415
任务@@ 1415
公投 1415
前去 1415
加之 1415
安德鲁 1415
深表@@ 1415
绣 1415
美金 1415
范式 1415
问答 1415
颁奖@@ 1415
手势 1414
扶 1414
殖民统治 1414
瑞克 1414
粪便 1414
能干 1414
赞 1414
问卷调查 1414
餐饮 1414
TS 1413
ts 1413
不计 1413
人日 1413
公元 1413
冶@@ 1413
地区性 1413
急诊 1413
昂山 1413
法中 1413
焕@@ 1413
野兽 1413
381 1412
414 1412
ip@@ 1412
两部 1412
优越@@ 1412
攻势 1412
顺从 1412
TP@@ 1411
佛罗里达 1411
免疫系统 1411
加利福尼亚州 1411
忘掉 1411
爱丽丝 1411
缓存 1411
芒@@ 1411
躯@@ 1411
逆向 1411
那时起 1411
Val@@ 1410
交纳 1410
外人 1410
大战 1410
客运 1410
徘徊 1410
直观 1410
赢@@ 1410
过往 1410
阴 1410
690 1409
团在 1409
慈善@@ 1409
相互支持 1409
美女 1409
货款 1409
26.@@ 1408
371 1408
PLC 1408
不得已 1408
大幅度@@ 1408
姿 1408
巴哈 1408
彩虹 1408
款待 1408
精心@@ 1408
纪录片 1408
迭 1408
遗骸 1408
860 1407
rah 1407
中华 1407
四氯化碳 1407
学问 1407
定点 1407
弓 1407
很感兴趣 1407
择 1407
明日 1407
朵 1407
空洞 1407
近距离 1407
阁@@ 1407
驱逐令 1407
人用 1406
军事化 1406
利害攸关 1406
多伦多 1406
家居 1406
差错 1406
标定 1406
经济秩序 1406
顶峰 1406
US 1405
东北@@ 1405
乘数 1405
单亲家庭 1405
幸存 1405
意想不到 1405
水利 1405
高低 1405
一团 1404
十日 1404
变数 1404
幅@@ 1404
暑@@ 1404
椰@@ 1404
监测员 1404
约束@@ 1404
表演@@ 1404
计数 1404
记忆力 1404
诸位 1404
区法院 1403
宁可 1403
迎合 1403
送来 1403
保留地 1402
奥斯 1402
早上好 1402
明朗 1402
那辆 1402
9.3 1401
亚马逊 1401
出人@@ 1401
塔吉克斯坦共和国 1401
属实 1401
扰动 1401
无可 1401
肆意 1401
402 1400
kov 1400
一分@@ 1400
勾结 1400
局域网 1400
布拉格 1400
所行 1400
星座 1400
注资 1400
贝拉 1400
赛特 1400
锚 1400
风能 1400
ps 1399
ran@@ 1399
不多 1399
丰富@@ 1399
复合@@ 1399
托斯 1399
报废 1399
短片 1399
维系 1399
美国国务院 1399
航空运输 1399
荒漠 1399
装甲车 1399
西南部 1399
频谱 1399
AN 1398
GGE 1398
Ti@@ 1398
之苦 1398
低级 1398
侯@@ 1398
华沙 1398
开发区 1398
时装 1398
金正@@ 1398
镇上 1398
Law 1397
严格控制 1397
单项 1397
卷宗 1397
忍耐 1397
极少数 1397
汉姆 1397
驾 1397
骆驼 1397
357 1396
Kh@@ 1396
Sha 1396
一惊 1396
再三 1396
创设 1396
执 1396
探望 1396
涩 1396
狱警 1396
第一手 1396
管理法 1396
苍@@ 1396
适应能力 1396
与此相反 1395
伊朗政府 1395
句型 1395
大类 1395
小费 1395
更少 1395
游击队 1395
突出@@ 1395
篇@@ 1395
行政处分 1395
队列 1395
Ju@@ 1394
小心翼翼 1394
通胀率 1394
邮品 1394
7.6 1393
LO@@ 1393
ino 1393
介意 1393
动物@@ 1393
多变 1393
平均年龄 1393
既定@@ 1393
正规化 1393
all 1392
ij@@ 1392
五分 1392
强势 1392
溜 1392
偿还@@ 1391
光临 1391
全程 1391
售货@@ 1391
德里克 1391
悼念 1391
指针 1391
滑稽 1391
离心@@ 1391
脑子 1391
487 1390
为时@@ 1390
从业 1390
岌岌可危 1390
录用 1390
承保 1390
着想 1390
神经元 1390
财政困难 1390
503 1389
尽责 1389
无国界 1389
日及 1389
染色 1389
气候@@ 1389
站立 1389
超级@@ 1389
路透社 1389
事事 1388
保险金 1388
合作者 1388
富含 1388
小区 1388
徒劳 1388
抽取 1388
民意调查 1388
科威特政府 1388
适 1388
Mah@@ 1387
刚刚开始 1387
守卫 1387
敏感@@ 1387
终端@@ 1387
计算结果 1387
说些 1387
高级顾问 1387
SP@@ 1386
dy 1386
东方@@ 1386
疚 1386
董 1386
贩子 1386
阿尔 1386
黄金@@ 1386
个星期 1385
宫颈癌 1385
才智 1385
359 1384
六岁 1384
斜坡 1384
纪念品 1384
裸 1384
阴道 1384
372 1383
386 1383
Mac@@ 1383
一小@@ 1383
之子 1383
反感 1383
后卫 1383
布罗@@ 1383
折算 1383
维察 1383
警队 1383
财政赤字 1383
赵@@ 1383
enn@@ 1382
os@@ 1382
停止使用 1382
其他费用 1382
妇幼保健 1382
存取 1382
强制措施 1382
戏剧性 1382
所学 1382
权人 1382
留物 1382
穆萨 1382
重塑 1382
魁北克 1382
乡镇 1381
体制性 1381
储存@@ 1381
展开讨论 1381
平均工资 1381
怀念 1381
播种 1381
教程 1381
细微 1381
亨 1380
牵涉 1380
美利坚合众国政府 1380
荒唐 1380
超重 1380
追随者 1380
那本书 1380
最高级 1379
短期内 1379
音乐家 1379
Hal@@ 1378
XXIX 1378
伤者 1378
回忆@@ 1378
国与 1378
私营@@ 1378
订有 1378
那家 1378
339 1377
二维 1377
在历史上 1377
干旱@@ 1377
残障 1377
耗资 1377
锅@@ 1377
中医 1376
人造@@ 1376
冷淡 1376
巴士拉 1376
挣钱 1376
最合适 1376
泌@@ 1376
渣@@ 1376
章次 1376
罗德里格斯 1376
而行 1376
至上 1376
蚊子 1376
610 1375
尖端 1375
蒙特@@ 1375
转过 1375
488 1374
供养 1374
信任@@ 1374
深厚 1374
真菌 1374
签定 1374
417 1373
ban@@ 1373
人口统计 1373
区间 1373
古希腊 1373
品味 1373
喘 1373
真心 1373
西南亚 1373
认真对待 1373
鱼种 1373
BP 1372
仙 1372
四十年 1372
外加 1372
海龟 1372
维度 1372
车臣 1372
天气预报 1371
掷 1371
提振 1371
旋转@@ 1371
身亡 1371
车轮 1371
附于 1371
━ 1370
得当 1370
意见@@ 1370
政界 1370
渡过 1370
第十五次 1370
肠道 1370
要不是 1370
远远@@ 1370
阿勒 1370
ey 1369
ica 1369
以色列国 1369
大肆 1369
工商行政 1369
性病 1369
气流 1369
洛斯 1369
衣着 1369
酬@@ 1369
锰 1369
难以获得 1369
黯@@ 1369
Hassan 1368
一栋 1368
参赞 1368
吵 1368
扎根 1368
普拉@@ 1368
社会制度 1368
笔记本电脑 1368
遥控 1368
CM 1367
mann 1367
一趟 1367
专科 1367
公屋 1367
再现 1367
农用 1367
图像@@ 1367
循环基金 1367
德利 1367
截获 1367
河边 1367
熏@@ 1367
耽@@ 1367
能源需求 1367
茶叶 1367
调往 1367
CEO 1366
KB 1366
docs 1366
东区 1366
拇指 1366
犬@@ 1366
采矿业 1366
389 1365
PCNICC 1365
hk 1365
大洋洲 1365
普通教育 1365
禁忌 1365
行政区域 1365
遗迹 1365
下台 1364
仪表 1364
分行 1364
带宽 1364
恕 1364
手榴弹 1364
权重 1364
科斯 1364
空间信息 1364
计算机化 1364
连接起来 1364
门票 1364
408 1363
KO@@ 1363
也好 1363
决算 1363
列有 1363
劳资 1363
国内@@ 1363
时空 1363
毁掉 1363
甄别 1363
畜@@ 1363
病症 1363
薇 1363
蛇@@ 1363
ac 1362
停泊 1362
受限 1362
古柯 1362
听讯 1362
吾@@ 1362
回落 1362
思念 1362
招待@@ 1362
无休@@ 1362
标本 1362
玫瑰@@ 1362
碰巧 1362
议事@@ 1362
费力 1362
越大 1362
辞去 1362
XXVI 1361
困难重重 1361
弗雷 1361
搭建 1361
无礼 1361
棋@@ 1361
水务 1361
短文 1361
肖 1361
谈起 1361
422 1360
Res 1360
不来 1360
书院 1360
分布式 1360
华人 1360
地道 1360
正试图 1360
犯罪团伙 1360
病毒@@ 1360
肆虐 1360
蠕@@ 1360
阿鲁@@ 1360
413 1359
东斯 1359
中称 1359
保障人权 1359
敢于 1359
无声 1359
消耗@@ 1359
416 1358
世界卫生 1358
传票 1358
偏爱 1358
删@@ 1358
各式各样 1358
堪称 1358
大不相同 1358
好评 1358
宇宙@@ 1358
崇高@@ 1358
急速 1358
性交 1358
总公司 1358
橱 1358
358 1357
冷却@@ 1357
唾@@ 1357
无形资产 1357
班机 1357
语种 1357
过夜 1357
423 1356
ú 1356
安东@@ 1356
魂@@ 1356
写成 1355
审判权 1355
客观@@ 1355
市场竞争 1355
开具 1355
辅之以 1355
驳@@ 1355
不同寻常 1354
仇 1354
伸 1354
原产 1354
外交事务 1354
实地考察 1354
宵禁 1354
弦@@ 1354
明智@@ 1354
特委会 1354
能耗 1354
走来 1354
酪 1354
靶@@ 1354
冰冷 1353
悦 1353
邻近地区 1353
铬 1353
人员培训 1352
光彩 1352
平板 1352
旗集团 1352
索尼 1352
耐用 1352
虚构 1352
436 1351
俟 1351
吊 1351
巨型 1351
弊端 1351
找寻 1351
沉降 1351
特此 1351
皮肤@@ 1351
合同法 1350
增派 1350
尉 1350
或经 1350
收藏@@ 1350
有悖于 1350
现值 1350
种植园 1350
臂@@ 1350
虽说 1350
酸化 1350
雷场 1350
1572 1349
405 1349
东道主 1349
他妈的 1349
价款 1349
克里斯蒂@@ 1349
具体任务 1349
口音 1349
班上 1349
低声 1348
凝胶 1348
分析法 1348
对照@@ 1348
日程安排 1348
浑身 1348
醛 1348
金币 1348
会员卡 1347
失明 1347
完全相同 1347
感官 1347
收件人 1347
残疾者 1347
民解 1347
水上 1347
爆炸@@ 1347
破伤风 1347
落下 1347
采伐 1347
隔壁 1347
下于 1346
不通 1346
人满为患 1346
分明 1346
可耻 1346
土耳其@@ 1346
垦 1346
微量 1346
早点 1346
称号 1346
行政诉讼 1346
衷心感谢 1346
责任者 1346
风险@@ 1346
鸽子 1346
太空@@ 1345
甲基@@ 1345
经常@@ 1345
鸿@@ 1345
670 1344
My@@ 1344
__ 1344
ecosoc 1344
何况 1344
常务 1344
新兴@@ 1344
生产工艺 1344
突击 1344
达卡 1344
363 1343
人事管理 1343
商业界 1343
喉咙 1343
奔跑 1343
戒毒 1343
相位 1343
缔@@ 1343
还于 1343
820 1342
AA 1342
一环 1342
卡路里 1342
回信 1342
好些 1342
换算 1342
毯 1342
跌倒 1342
驻外 1342
娱乐活动 1341
宅 1341
纠缠 1341
368 1340
Docs 1340
EX 1340
lan@@ 1340
万分 1340
圆满@@ 1340
害羞 1340
忠 1340
莫过于 1340
退伍军人 1340
预见到 1340
2025 1339
986 1339
ter@@ 1339
光电 1339
公安 1339
平壤 1339
更有@@ 1339
有线@@ 1339
横跨 1339
石化 1339
紧密联系 1339
般@@ 1339
草莓 1339
373 1338
二氧化@@ 1338
低水平 1338
南半球 1338
商议 1338
夺得 1338
溶性 1338
熬 1338
立法@@ 1338
第十四 1338
高端 1338
8.4 1337
事业@@ 1337
前列@@ 1337
抢救 1337
摘录 1337
格里@@ 1337
波斯@@ 1337
电子设备 1337
看好 1337
飞去 1337
万维网 1336
分校 1336
纵 1336
能源部 1336
蒙德 1336
势必 1335
合同@@ 1335
国务 1335
对话框 1335
收割 1335
数十亿美元 1335
毙 1335
汇报@@ 1335
答卷 1335
释 1335
金斯敦 1335
456 1334
关键字 1334
巴巴 1334
放电 1334
歌剧 1334
民国 1334
涅 1334
犹太主义 1334
禁核@@ 1334
逼供 1334
金融时报 1334
事前 1333
从业者 1333
付钱 1333
克萨斯州 1333
又称 1333
市级 1333
惩@@ 1333
治安@@ 1333
请假 1333
She@@ 1332
万公顷 1332
决策权 1332
多层 1332
孟加拉 1332
拉丹 1332
最差 1332
最穷 1332
琼@@ 1332
生态旅游 1332
看书 1332
窍 1332
警卫@@ 1332
谈一谈 1332
ga@@ 1331
ian 1331
不需 1331
侄@@ 1331
大法官 1331
社会保障部 1331
等值 1331
辖 1331
邀请@@ 1331
EL@@ 1330
Min@@ 1330
si 1330
了结 1330
利特 1330
拙 1330
枪杀 1330
死后 1330
笔记本 1330
精力@@ 1330
精子 1330
下一阶段 1329
世纪末 1329
信息学 1329
尘埃 1329
精华 1329
两国关系 1328
中低收入 1328
中国香港 1328
厄瓜多尔@@ 1328
唉 1328
外国@@ 1328
市场需求 1328
应征 1328
死亡威胁 1328
不开 1327
低碳 1327
偏袒 1327
巴库 1327
接轨 1327
杭州 1327
洗澡 1327
理财 1327
镇静 1327
震荡 1327
颁布@@ 1327
TE@@ 1326
公交车 1326
刊载 1326
原子@@ 1326
合乎@@ 1326
吉他 1326
呈件 1326
圈子 1326
工会组织 1326
拖拉@@ 1326
斯蒂芬 1326
著称 1326
阿联酋 1326
高档 1326
于本周 1325
愉悦 1325
渍 1325
糊涂 1325
锈 1325
喷 1324
国人 1324
承担@@ 1324
政和 1324
新郎 1324
稀释 1324
记账 1324
辛勤@@ 1324
362 1323
428 1323
Robert 1323
作主 1323
埃米尔 1323
尼亚州 1323
柔 1323
生物体 1323
罪案 1323
长远@@ 1323
9.7 1322
中亚国家 1322
充裕 1322
巷 1322
欢喜 1322
窑 1322
立体 1322
索马里人 1322
辙 1322
重构 1322
鹅@@ 1322
ot 1321
中曾 1321
五年计划 1321
单是 1321
客房 1321
得上 1321
电子版 1321
第十六次 1321
赎金 1321
下星期 1320
卫生局 1320
周刊 1320
懒 1320
托儿 1320
极端@@ 1320
离家 1320
观赏 1320
适量 1320
FS 1319
受托 1319
哑@@ 1319
四人 1319
犹太教 1319
经过@@ 1319
采掘 1319
靠着 1319
369 1318
Ed@@ 1318
ru@@ 1318
一站@@ 1318
人行道 1318
伯利恒 1318
俘虏 1318
单亲 1318
吸烟者 1318
开发者 1318
Cam@@ 1317
不利@@ 1317
伽利略 1317
克罗@@ 1317
公元前 1317
关门 1317
哥伦比亚@@ 1317
国际联盟 1317
壮观 1317
小路 1317
巡逻@@ 1317
左翼 1317
数千@@ 1317
港岛 1317
突发事件 1317
集中营 1317
麦当劳 1317
377 1316
刮 1316
十分复杂 1316
取自 1316
增量 1316
弄清楚 1316
微风 1316
浑@@ 1316
are 1315
亲王 1315
卫生部长 1315
发货 1315
寂静 1315
意外@@ 1315
良机 1315
中美 1314
波斯 1314
版权@@ 1314
走动 1314
七次 1313
兄弟@@ 1313
发表@@ 1313
帐款 1313
归根结底 1313
淡化 1313
渔获 1313
管齐下 1313
两国间 1312
五周年 1312
亚太经@@ 1312
以备 1312
入住 1312
到访 1312
性别角色 1312
支持性 1312
法定人数 1312
疮 1312
红新月 1312
镀 1312
342 1311
98@@ 1311
Dar@@ 1311
不如@@ 1311
份文件 1311
小小 1311
掌权 1311
状况@@ 1311
背部 1311
脑部 1311
重金属 1311
风味 1311
CN@@ 1310
MBA 1310
ut@@ 1310
令人吃惊 1310
凿@@ 1310
加德满都 1310
庆典 1310
征集 1310
收成 1310
棺@@ 1310
稻米 1310
第十七次 1310
联阵 1310
袜子 1310
逆差 1310
队友 1310
382 1309
亦然 1309
代理@@ 1309
信道 1309
南朝鲜 1309
女神 1309
巴比@@ 1309
波浪 1309
滤波器 1309
珂 1309
美术 1309
老太太 1309
联合国教科文组织 1309
迷信 1309
选择地 1309
野餐 1309
2500 1308
发疯 1308
填补空缺 1308
居于 1308
废气 1308
油脂 1308
集中力量 1308
10.1 1307
CM@@ 1307
万至 1307
不景气 1307
保费 1307
停火协议 1307
咨询组 1307
墨水 1307
师范@@ 1307
愁@@ 1307
美化 1307
长期有效 1307
随机@@ 1307
pe@@ 1306
几小时 1306
推销员 1306
时能 1306
返国 1306
.... 1305
411 1305
IG@@ 1305
充 1305
努尔 1305
各有不同 1305
噩@@ 1305
授权@@ 1305
改派 1305
耗时 1305
Bal@@ 1304
Kim 1304
个人卫生 1304
修道院 1304
政治危机 1304
第十三次 1304
绝缘 1304
辐照 1304
非农业 1304
1907 1303
383 1303
439 1303
9.9 1303
公诉人 1303
可知 1303
合理@@ 1303
含汞 1303
圆满完成 1303
最深 1303
格里 1303
正以 1303
膜炎 1303
392 1302
常备 1302
提单 1302
文斯 1302
有形资产 1302
西蒙 1302
该是 1302
车票 1302
× 1301
三岁 1301
兑换率 1301
写明 1301
化疗 1301
大理石 1301
孤单 1301
安的列@@ 1301
床位 1301
样板 1301
洗手 1301
演进 1301
特别感谢 1301
蹈@@ 1301
他家 1300
伊朗核 1300
制冷@@ 1300
听觉 1300
呼唤 1300
国际会计 1300
机密性 1300
栗 1300
突 1300
获得者 1300
资格@@ 1300
资金短缺 1300
韧性 1300
Facebook 1299
万国@@ 1299
农村居民 1299
包机 1299
帆船 1299
慈爱 1299
斯马@@ 1299
营养状况 1299
379 1298
uc@@ 1298
中仅 1298
创性 1298
吞并 1298
巨大贡献 1298
民主党人 1298
瘘管 1298
绝非 1298
阿拉伯联盟 1298
高标准 1298
512 1297
pa@@ 1297
国立大学 1297
录制 1297
机动车 1297
条所载 1297
涡 1297
炸毁 1297
美国银行 1297
解救 1297
钢筋 1297
akh@@ 1296
伐 1296
入门 1296
尼罗 1296
展望未来 1296
教师@@ 1296
早饭 1296
生化 1296
高位 1296
一队 1295
中外@@ 1295
接收国 1295
消耗量 1295
涌现 1295
Kam@@ 1294
X光 1294
不懂 1294
举证 1294
供货 1294
内尔 1294
忠于 1294
捷克斯洛伐克 1294
新车 1294
牛排 1294
管理机制 1294
＝ 1294
仍应 1293
开会@@ 1293
徽 1293
扔掉 1293
游艇 1293
狮@@ 1293
监狱@@ 1293
碘 1293
表层 1293
请愿书 1293
代际 1292
共同行动 1292
出错 1292
工时 1292
毛巾 1292
赡养费 1292
ans@@ 1291
二章 1291
借钱 1291
反向 1291
塌@@ 1291
息息相关 1291
打字 1291
承受@@ 1291
气质 1291
第一段 1291
遇难 1291
镁 1291
阿齐兹 1291
Gon@@ 1290
几岁 1290
十分必要 1290
商贸 1290
地理信息 1290
居室 1290
薄弱环节 1290
项链 1290
中华民族 1289
使用量 1289
协约 1289
四级 1289
实情 1289
总费用 1289
敌国 1289
灌木 1289
独家 1289
畜牧 1289
窘@@ 1289
陆续 1289
1559 1288
__@@ 1288
动身 1288
君主 1288
悉@@ 1288
油井 1288
电车 1288
男友 1288
福德 1288
私 1288
自然科学 1288
迷失 1288
361 1287
国民收入 1287
坚硬 1287
增援 1287
贞@@ 1287
越是 1287
食物@@ 1287
0.3 1286
人解 1286
奖牌 1286
我该 1286
提炼 1286
握住 1286
404 1285
9.8 1285
一个个 1285
保住 1285
惊恐 1285
抬 1285
昨天晚上 1285
污泥 1285
烯 1285
聋 1285
薯@@ 1285
赡养 1285
过半数 1285
上门 1284
严重不足 1284
卸 1284
开普@@ 1284
恩贾梅纳 1284
慌 1284
明知 1284
竞争能力 1284
航道 1284
藏族 1284
距@@ 1284
sk@@ 1283
卧 1283
心跳 1283
慨 1283
无穷@@ 1283
池塘 1283
河里 1283
魁@@ 1283
九十年代 1282
值得称赞 1282
做个 1282
减让 1282
工作站 1282
拾@@ 1282
指甲 1282
杰明 1282
沉思 1282
竞技 1282
莫罗 1282
衬 1282
谋杀罪 1282
贺 1282
违宪 1282
通则 1282
食堂 1282
Tar@@ 1281
丽莎 1281
密不可分 1281
弗里敦 1281
接触@@ 1281
方向@@ 1281
水里 1281
渗入 1281
空闲 1281
赏 1281
CST 1280
中约 1280
二零零四年 1280
冉阿让 1280
加盟 1280
占多数 1280
孜@@ 1280
学前 1280
心意 1280
总长 1280
悬崖 1280
成员@@ 1280
月光 1280
班加@@ 1280
班子 1280
生命危险 1280
相匹配 1280
粮食供应 1280
25.@@ 1279
At@@ 1279
Az@@ 1279
八名 1279
分之一 1279
加油站 1279
如期 1279
必备 1279
扁 1279
拖车 1279
正为 1279
睹 1279
蔓@@ 1279
警署 1279
购物中心 1279
以下几点 1278
坑@@ 1278
好战 1278
赞助@@ 1278
还款 1278
Don 1277
世行 1277
巴斯 1277
并发 1277
治疗@@ 1277
节食 1277
西北@@ 1277
解释@@ 1277
音像 1277
Khan 1276
World 1276
XI 1276
一两年 1276
两座 1276
传承 1276
冗@@ 1276
地貌 1276
很广 1276
数周 1276
无动于衷 1276
诊治 1276
集成@@ 1276
怨恨 1275
教益 1275
电力供应 1275
知识经济 1275
签字@@ 1275
详 1275
黑洞 1275
Bra@@ 1274
tan@@ 1274
中要 1274
亨特 1274
出行 1274
受援 1274
处死 1274
幽默感 1274
抵抗@@ 1274
洛美 1274
美洲国家 1274
被困 1274
规模较 1274
趾 1274
陵 1274
颅@@ 1274
买入 1273
再也不能 1273
周到 1273
精神病院 1273
铁路运输 1273
391 1272
XIV 1272
创新能力 1272
单调 1272
夹克 1272
开放性 1272
当家@@ 1272
榜@@ 1272
社会阶层 1272
金边 1272
10.2 1271
允@@ 1271
克拉@@ 1271
基本概念 1271
或愿 1271
殖 1271
深思熟虑 1271
病媒 1271
菇 1271
辨识 1271
追捕 1271
韧@@ 1271
办公楼 1270
卡比拉 1270
完全一致 1270
废水处理 1270
花瓶 1270
苔丝 1270
见证人 1270
边远 1270
重大事件 1270
上台 1269
喜好 1269
娘@@ 1269
揭开 1269
最新@@ 1269
有一天 1269
欠发达 1269
硬盘 1269
装船 1269
高尔夫 1269
ali@@ 1268
è 1268
全美 1268
农村@@ 1268
塞尔维@@ 1268
急忙 1268
拜托 1268
沙子 1268
滤波 1268
缠 1268
营养素 1268
403 1267
ç 1267
产值 1267
伊利@@ 1267
复活节 1267
扎伊 1267
架子 1267
法尔 1267
监会 1267
考古@@ 1267
自由市场 1267
蒸气 1267
车库 1267
金刚@@ 1267
不尽相同 1266
卫生领域 1266
尘土 1266
廉署 1266
登机 1266
衡平 1266
袭击者 1266
赖喇嘛 1266
长期性 1266
高点 1266
Alma 1265
丢掉 1265
传闻 1265
动荡@@ 1265
召回 1265
应付款 1265
心智 1265
氨基@@ 1265
沼泽 1265
私法 1265
越来越少 1265
锦标赛 1265
附则 1265
页数 1265
中国人民@@ 1264
商家 1264
残害 1264
燥 1264
行车 1264
订明 1264
逻辑@@ 1264
鄙@@ 1264
风气 1264
Kafr 1263
Pi@@ 1263
农产 1263
加里 1263
土机 1263
大地@@ 1263
弗里 1263
抑或 1263
监管者 1263
答覆 1263
股东@@ 1263
赠送 1263
超声波 1263
中间商 1262
即刻 1262
受苦 1262
哥伦比亚大学 1262
夺去 1262
尽其@@ 1262
德勒 1262
编译 1262
谋杀案 1262
韧 1262
501 1261
书本 1261
动人 1261
失常 1261
尔曼 1261
普林@@ 1261
珥 1261
瑜伽 1261
肯尼亚政府 1261
艳@@ 1261
驱动力 1261
久以来 1260
办事员 1260
地平线 1260
地里 1260
垒 1260
尽可能减少 1260
戴着 1260
教育者 1260
斯科特 1260
爱国者 1260
病因 1260
营救 1260
yan 1259
克罗 1259
几条 1259
哈拉 1259
市场营销 1259
平坦 1259
扫射 1259
安全带 1258
稳步@@ 1258
纳特 1258
财政管理 1258
预后 1258
额为 1258
Mak@@ 1257
七项 1257
从属 1257
会令 1257
俊@@ 1257
光泽 1257
军舰 1257
原子弹 1257
台北 1257
摄取 1257
格拉@@ 1257
看重 1257
蜗@@ 1257
谓@@ 1257
逃亡 1257
道义上 1257
一手 1256
党内 1256
公决 1256
半个世纪 1256
另一边 1256
平安@@ 1256
文艺@@ 1256
法律条文 1256
经理人 1256
胺@@ 1256
表征 1256
谊 1256
转化成 1256
非成员国 1256
IR 1255
一圈 1255
佛罗里达州 1255
原则立场 1255
害虫 1255
毛利 1255
疏 1255
臀@@ 1255
购物@@ 1255
赞助者 1255
迪斯@@ 1255
9.5 1254
今年年底 1254
四位 1254
多为 1254
布满 1254
眉 1254
督导 1254
第一夫人 1254
约翰@@ 1254
达累斯萨拉姆 1254
高层次 1254
IA 1253
LL 1253
MD@@ 1253
取用 1253
吃晚饭 1253
布尼亚 1253
新西兰政府 1253
无处@@ 1253
洛伊 1253
纺@@ 1253
自来水 1253
蓬 1253
调查局 1253
435 1252
B型 1252
HSP 1252
ovi 1252
丝绸 1252
篇章 1252
者@@ 1252
讲演 1252
谱法 1252
追随 1252
郭@@ 1252
非官方 1252
依循 1251
倾销@@ 1251
发布@@ 1251
天然@@ 1251
尼日利亚政府 1251
德曼 1251
绵羊 1251
逃往 1251
XIII 1250
农场主 1250
半数@@ 1250
巴勒莫 1250
截 1250
拮据 1250
条下 1250
特兰 1250
54@@ 1249
保留@@ 1249
十分之一 1249
屡次 1249
市场机制 1249
很久以前 1249
怂恿 1249
核心@@ 1249
沉重@@ 1249
渔业资源 1249
终审 1249
落成 1249
评估所 1249
Maria 1248
ena 1248
前身 1248
叙 1248
待审 1248
时代@@ 1248
暴动 1248
极小 1248
烛@@ 1248
生活状况 1248
肩负 1248
逼近 1248
黎巴嫩@@ 1248
EB 1247
充分行使 1247
再用 1247
基辅 1247
批评@@ 1247
掀起 1247
林斯 1247
毯子 1247
而设 1247
蜡@@ 1247
407 1246
vic 1246
不解 1246
义词 1246
古典@@ 1246
固执 1246
无能 1246
波长 1246
称道 1246
记忆@@ 1246
雌性 1246
110.@@ 1245
437 1245
个区 1245
人去 1245
发抖 1245
曾于 1245
烟囱 1245
藉此 1245
讽 1245
辅助性 1245
默克尔 1245
12.5 1244
一两个 1244
争取@@ 1244
多岁 1244
很久 1244
角落里 1244
进制 1244
齐心协力 1244
Kal@@ 1243
Pa@@ 1243
保密性 1243
巴拉@@ 1243
泊 1243
一千 1242
上风 1242
主题@@ 1242
华尔@@ 1242
名下 1242
响起 1242
孤儿院 1242
学系 1242
宏大 1242
成交 1242
文化交流 1242
村里 1242
淤@@ 1242
瑞典@@ 1242
藤@@ 1242
讨价还价 1242
赌场 1242
赛车 1242
静静地 1242
SB 1241
书面材料 1241
创业精神 1241
富于 1241
少校 1241
巢@@ 1241
情侣 1241
感恩 1241
每晚 1241
痴 1241
知情权 1241
罩@@ 1241
视网膜 1241
骄@@ 1241
409 1240
Jabal 1240
eh 1240
接头 1240
流泪 1240
着迷 1240
逐案 1240
DA 1239
上瘾 1239
中转 1239
再接再厉 1239
摧@@ 1239
检察署 1239
毅力 1239
用不着 1239
管人 1239
紧接着 1239
美容 1239
贝基 1239
违法@@ 1239
馏 1239
Mur@@ 1238
下水道 1238
之家 1238
刹车 1238
前行 1238
北南 1238
基督教徒 1238
安放 1238
室内@@ 1238
录像带 1238
快餐 1238
戈兰高地 1238
新机制 1238
案卷 1238
甲状腺 1238
第二段 1238
连锁@@ 1238
那件 1238
邮箱 1238
优质@@ 1237
史上 1237
把门 1237
毗@@ 1237
涛 1237
第一卷 1237
邸 1237
军事演习 1236
出版商 1236
增高 1236
定购 1236
常见@@ 1236
抽样@@ 1236
机密@@ 1236
次访问 1236
猎物 1236
示威游行 1236
防水 1236
高速@@ 1236
521 1235
Bor@@ 1235
Ny@@ 1235
之力 1235
全面实现 1235
微薄 1235
护理@@ 1235
摔 1235
教育局 1235
监督员 1235
省略 1235
第比利斯 1235
越狱 1235
适用@@ 1235
Luis 1234
Naqurah 1234
PaperSmart 1234
万多 1234
人员配备 1234
前锋 1234
句意 1234
四川@@ 1234
环发 1234
生机 1234
速器 1234
阅读@@ 1234
438 1233
ela 1233
倚@@ 1233
婚姻法 1233
宏观@@ 1233
得主 1233
拉夫 1233
电力系统 1233
瘟@@ 1233
首席法官 1233
1521 1232
上载 1232
保姆 1232
保持良好 1232
友情 1232
咖啡馆 1232
多德 1232
憎恶 1232
抓获 1232
林丹 1232
自相矛盾 1232
达巴 1232
集团@@ 1232
勇士 1231
吉利 1231
挑剔 1231
捡 1231
揽 1231
时而 1231
看管 1231
继任者 1231
顽强 1231
香水 1231
伊德 1230
天文 1230
小姑娘 1230
恳 1230
注册处 1230
纽约州 1230
蜡 1230
评论@@ 1230
霸权 1230
1503 1229
UNCTAD 1229
den 1229
ul 1229
一朵 1229
何人 1229
冻结资产 1229
只应 1229
执勤 1229
散射 1229
美国联邦 1229
行文 1229
订婚 1229
973 1228
Lin@@ 1228
丙烯@@ 1228
人民党 1228
伞@@ 1228
债务国 1228
吝@@ 1228
威士忌 1228
店员 1228
拉迪@@ 1228
整治 1228
深夜 1228
特大 1228
理想@@ 1228
绊@@ 1228
赢利 1228
不加 1227
人身@@ 1227
功能性 1227
务局 1227
取证 1227
哑 1227
大军 1227
悲 1227
手腕 1227
暗中 1227
病原体 1227
第三者 1227
舌@@ 1227
远比 1227
遗属 1227
阿姆斯特丹 1227
Ben 1226
ff 1226
一年级 1226
塔什干 1226
开工 1226
拉丁@@ 1226
沿岸@@ 1226
煽@@ 1226
站不住脚 1226
行不通 1226
远方 1226
馈@@ 1226
De 1225
IF@@ 1225
关节@@ 1225
受到破坏 1225
姚明 1225
期付款 1225
点心 1225
社会秩序 1225
自行@@ 1225
警察局长 1225
设计方案 1225
457 1224
乌萨马 1224
伦西亚 1224
向着 1224
定理 1224
尼罗河 1224
崎@@ 1224
来访者 1224
火力 1224
甫 1224
盔 1224
精神疾病 1224
详情请 1224
锤 1224
风筝 1224
May@@ 1223
专栏 1223
分配原则 1223
向外 1223
唱名 1223
恶人 1223
暂 1223
激动@@ 1223
电能 1223
线条 1223
虫病 1223
赶出 1223
阿尔巴尼亚@@ 1223
下巴 1222
双重@@ 1222
对系统 1222
慢性病 1222
法塔赫 1222
深感@@ 1222
溃疡 1222
自主性 1222
英语口语 1222
防火墙 1222
525 1221
da@@ 1221
六周 1221
医护人员 1221
参赛@@ 1221
向量 1221
威尼斯 1221
婴@@ 1221
工伤 1221
洒@@ 1221
澳元 1221
爱德@@ 1221
电话会议 1221
纳尔 1221
警力 1221
378 1220
交火 1220
城乡@@ 1220
有近 1220
独特性 1220
田地 1220
478 1219
DC2 1219
ei@@ 1219
⑶ 1219
一来 1219
另一人 1219
失业@@ 1219
巧合 1219
开放源码 1219
校内 1219
火炮 1219
第二十三 1219
绑架@@ 1219
群众@@ 1219
记者@@ 1219
阿萨德 1219
Khal@@ 1218
XVIII 1218
分布@@ 1218
剑桥 1218
回籍 1218
处处 1218
晚宴 1218
独立自主 1218
磺 1218
而喻 1218
须要 1218
1930 1217
四国 1217
对外开放 1217
导出 1217
峡@@ 1217
推论 1217
飞翔 1217
ve 1216
一块@@ 1216
不敢相信 1216
勇 1216
卑鄙 1216
哀 1216
埋设 1216
外科手术 1216
娇@@ 1216
怎能 1216
提款权 1216
智商 1216
洲@@ 1216
热闹 1216
矿井 1216
绑定 1216
网路 1216
菲特 1216
马萨@@ 1216
七十 1215
僵硬 1215
刀具 1215
勋@@ 1215
堤@@ 1215
比利@@ 1215
炎症 1215
职业妇女 1215
证券市场 1215
贫民区 1215
领先@@ 1215
if@@ 1214
内衣 1214
地方@@ 1214
守法 1214
帕拉 1214
成语 1214
改用 1214
氨 1214
水器 1214
逐个 1214
715 1213
Tu@@ 1213
债权@@ 1213
另一半 1213
可追溯 1213
审判程序 1213
巴厘岛 1213
想方设法 1213
扰@@ 1213
有违 1213
核可@@ 1213
格拉斯 1213
第九章 1213
乙型 1212
公司法 1212
加拿大人 1212
劳务@@ 1212
女演员 1212
审理案件 1212
干练 1212
手机@@ 1212
核电 1212
犯罪案件 1212
经商 1212
自律 1212
附加条件 1212
鲜艳 1212
376 1211
乒乓球 1211
传导 1211
六十@@ 1211
奥会 1211
方共同市场 1211
有利可图 1211
松散 1211
沙特阿拉伯王国 1211
药剂 1211
需在 1211
首届 1211
ado 1210
分析家 1210
卡利 1210
地表水 1210
度假@@ 1210
庸置疑 1210
捆绑 1210
418 1209
9.4 1209
上床 1209
二苯 1209
咽@@ 1209
学龄儿童 1209
履历 1209
推动者 1209
无从 1209
某种意义 1209
核战争 1209
灭亡 1209
认明 1209
419 1208
424 1208
740 1208
if 1208
mail 1208
不信 1208
任意性 1208
咳 1208
姊妹 1208
宰 1208
想一想 1208
染上 1208
求婚 1208
污名 1208
确诊 1208
耶稣基督 1208
职业者 1208
荷载 1208
高素质 1208
olo@@ 1207
以致于 1207
剖析 1207
惨 1207
斯特拉@@ 1207
杏@@ 1207
混沌 1207
演唱 1207
灯塔 1207
都灵 1207
CRIC 1206
mer 1206
临界@@ 1206
同伙 1206
异构@@ 1206
条纹 1206
液相 1206
相似之处 1206
邮 1206
钉子 1206
477 1205
INC 1205
倡@@ 1205
屯门 1205
裁量权 1205
丹麦政府 1204
净增 1204
堡垒 1204
失散 1204
延到 1204
科尔多凡 1204
陪审员 1204
香港特别行政区政府 1204
鲸鱼 1204
421 1203
455 1203
中之@@ 1203
恶性@@ 1203
社会变革 1203
芝@@ 1203
邮报 1203
除此@@ 1203
雅温得 1203
香料 1203
que 1202
之心 1202
借助于 1202
充满希望 1202
分离主义 1202
引出 1202
戴上 1202
朋@@ 1202
第四款 1202
485 1201
840 1201
CT@@ 1201
bin 1201
举报@@ 1201
可受 1201
国际惯例 1201
增建 1201
大写字母 1201
密钥 1201
混蛋 1201
鸡肉 1201
一匹 1200
中场 1200
公平性 1200
兼容性 1200
前述 1200
合同条款 1200
大吃@@ 1200
安大略省 1200
点火 1200
登记簿 1200
祖父母 1200
结为 1200
萝@@ 1200
语言学 1200
保持平衡 1199
八十 1199
即将来临 1199
基督山 1199
忍不住 1199
爪 1199
税务机关 1199
采取相应 1199
颈部 1199
饭菜 1199
驾驶执照 1199
Af@@ 1198
For@@ 1198
Un@@ 1198
上传 1198
亚美@@ 1198
交易商 1198
俭 1198
孕期 1198
尼特 1198
政策@@ 1198
昔日 1198
突袭 1198
胡安 1198
颤 1198
63@@ 1197
del@@ 1197
sh 1197
专门从事 1197
优缺点 1197
侯 1197
插件 1197
攻读 1197
方案设计 1197
殖@@ 1197
生物资源 1197
血症 1197
诱人 1197
384 1196
三者 1196
充分说明 1196
切实@@ 1196
历经 1196
后继 1196
民粹主义 1196
氯烃 1196
色谱 1196
那段 1196
亚洲地区 1195
养殖@@ 1195
坦率地 1195
巫 1195
弓@@ 1195
盛大 1195
lah 1194
冥想 1194
印刷品 1194
大大降低 1194
开拓@@ 1194
拉巴特 1194
有的是 1194
浓厚 1194
生育@@ 1194
皂白 1194
积聚 1194
通报会 1194
香气 1194
ach 1193
事业单位 1193
呈报 1193
喷洒 1193
坚实基础 1193
实践证明 1193
得益 1193
愈来愈 1193
旋律 1193
末期 1193
络 1193
西西@@ 1193
赛跑 1193
Shu@@ 1192
ham 1192
od@@ 1192
两难 1192
了当 1192
出面 1192
同该 1192
哮喘 1192
夜班 1192
安达 1192
定期@@ 1192
截面 1192
斯特罗 1192
海事@@ 1192
苍蝇 1192
英亩 1192
贵重 1192
避孕@@ 1192
都柏林 1192
预想 1192
7000 1191
实质问题 1191
底线 1191
球赛 1191
连通性 1191
443 1190
两场 1190
何地 1190
复仇 1190
失学 1190
如其@@ 1190
开幕@@ 1190
情绪@@ 1190
改观 1190
易事 1190
毫不犹豫 1190
黑客 1190
产期 1189
任地 1189
回收率 1189
培 1189
急剧下降 1189
案人 1189
通讯社 1189
非同@@ 1189
→ 1188
不足为@@ 1188
书面报告 1188
军事设施 1188
制动 1188
剪切 1188
工件 1188
戈登 1188
批出 1188
海床 1188
矢量 1188
英才 1188
表面@@ 1188
433 1187
8.9 1187
嗡@@ 1187
嫌 1187
小提琴 1187
抚养费 1187
新书 1187
邀@@ 1187
ex@@ 1186
ova 1186
一旁 1186
丝网 1186
亚历@@ 1186
大大的 1186
尽量@@ 1186
海湾@@ 1186
涉足 1186
皱纹 1186
获得性 1186
装入 1186
转子 1186
作弊 1185
热情@@ 1185
等离子体 1185
罕 1185
重审 1185
韦斯 1185
393 1184
嘘 1184
国家银行 1184
客机 1184
悬浮 1184
惊 1184
战事 1184
枕头 1184
民间@@ 1184
第四项 1184
默示 1184
亲节 1183
仅如此 1183
全体@@ 1183
博士@@ 1183
布卡武 1183
应能 1183
施暴者 1183
疤 1183
芳香 1183
葵@@ 1183
蝙@@ 1183
计画 1183
超级大国 1183
864 1182
US@@ 1182
ger 1182
he 1182
不由@@ 1182
大腿 1182
探险 1182
新举措 1182
方位 1182
母国 1182
海上@@ 1182
渴@@ 1182
着装 1182
策略@@ 1182
赌 1182
EM@@ 1181
上加@@ 1181
不容许 1181
不尽 1181
亿英镑 1181
切入点 1181
希米 1181
承包@@ 1181
摇晃 1181
武器化 1181
迅猛 1181
那份 1181
重庆 1181
重要途径 1181
防止出现 1181
静电 1181
LA 1180
介绍@@ 1180
俄罗斯联邦政府 1180
固化 1180
展现出 1180
承载 1180
栖 1180
栽 1180
波哥大 1180
联营 1180
铁矿 1180
je 1179
候审 1179
察看 1179
携带@@ 1179
背诵 1179
说成 1179
铃薯 1179
388 1178
不及格 1178
冷水 1178
坐落 1178
天真 1178
太快 1178
害性 1178
打赌 1178
文具 1178
旁观 1178
曲面 1178
波利斯 1178
管理费 1178
视而不见 1178
超额 1178
辉@@ 1178
阿拉斯加 1178
隐患 1178
397 1177
iyah 1177
之大 1177
国库 1177
布鲁斯 1177
明显改善 1177
第十一部分 1177
管治 1177
翻了一番 1177
识别@@ 1177
透明性 1177
醋@@ 1177
高性能 1177
444 1176
565 1176
lez 1176
ni@@ 1176
协调性 1176
吨@@ 1176
好比 1176
搭乘 1176
斯卡 1176
洗手@@ 1176
财务科 1176
那不@@ 1176
445 1175
505 1175
同化 1175
左手 1175
拥 1175
栈 1175
每股 1175
篱@@ 1175
背面 1175
ft 1174
两院 1174
仍为 1174
倒霉 1174
囊括 1174
尔夫 1174
店主 1174
扩大@@ 1174
拉伸 1174
排挤 1174
收录 1174
深水 1174
腐烂 1174
药剂@@ 1174
萃取 1174
议论 1174
诺贝尔和平奖 1174
镇定 1174
506 1173
Ke@@ 1173
京 1173
人类学 1173
国际争端 1173
外活动 1173
控制区 1173
机动车辆 1173
汹@@ 1173
炼油厂 1173
膳@@ 1173
395 1172
RP@@ 1172
关系密切 1172
打仗 1172
趁 1172
乌兹别@@ 1171
仔 1171
屁 1171
巴尔干@@ 1171
母公司 1171
沉淀 1171
没见 1171
要紧 1171
483 1170
ous@@ 1170
不经@@ 1170
利润率 1170
地面站 1170
增益 1170
廉 1170
摄氏度 1170
油墨 1170
温馨 1170
湄@@ 1170
片面 1170
Mus@@ 1169
Sab@@ 1169
不规则 1169
伊夫 1169
供求 1169
华德 1169
外交代表 1169
姐 1169
孕育 1169
家务劳动 1169
并处 1169
弛 1169
波罗 1169
润滑 1169
生活中 1169
说不出 1169
颂@@ 1169
710 1168
不平 1168
多数@@ 1168
好奇心 1168
妥善处理 1168
柏 1168
美景 1168
羞愧 1168
防疫 1168
伊拉 1167
北京市 1167
印度人 1167
噪@@ 1167
基层组织 1167
基点 1167
录音@@ 1167
意外事故 1167
留有 1167
自评 1167
荃湾 1167
举行@@ 1166
单元@@ 1166
唆 1166
噬 1166
已同 1166
扮演@@ 1166
拳击 1166
经济基础 1166
美观 1166
语境 1166
逊@@ 1166
饵 1166
880 1165
化铀 1165
叙级 1165
宾语 1165
小节 1165
玷@@ 1165
罪孽 1165
艰辛 1165
节中 1165
萨格勒布 1165
钉@@ 1165
餐桌 1165
770 1164
ham@@ 1164
决定权 1164
利弊 1164
发来 1164
挠 1164
欺凌 1164
火鸡 1164
落实工作 1164
Rad@@ 1163
两所 1163
出场 1163
半夜 1163
恐 1163
悬殊 1163
批评者 1163
接生 1163
文化教育 1163
泽西@@ 1163
炎@@ 1163
留学生 1163
防护@@ 1163
2.0 1162
398 1162
oun@@ 1162
内乱 1162
基金项目 1162
失败@@ 1162
岸边 1162
彻 1162
征兆 1162
执法@@ 1162
控方 1162
易卜拉欣 1162
查谟 1162
照护 1162
理工学院 1162
第十八次 1162
长足@@ 1162
单车 1161
四倍 1161
基调 1161
工具箱 1161
扩张@@ 1161
明文 1161
欧美 1161
湿润 1161
社交@@ 1161
细心 1161
贫富@@ 1161
酝酿 1161
问到 1161
486 1160
伍德 1160
利雅得 1160
垢 1160
客气@@ 1160
布干@@ 1160
曲折 1160
注意@@ 1160
狠狠 1160
脑海 1160
自然保护区 1160
隐性 1160
一中 1159
丑陋 1159
佩尔 1159
姜@@ 1159
序号 1159
廉政 1159
消亡 1159
科威特国 1159
统筹@@ 1159
自已 1159
迟钝 1159
TV 1158
不稳定性 1158
周转@@ 1158
姬 1158
总价值 1158
憎恨 1158
把头 1158
放学 1158
更难 1158
罪责 1158
财务处 1158
贤@@ 1158
轻视 1158
AR 1157
Sul@@ 1157
不断更新 1157
云南 1157
危地马拉政府 1157
古巴共和国 1157
唇@@ 1157
夷@@ 1157
就业人数 1157
成绩@@ 1157
摩尔 1157
杂货@@ 1157
毛衣 1157
避免出现 1157
不朽 1156
俄亥@@ 1156
几句话 1156
填妥 1156
头疼 1156
妥善@@ 1156
而知 1156
血病 1156
sch@@ 1155
ä 1155
两件 1155
二号 1155
凭单 1155
年制 1155
沐@@ 1155
疑惑 1155
秘密@@ 1155
胜者 1155
532 1154
BA 1154
常设机构 1154
期货@@ 1154
根本无法 1154
浦 1154
灵敏@@ 1154
空气@@ 1154
自下而上 1154
致开幕词 1154
辩论会 1154
002 1153
Carlos 1153
anda 1153
no 1153
č 1153
之物 1153
伽@@ 1153
公证 1153
关乎 1153
出对 1153
十分困难 1153
可预见性 1153
导入 1153
神经系统 1153
车里 1153
雅图 1153
458 1152
st 1152
一笑 1152
冕 1152
咪 1152
惨重 1152
欠佳 1152
沉没 1152
继承@@ 1152
规范化 1152
贡献@@ 1152
起草@@ 1152
路由 1152
达尔文 1152
过渡阶段 1152
酯@@ 1152
顶点 1152
预处理 1152
\ 1151
mar@@ 1151
安全套 1151
海地区 1151
润滑@@ 1151
皿 1151
纽 1151
震撼 1151
465 1150
513 1150
㈧ 1150
专业技能 1150
公民@@ 1150
几类 1150
打动 1150
无耻 1150
晰 1150
牛仔 1150
男女比例 1150
第十九次 1150
通讯员 1150
采行 1150
非婚@@ 1150
ish 1149
交换所 1149
会外 1149
傲@@ 1149
自行决定 1149
448 1148
国际航空 1148
应付@@ 1148
彰显 1148
接受者 1148
深层次 1148
牡@@ 1148
相干 1148
祸患 1148
pa 1147
一幢 1147
乐团 1147
二读 1147
偷偷 1147
凳 1147
刑事管辖 1147
帧 1147
平权 1147
朵@@ 1147
淹@@ 1147
眼球 1147
秘鲁政府 1147
脆 1147
谊@@ 1147
驱赶 1147
453 1146
val@@ 1146
去向 1146
反常 1146
吉卜@@ 1146
多月 1146
收听 1146
榴弹 1146
老百姓 1146
苑 1146
陋 1146
高价 1146
529 1145
导管 1145
尤指 1145
技师 1145
数以百计 1145
消遣 1145
真是太 1145
蒂娜 1145
贵宾 1145
转售 1145
雄心 1145
Ki@@ 1144
代顿 1144
倾弃 1144
入口处 1144
冯@@ 1144
垄断@@ 1144
头巾 1144
定出 1144
家庭作业 1144
或作 1144
数组 1144
汇兑 1144
沙拉夫 1144
[...]
